<s>	0
<pad>	0
</s>	0
<unk>	0
,	-3.35077
.	-3.53327
▁the	-3.55363
▁in	-4.18071
▁of	-4.22869
▁to	-4.2492
▁die	-4.27727
▁,	-4.33878
▁der	-4.41008
▁and	-4.46096
▁	-4.47083
▁.	-4.56392
▁und	-4.65098
s	-4.73332
▁a	-4.8414
▁is	-4.89228
▁that	-4.93511
-	-5.20104
0	-5.25254
▁zu	-5.25575
n	-5.32017
▁for	-5.37427
▁den	-5.41651
▁I	-5.48213
▁be	-5.49433
▁ist	-5.51957
en	-5.53298
▁on	-5.58039
▁von	-5.64607
▁this	-5.66601
▁für	-5.69159
▁are	-5.72261
▁we	-5.75177
▁nicht	-5.78397
▁das	-5.78796
▁it	-5.79555
▁dass	-5.7999
▁have	-5.80686
▁not	-5.81395
▁an	-5.82013
2	-5.83565
1	-5.83734
▁auf	-5.88687
▁eine	-5.89357
▁The	-5.8963
▁as	-5.93679
▁des	-5.94456
▁with	-5.94598
▁wir	-5.98691
e	-6.00399
▁will	-6.02942
▁werden	-6.03069
▁es	-6.07046
▁has	-6.12642
▁by	-6.12989
▁mit	-6.14433
▁im	-6.15023
▁sich	-6.17478
▁Die	-6.18181
▁which	-6.19054
▁ein	-6.20004
▁European	-6.23806
▁auch	-6.26844
▁dem	-6.32723
▁ich	-6.35577
▁–	-6.36595
▁was	-6.37545
▁sind	-6.39754
▁wird	-6.39792
▁In	-6.4045
▁s	-6.4141
9	-6.41837
▁’	-6.42089
▁'	-6.42676
▁haben	-6.45924
▁Union	-6.46387
▁also	-6.49072
▁Ich	-6.50166
▁-	-6.50201
▁would	-6.51354
▁hat	-6.51355
▁als	-6.51418
▁so	-6.5161
▁from	-6.56583
▁EU	-6.57235
▁sie	-6.57925
▁at	-6.58169
▁um	-6.59635
▁all	-6.59859
▁Mr	-6.5986
ing	-6.644
▁should	-6.65248
er	-6.66046
▁We	-6.67182
▁wie	-6.67965
▁(	-6.69447
5	-6.69672
▁über	-6.72289
▁must	-6.72812
▁more	-6.73711
▁but	-6.74386
▁Commission	-6.7482
▁been	-6.77349
▁President	-6.80718
▁its	-6.81991
▁can	-6.82361
▁Wir	-6.8238
▁their	-6.82878
▁einer	-6.83358
▁our	-6.83429
▁It	-6.84082
▁Europäische	-6.85821
▁diese	-6.85996
r	-6.8664
▁Kommission	-6.87267
▁zur	-6.88014
▁or	-6.88812
3	-6.90331
▁Herr	-6.93412
▁Sie	-6.93445
?	-6.94452
▁Das	-6.97199
▁they	-6.98436
▁bei	-6.98825
▁einen	-6.99248
▁müssen	-7.0126
▁This	-7.01691
:	-7.01691
▁do	-7.01793
▁aus	-7.02319
▁Es	-7.0414
▁uns	-7.05353
▁noch	-7.05783
▁dieser	-7.06112
▁you	-7.06416
▁countries	-7.06648
▁Europe	-7.07127
▁there	-7.07722
ed	-7.09544
▁vor	-7.0974
▁%	-7.09855
▁one	-7.103
▁like	-7.10656
▁am	-7.10789
4	-7.11794
▁these	-7.15126
)	-7.15176
▁sein	-7.15632
▁nur	-7.16309
▁nach	-7.17015
▁können	-7.17568
▁Parliament	-7.17722
8	-7.17966
▁about	-7.18527
▁kann	-7.18924
▁report	-7.19898
▁muss	-7.20382
▁aber	-7.20829
▁States	-7.21217
;	-7.21513
▁oder	-7.22136
7	-7.22252
▁very	-7.23719
▁“	-7.24444
▁Member	-7.25782
▁möchte	-7.26
▁who	-7.26139
▁other	-7.26499
6	-7.26563
▁Präsident	-7.26953
▁what	-7.27683
▁no	-7.27698
▁new	-7.28245
▁only	-7.28368
▁Der	-7.286
▁durch	-7.28883
▁wenn	-7.29398
▁people	-7.2957
▁diesem	-7.29892
▁daß	-7.3011
▁war	-7.3149
!	-7.32169
▁Council	-7.33224
▁than	-7.33273
▁need	-7.33766
▁zum	-7.36432
▁einem	-7.3808
▁now	-7.38963
▁if	-7.39481
▁Bericht	-7.39799
▁time	-7.40145
d	-7.4035
▁sehr	-7.4259
▁us	-7.43165
es	-7.43567
▁important	-7.43896
▁policy	-7.44322
▁mehr	-7.44387
t	-7.45478
▁ihre	-7.47006
▁But	-7.47696
▁such	-7.48053
▁out	-7.48416
m	-7.48557
ly	-7.49323
▁up	-7.49749
▁Europa	-7.5075
▁my	-7.51414
▁man	-7.51581
▁wurde	-7.52018
▁Parlament	-7.52634
▁were	-7.55554
▁because	-7.55709
▁er	-7.56051
▁economic	-7.56975
▁political	-7.57153
▁into	-7.57503
▁support	-7.58952
▁some	-7.60019
▁when	-7.61174
▁make	-7.62384
▁US	-7.63105
▁world	-7.6316
▁A	-7.63584
▁many	-7.64306
▁dieses	-7.65012
▁China	-7.66279
▁keine	-7.66458
▁them	-7.67521
▁Mitgliedstaaten	-7.67939
▁those	-7.68195
▁between	-7.68986
▁work	-7.69253
▁alle	-7.70507
▁take	-7.71234
▁any	-7.71318
▁could	-7.7295
▁years	-7.72974
▁way	-7.73775
▁gibt	-7.74339
▁Frau	-7.74378
▁"	-7.75737
▁most	-7.76909
▁”	-7.77789
▁even	-7.77991
▁:	-7.78784
▁Menschen	-7.79022
▁being	-7.79304
▁gegen	-7.79448
▁That	-7.80606
▁Entwicklung	-7.80714
▁)	-7.80959
▁country	-7.81227
▁his	-7.81377
▁zwischen	-7.8173
▁made	-7.81942
▁first	-7.82388
▁therefore	-7.8273
▁diesen	-7.83009
▁As	-7.83262
▁Rat	-7.83912
▁against	-7.84717
▁had	-7.85078
▁over	-7.85322
▁unter	-7.86182
▁hier	-7.86647
▁Frage	-7.86674
▁much	-7.87032
▁eines	-7.87519
▁just	-7.88146
▁two	-7.88751
▁jedoch	-7.88788
▁rights	-7.89247
▁well	-7.89504
▁&	-7.89823
▁believe	-7.91257
▁habe	-7.91265
▁immer	-7.91389
▁market	-7.92218
▁sollten	-7.92653
▁sollte	-7.92679
▁public	-7.9425
▁financial	-7.94377
▁fact	-7.94759
▁say	-7.95117
▁he	-7.95765
▁does	-7.96009
▁heute	-7.96401
▁too	-7.97112
▁anderen	-7.97116
▁„	-7.97505
▁year	-7.97804
▁cannot	-7.98414
▁future	-7.98614
▁unsere	-7.98625
▁mich	-7.98898
▁issue	-7.99669
▁damit	-7.99793
▁dies	-7.99872
▁right	-8.00249
▁may	-8.01139
▁Commissioner	-8.012
▁social	-8.01313
▁europäischen	-8.01624
▁There	-8.01788
▁Welt	-8.01849
▁same	-8.02729
▁how	-8.0352
▁think	-8.03648
▁development	-8.03973
▁point	-8.04028
▁?	-8.04437
▁human	-8.0462
▁today	-8.04762
▁würde	-8.05649
▁good	-8.05825
▁Diese	-8.06182
▁still	-8.06241
▁So	-8.06493
▁Jahr	-8.06614
▁international	-8.06918
▁question	-8.07203
▁wurden	-8.07297
▁Länder	-8.07356
▁sondern	-8.07518
▁proposal	-8.07754
▁want	-8.0798
▁seine	-8.08048
▁dann	-8.08158
▁national	-8.08521
▁Wenn	-8.08539
▁bereits	-8.08849
▁/	-8.09022
▁long	-8.09287
▁both	-8.09527
▁part	-8.10335
▁government	-8.11112
▁clear	-8.1181
y	-8.11915
▁already	-8.12232
▁da	-8.12366
▁own	-8.12526
▁order	-8.12867
▁debate	-8.12881
▁Jahren	-8.12914
▁Zeit	-8.12997
▁system	-8.13128
▁where	-8.13213
in	-8.13579
▁ganz	-8.13709
▁If	-8.14257
▁global	-8.15046
▁course	-8.16143
▁ihrer	-8.16253
▁situation	-8.16345
▁Maßnahmen	-8.16882
▁Regierung	-8.17043
▁me	-8.17103
▁selbst	-8.17188
▁last	-8.17195
ung	-8.17254
▁Land	-8.17305
▁said	-8.17484
▁Aber	-8.17638
▁possible	-8.17653
▁jetzt	-8.17759
▁know	-8.18107
▁Im	-8.18495
▁dafür	-8.18706
▁geht	-8.18913
▁here	-8.19133
▁dazu	-8.19314
▁citizens	-8.1946
▁far	-8.19874
▁example	-8.19905
▁under	-8.20448
▁andere	-8.20662
▁vom	-8.20735
▁USA	-8.21165
▁growth	-8.21523
▁use	-8.2177
▁Recht	-8.21863
▁problem	-8.2236
▁Und	-8.22633
▁For	-8.2303
▁darauf	-8.23549
▁bis	-8.24325
▁Herrn	-8.24372
▁bin	-8.24866
▁agreement	-8.25131
▁neue	-8.25215
▁weil	-8.25304
▁why	-8.25556
▁see	-8.25577
▁measures	-8.25642
▁Dies	-8.26292
▁case	-8.26444
▁energy	-8.27207
▁Arbeit	-8.27344
▁hope	-8.27397
▁however	-8.27641
▁within	-8.27724
▁wäre	-8.27857
▁viele	-8.28568
▁United	-8.29153
▁common	-8.29381
▁könnte	-8.30012
▁However	-8.30362
▁crisis	-8.30721
▁neuen	-8.31378
▁Ein	-8.32006
▁Bürger	-8.32076
▁viel	-8.32211
▁process	-8.32229
▁end	-8.32428
▁unserer	-8.33135
▁economy	-8.33885
▁able	-8.34296
▁Committee	-8.34447
▁without	-8.34641
▁Wie	-8.34655
▁Problem	-8.35133
▁view	-8.35151
▁your	-8.35182
▁put	-8.35239
▁sagen	-8.35348
▁meine	-8.35411
▁level	-8.35433
▁before	-8.36113
▁number	-8.36218
▁trade	-8.36479
▁means	-8.36485
▁through	-8.36581
▁taken	-8.37271
▁Ländern	-8.37667
▁machen	-8.37834
▁zwei	-8.38185
▁mir	-8.38883
▁denen	-8.38967
▁change	-8.38981
▁Vorschlag	-8.3947
▁ohne	-8.39808
▁tun	-8.39962
▁problems	-8.40054
▁vote	-8.40147
▁ensure	-8.40409
▁doch	-8.4069
▁einige	-8.40706
▁And	-8.40942
▁Sicherheit	-8.41271
▁wollen	-8.41448
▁wieder	-8.41933
▁Politik	-8.42034
▁Mrs	-8.42151
▁particular	-8.42521
▁power	-8.42536
al	-8.42642
▁ob	-8.42711
▁cooperation	-8.43156
▁ab	-8.43436
▁action	-8.43442
▁place	-8.43644
▁B	-8.43889
▁security	-8.43914
▁great	-8.44221
▁after	-8.44409
▁budget	-8.45487
▁Wirtschaft	-8.45729
▁ihren	-8.4584
▁denn	-8.45864
▁area	-8.4612
▁Parlaments	-8.46347
▁politischen	-8.46434
▁nun	-8.46527
▁information	-8.46669
▁Unterstützung	-8.46942
▁better	-8.47118
▁help	-8.475
▁Doch	-8.47714
▁;	-8.47728
▁schon	-8.48579
▁since	-8.48794
▁wichtig	-8.48797
▁issues	-8.48834
▁wissen	-8.49053
▁Ihnen	-8.49395
▁What	-8.49461
▁sowie	-8.4949
▁Euro	-8.50013
▁Kollegen	-8.50227
▁role	-8.50257
▁become	-8.50384
▁state	-8.50402
▁etwas	-8.50534
▁women	-8.50642
▁Fall	-8.50647
▁law	-8.50836
▁Russia	-8.50914
▁come	-8.51136
▁health	-8.51347
▁give	-8.51552
▁high	-8.51759
▁Kommissar	-8.51979
apos	-8.52441
▁Eine	-8.52502
▁again	-8.52636
▁matter	-8.52741
▁Was	-8.5276
▁einmal	-8.52799
▁further	-8.52823
▁letzten	-8.52911
▁legal	-8.53039
▁given	-8.53365
▁allem	-8.53564
▁wo	-8.53569
▁seiner	-8.53637
▁set	-8.53731
▁House	-8.53793
▁rapporteur	-8.54287
▁Bereich	-8.54427
▁particularly	-8.54716
▁Unternehmen	-8.54873
▁Jahre	-8.55078
▁whether	-8.55176
den	-8.55292
▁They	-8.55685
▁position	-8.55813
▁result	-8.55863
▁real	-8.56391
▁needs	-8.56409
▁did	-8.56586
▁besteht	-8.56678
▁Zukunft	-8.56883
▁waren	-8.57379
▁current	-8.57469
▁different	-8.57687
▁Staaten	-8.57892
▁necessary	-8.5805
▁H	-8.58057
▁allen	-8.58247
▁Ziel	-8.58311
▁less	-8.58451
▁areas	-8.5853
▁directive	-8.58649
▁few	-8.58822
▁Community	-8.58913
▁next	-8.58961
▁insbesondere	-8.59072
▁sector	-8.59286
▁three	-8.59992
▁done	-8.601
▁gentlemen	-8.60142
▁G	-8.60782
▁continue	-8.60885
▁Da	-8.61449
▁decision	-8.61766
▁Thema	-8.62044
▁un	-8.6223
▁Zusammenarbeit	-8.62546
▁Probleme	-8.62622
▁million	-8.6276
▁politische	-8.62885
▁Bedeutung	-8.63113
▁ihr	-8.63263
▁thank	-8.63867
▁geben	-8.63918
▁institutions	-8.63991
▁weiter	-8.64111
▁Grund	-8.642
▁daher	-8.64337
▁respect	-8.64497
▁policies	-8.65052
▁Rahmen	-8.65064
▁progress	-8.65157
▁approach	-8.65439
▁rules	-8.65682
▁Frauen	-8.65696
▁terms	-8.65727
▁Madam	-8.65831
▁aid	-8.66161
▁Lage	-8.66227
▁soll	-8.66231
de	-8.66456
▁services	-8.6648
▁another	-8.66669
▁while	-8.66816
▁Auch	-8.66927
▁worden	-8.67045
▁Rolle	-8.67096
▁Fragen	-8.67766
▁große	-8.67944
▁re	-8.67952
▁davon	-8.68081
▁kein	-8.68508
▁Er	-8.68594
▁seit	-8.68631
▁regard	-8.68975
▁go	-8.68975
▁Meinung	-8.693
▁At	-8.69547
▁These	-8.6962
te	-8.69735
▁Teil	-8.70096
▁down	-8.70777
▁wirklich	-8.70813
▁europäische	-8.70949
▁increase	-8.71054
▁Mittel	-8.71075
▁resolution	-8.71116
▁Aus	-8.71578
▁large	-8.71587
se	-8.71751
▁amendments	-8.71933
▁Richtlinie	-8.71978
▁major	-8.72174
g	-8.72268
▁meiner	-8.72274
▁agree	-8.72393
▁protection	-8.72619
▁darüber	-8.72739
▁interest	-8.73171
▁second	-8.73634
▁including	-8.73851
▁rather	-8.73923
▁S	-8.74
▁unterstützen	-8.74218
▁On	-8.74335
▁drei	-8.74352
▁To	-8.74366
▁basis	-8.74388
a	-8.74449
▁gegenüber	-8.74451
re	-8.74654
▁her	-8.74746
▁dabei	-8.74815
k	-8.74845
▁recent	-8.74995
▁während	-8.75194
▁gut	-8.7529
▁Gemeinschaft	-8.75318
▁money	-8.75406
▁group	-8.75763
▁Weg	-8.7578
▁Deshalb	-8.76159
▁least	-8.76159
▁Treaty	-8.76247
▁back	-8.76355
quot	-8.76452
▁positive	-8.76506
▁Iran	-8.76611
▁every	-8.76775
▁proposals	-8.76868
▁risk	-8.76964
▁something	-8.77088
▁democracy	-8.77103
▁present	-8.77349
▁used	-8.77549
▁legislation	-8.77862
▁certain	-8.78162
▁Weise	-8.78198
▁ask	-8.7824
▁ver	-8.78366
▁weniger	-8.78395
▁during	-8.78507
▁ladies	-8.78702
▁favour	-8.78997
▁lassen	-8.79394
▁itself	-8.79579
▁Millionen	-8.79663
▁might	-8.79792
▁Situation	-8.79806
▁often	-8.79887
▁resources	-8.79891
▁Members	-8.80033
▁forward	-8.80072
▁wirtschaftliche	-8.80218
▁steht	-8.8022
▁provide	-8.80445
▁natürlich	-8.80603
▁find	-8.80981
▁möglich	-8.81079
▁especially	-8.81126
▁Mit	-8.81161
▁opinion	-8.81181
▁liegt	-8.81667
▁Minister	-8.81838
▁führen	-8.82061
▁difficult	-8.8221
▁Group	-8.82243
▁going	-8.82524
▁wish	-8.82594
▁Präsidentin	-8.82814
▁America	-8.82909
ten	-8.82937
▁programme	-8.83282
▁really	-8.83323
▁reason	-8.83351
▁zwar	-8.83405
▁welcome	-8.83473
▁Demokratie	-8.83539
▁stehen	-8.83797
▁working	-8.83897
▁ihnen	-8.83909
▁adopted	-8.83965
▁gesagt	-8.84082
▁Europas	-8.84556
h	-8.84704
l	-8.84802
▁reform	-8.84992
▁Israel	-8.85071
▁opportunity	-8.85205
▁strategy	-8.8572
▁get	-8.85763
▁governments	-8.85805
▁stellen	-8.85939
▁small	-8.86033
▁Auf	-8.86044
▁yet	-8.86141
▁framework	-8.86275
▁whole	-8.86373
▁always	-8.86792
▁greater	-8.87069
▁serious	-8.87123
▁research	-8.8722
▁together	-8.87431
▁best	-8.87541
▁Beispiel	-8.87822
▁brauchen	-8.87939
▁markets	-8.88019
▁conditions	-8.88027
▁Art	-8.88095
▁daran	-8.88168
▁kommen	-8.88252
▁Lösung	-8.88327
▁deal	-8.88363
▁free	-8.88488
▁An	-8.88558
▁once	-8.88722
▁concerned	-8.88748
▁Namen	-8.89093
▁principle	-8.89265
▁Entscheidung	-8.89314
▁würden	-8.89343
▁society	-8.89679
▁Japan	-8.89845
be	-8.89854
▁Ende	-8.89899
▁UN	-8.89974
▁Fraktion	-8.90544
▁No	-8.9057
▁State	-8.90598
▁Punkt	-8.90636
▁proposed	-8.9074
▁efforts	-8.90819
▁großen	-8.9083
▁industry	-8.90848
A	-8.91073
▁region	-8.91099
an	-8.91147
▁each	-8.91149
▁subject	-8.91738
Berichterstatter	-8.91887
▁Zusammenhang	-8.91953
o	-8.92244
▁könnten	-8.92465
▁states	-8.92482
▁towards	-8.92545
▁fundamental	-8.92602
st	-8.92869
▁glaube	-8.92936
▁shall	-8.92944
▁Bank	-8.93003
▁life	-8.93161
Änderungsanträge	-8.9322
▁Ihre	-8.93345
em	-8.93403
c	-8.93588
▁ago	-8.93644
▁access	-8.9378
▁darin	-8.94
▁allerdings	-8.94073
▁Vor	-8.94183
▁effective	-8.94194
▁democratic	-8.94642
▁tax	-8.94686
▁Umwelt	-8.94884
▁foreign	-8.95012
▁investment	-8.95065
▁companies	-8.95452
▁Entschließung	-8.95462
▁klar	-8.95571
▁de	-8.95589
▁past	-8.9565
▁behalf	-8.95854
▁clearly	-8.96314
▁things	-8.96342
▁interests	-8.96571
▁needed	-8.96679
▁account	-8.96804
▁bringen	-8.96901
▁control	-8.97
▁hatte	-8.97054
▁Schutz	-8.97089
▁importance	-8.97177
▁unseren	-8.97297
▁quite	-8.97376
▁sogar	-8.97459
▁responsibility	-8.97558
▁children	-8.97577
▁employment	-8.97596
▁weiterhin	-8.97614
▁making	-8.97662
▁general	-8.97763
▁peace	-8.97791
▁private	-8.97822
▁darf	-8.97912
▁betrifft	-8.98087
▁Russland	-8.98159
▁Debatte	-8.9816
▁authorities	-8.98197
▁deutlich	-8.98227
▁safety	-8.98645
▁environmental	-8.98675
▁aller	-8.98696
▁simply	-8.98857
ge	-8.99001
▁voted	-8.99114
ers	-8.99196
▁achieve	-8.99288
▁call	-8.99292
▁then	-8.99295
▁Verbraucher	-8.99462
▁negotiations	-8.99494
▁developing	-8.99524
▁hoffe	-8.99527
▁look	-8.99606
▁beiden	-8.99718
▁climate	-8.99802
▁third	-8.99826
▁All	-8.99944
▁Nach	-8.99977
▁nuclear	-9.00008
▁based	-9.00346
▁ja	-9.00351
▁Ansicht	-9.00421
▁attention	-9.0078
▁little	-9.0083
▁ersten	-9.01369
▁Wettbewerb	-9.01567
▁weitere	-9.01602
▁Energie	-9.01762
▁specific	-9.01801
▁military	-9.01986
▁regulation	-9.02069
term	-9.02121
ä	-9.02378
▁key	-9.02383
▁einfach	-9.02387
▁seinen	-9.02796
▁besonders	-9.03149
▁Kosten	-9.03226
▁C	-9.03381
▁Vereinigte	-9.03477
▁nämlich	-9.03515
▁Als	-9.03574
▁freedom	-9.03664
▁food	-9.03789
▁hand	-9.0386
▁full	-9.0395
▁internationalen	-9.0446
▁longer	-9.04737
▁products	-9.0481
▁enough	-9.04856
▁Presidency	-9.04876
▁essential	-9.04938
▁E	-9.04969
▁erreichen	-9.05058
▁innerhalb	-9.05189
▁sowohl	-9.05193
▁transport	-9.05269
▁open	-9.0527
▁etwa	-9.05324
▁Bei	-9.05524
▁Daher	-9.05527
▁dürfen	-9.05729
▁erhalten	-9.05734
▁among	-9.05755
▁finden	-9.05846
▁start	-9.05976
▁Geld	-9.06116
▁EUR	-9.06143
▁force	-9.06218
▁Krise	-9.06328
▁step	-9.06489
▁Germany	-9.0653
ation	-9.06722
▁Regierungen	-9.06777
▁solche	-9.06833
▁With	-9.0694
▁welche	-9.07164
▁D	-9.07448
▁concerns	-9.07551
▁hätte	-9.07567
▁hinaus	-9.07595
▁Turkey	-9.07603
▁environment	-9.07689
▁workers	-9.07761
▁taking	-9.0781
▁Für	-9.07916
▁debt	-9.07923
▁wichtige	-9.07937
▁euro	-9.07958
▁Möglichkeit	-9.0809
▁others	-9.08249
▁short	-9.08258
▁costs	-9.08259
▁alles	-9.08278
▁Bevölkerung	-9.08281
spolitik	-9.08337
▁One	-9.08349
▁vielen	-9.08454
▁meisten	-9.08483
▁nationalen	-9.08525
▁Rates	-9.08677
▁words	-9.08678
▁leaders	-9.08696
▁eigenen	-9.08714
▁remain	-9.08751
f	-9.08955
▁create	-9.0897
▁solution	-9.08986
▁gilt	-9.09092
▁Leben	-9.0916
▁non	-9.09269
▁Man	-9.09355
▁sei	-9.09593
▁billion	-9.09668
▁education	-9.09677
▁capital	-9.10064
▁strong	-9.10322
▁Macht	-9.10407
▁Region	-9.10562
▁single	-9.10699
▁funds	-9.10723
▁genau	-9.10738
▁internal	-9.10766
▁Hilfe	-9.10792
▁points	-9.1083
ü	-9.11008
▁kommt	-9.11038
▁Verantwortung	-9.11113
▁allow	-9.11119
▁Indeed	-9.11196
▁stellt	-9.11243
▁rate	-9.11335
▁gemacht	-9.11369
▁Um	-9.1137
▁Markt	-9.11446
ic	-9.11453
▁Ziele	-9.11527
▁members	-9.11672
▁bring	-9.11697
▁majority	-9.11728
▁certainly	-9.11775
▁Ver	-9.11778
▁System	-9.11969
▁Menschenrechte	-9.11982
▁keinen	-9.12393
▁form	-9.12427
▁accept	-9.13105
▁impact	-9.1326
▁Änderungsantrag	-9.13434
▁Wachstum	-9.13442
▁Vorschläge	-9.13527
▁regional	-9.13595
▁bedeutet	-9.1366
▁consider	-9.13664
▁around	-9.1371
▁main	-9.13778
▁Auswirkungen	-9.13834
sten	-9.13977
▁beim	-9.14076
▁themselves	-9.14136
▁regions	-9.14191
▁Umsetzung	-9.14353
▁deshalb	-9.14394
▁competition	-9.14415
▁gehen	-9.14649
▁Bezug	-9.14816
▁einigen	-9.15059
▁besser	-9.15096
▁Ebene	-9.15333
▁demand	-9.15458
▁though	-9.15502
▁fully	-9.1568
▁danken	-9.15737
▁having	-9.1589
▁When	-9.15912
▁vielleicht	-9.16043
▁handelt	-9.16096
▁werde	-9.16259
▁American	-9.16277
▁improve	-9.16502
or	-9.16758
▁He	-9.16935
▁prices	-9.17103
▁gerade	-9.17265
z	-9.17447
▁Abstimmung	-9.17535
▁jobs	-9.17798
▁Artikel	-9.17847
▁hard	-9.17887
▁schaffen	-9.17889
▁never	-9.17899
▁beispielsweise	-9.18121
▁production	-9.1817
b	-9.18339
▁groups	-9.18567
▁period	-9.18612
▁share	-9.18776
▁seems	-9.18814
▁standards	-9.18982
▁business	-9.18985
▁lead	-9.19041
▁sollen	-9.19165
▁France	-9.19244
▁sprechen	-9.19289
▁Institutionen	-9.19413
▁Dieser	-9.19418
▁Strategie	-9.19461
▁Kinder	-9.19734
▁concern	-9.19759
▁Antwort	-9.19958
▁ebenfalls	-9.20198
▁sehen	-9.2051
▁true	-9.20747
▁population	-9.20833
▁nehmen	-9.20837
▁actually	-9.20902
▁Herausforderung	-9.20955
▁indeed	-9.20978
▁involved	-9.20993
▁doing	-9.21197
▁Ukraine	-9.21273
▁committee	-9.21341
▁Abgeordneten	-9.21401
▁Finally	-9.21414
▁parties	-9.21493
▁Let	-9.21528
▁weit	-9.21581
▁Africa	-9.21695
▁decisions	-9.21708
▁oil	-9.21739
▁day	-9.22201
▁bleiben	-9.22334
▁cost	-9.22342
▁him	-9.22577
el	-9.22672
▁Türkei	-9.22715
▁implementation	-9.22752
▁Landes	-9.22772
▁various	-9.22856
▁relations	-9.22933
▁let	-9.23196
▁understand	-9.23217
▁months	-9.23237
▁gemeinsamen	-9.23259
▁fast	-9.235
▁Verhandlungen	-9.23654
▁pro	-9.23813
p	-9.24017
▁denke	-9.24023
▁quality	-9.24032
▁Rechte	-9.24342
▁You	-9.24367
▁kind	-9.24378
▁Erfolg	-9.24522
▁rates	-9.24545
▁dort	-9.24826
▁fight	-9.24891
▁reduce	-9.2495
▁notwendig	-9.24971
▁lack	-9.24985
▁nichts	-9.25
▁dessen	-9.25033
▁pay	-9.25107
▁Internet	-9.25121
▁idea	-9.25286
▁Herren	-9.25511
▁Schritt	-9.25592
▁nächsten	-9.25639
▁local	-9.25651
▁wenig	-9.25695
▁halten	-9.25744
▁gemeinsame	-9.2586
▁Grundlage	-9.25994
▁central	-9.26011
▁Erweiterung	-9.26016
▁data	-9.26036
▁banks	-9.26163
▁plan	-9.26199
▁zusammen	-9.26315
▁per	-9.26368
▁systems	-9.26409
▁aufgrund	-9.26433
ig	-9.26515
▁Putin	-9.26614
▁results	-9.26864
▁Aussprache	-9.26882
▁Reform	-9.27071
▁questions	-9.27104
▁Ausschuss	-9.27184
▁Interesse	-9.27233
▁Zu	-9.27264
▁procedure	-9.27281
▁nothing	-9.27384
▁Damen	-9.27439
der	-9.2747
▁meeting	-9.27502
▁extremely	-9.27504
▁zurück	-9.27564
▁significant	-9.27647
▁indem	-9.27791
▁enlargement	-9.27801
it	-9.27825
▁ihn	-9.27927
▁Be	-9.27971
▁sure	-9.28246
i	-9.28441
▁erste	-9.28573
▁thing	-9.28615
▁Forschung	-9.28644
▁available	-9.28765
▁aware	-9.28814
il	-9.2887
ch	-9.28872
▁hin	-9.28892
▁low	-9.28915
▁dar	-9.28921
▁sicher	-9.28926
▁Kolleginnen	-9.28965
▁act	-9.29012
▁cases	-9.29128
▁sense	-9.29215
▁gute	-9.2924
▁agenda	-9.29288
ity	-9.29294
▁unser	-9.29378
▁currently	-9.29452
▁young	-9.29506
▁anti	-9.29529
▁economies	-9.29564
▁Abkommen	-9.29613
ar	-9.29616
▁unterstützt	-9.29886
▁September	-9.29896
▁remains	-9.29923
▁Government	-9.29925
th	-9.29969
▁World	-9.30039
▁Beziehungen	-9.30284
▁price	-9.30304
▁East	-9.30377
▁darum	-9.30457
▁off	-9.30473
▁almost	-9.3049
▁Verfahren	-9.30506
▁t	-9.30525
▁Meine	-9.30641
▁ihrem	-9.30646
▁amendment	-9.30723
▁seen	-9.30788
▁ihm	-9.30824
▁Obama	-9.31002
▁reasons	-9.31067
▁My	-9.31537
▁face	-9.31549
▁success	-9.31554
▁play	-9.31743
▁Tatsache	-9.31766
▁Richtung	-9.31819
▁following	-9.3183
▁individual	-9.31954
▁objectives	-9.32066
▁mean	-9.32118
▁Ergebnis	-9.32154
▁sozialen	-9.32234
▁move	-9.32354
▁öffentlichen	-9.32483
▁Vertrag	-9.32754
▁dialogue	-9.33107
▁moment	-9.33141
▁Gesellschaft	-9.33323
▁Moreover	-9.33368
▁prevent	-9.33393
▁Gesundheit	-9.3341
▁context	-9.33421
▁initiative	-9.33496
▁likely	-9.33568
▁value	-9.33687
▁Iraq	-9.33826
▁bleibt	-9.33845
to	-9.33884
B	-9.33919
▁Verfassung	-9.34187
▁erreicht	-9.34257
▁Informationen	-9.34408
▁weiß	-9.34563
▁several	-9.3459
▁perhaps	-9.3465
▁objective	-9.34683
▁response	-9.3493
▁agreements	-9.35168
▁Bush	-9.35291
▁Investitionen	-9.35336
▁effect	-9.35507
▁consumers	-9.35508
▁agricultural	-9.35734
▁Finanz	-9.35742
▁Interessen	-9.35863
▁Kosovo	-9.3595
▁French	-9.3611
▁poverty	-9.36137
▁Form	-9.36271
ver	-9.3639
▁Lisbon	-9.36539
▁matters	-9.36621
▁comes	-9.36627
▁erst	-9.3673
▁makes	-9.36825
▁text	-9.36921
▁P	-9.36935
▁commitment	-9.36946
▁stability	-9.37051
▁erforderlich	-9.37056
▁gestimmt	-9.3714
▁Aufgabe	-9.37151
▁answer	-9.37261
▁increased	-9.37303
▁lange	-9.37317
▁final	-9.37344
et	-9.37518
▁feel	-9.37614
▁thus	-9.3762
▁rule	-9.37649
▁scheint	-9.37673
▁Gewalt	-9.37696
▁compromise	-9.37791
▁civil	-9.37877
▁Of	-9.38363
▁reforms	-9.38456
▁WTO	-9.38464
▁Fortschritte	-9.38566
▁potential	-9.38603
▁ever	-9.38711
▁Court	-9.38931
▁higher	-9.38932
▁left	-9.38943
▁Jahres	-9.38962
▁management	-9.39111
▁Mehrheit	-9.39124
▁ebenso	-9.39152
inblick	-9.3916
▁Regionen	-9.39176
▁keep	-9.39214
▁conflict	-9.3923
▁mentioned	-9.39289
▁Our	-9.39458
▁recently	-9.39477
▁tatsächlich	-9.39557
▁appropriate	-9.39648
▁hatten	-9.39772
▁internationale	-9.3981
▁project	-9.3988
▁responsible	-9.39926
▁changes	-9.40035
▁Dollar	-9.40241
▁bereit	-9.40263
▁field	-9.40371
ste	-9.40531
▁Kontrolle	-9.40629
▁wohl	-9.40728
▁Zugang	-9.40762
▁Beschäftigung	-9.40826
▁balance	-9.40966
▁rise	-9.41149
▁benefit	-9.41168
▁Ausdruck	-9.41271
▁ge	-9.41292
▁across	-9.41296
▁line	-9.41347
▁until	-9.41466
▁Un	-9.4163
▁times	-9.41661
▁soon	-9.41734
▁programmes	-9.41739
▁poor	-9.41787
▁violence	-9.41903
▁Chinese	-9.41954
▁Haus	-9.41958
▁Staat	-9.41975
▁Deutschland	-9.42097
▁Re	-9.42104
▁fiscal	-9.42145
▁elections	-9.42212
▁jeder	-9.42235
▁NATO	-9.42373
able	-9.42377
▁values	-9.4263
▁special	-9.42702
▁sustainable	-9.42779
▁gehört	-9.42806
▁Folgen	-9.42913
▁India	-9.43014
▁derzeit	-9.43167
▁GDP	-9.43168
▁völlig	-9.43185
▁Wirtschafts	-9.43199
▁Wort	-9.43367
▁Afghanistan	-9.43431
▁projects	-9.43432
▁Viele	-9.43588
▁funding	-9.43795
▁Außerdem	-9.43806
ist	-9.43996
▁Handel	-9.44159
▁priority	-9.4433
▁Bedingungen	-9.44363
▁focus	-9.44374
▁address	-9.44403
▁regime	-9.44602
▁Dank	-9.44685
▁Behörden	-9.44707
▁deren	-9.44725
▁close	-9.44764
▁achieved	-9.44801
▁called	-9.44909
▁job	-9.44924
us	-9.44967
S	-9.45038
ul	-9.45083
▁Reihe	-9.45085
▁Milliarden	-9.4512
▁Kampf	-9.45168
▁Haushalt	-9.45255
▁integration	-9.45271
▁seinem	-9.45291
▁benefits	-9.45338
▁five	-9.4544
▁meinen	-9.45496
▁community	-9.45613
ism	-9.45624
▁show	-9.45636
▁lediglich	-9.45731
▁land	-9.45877
▁half	-9.46006
▁Ab	-9.46027
▁British	-9.46306
▁challenges	-9.46795
▁terrorism	-9.46843
▁Beitrag	-9.46857
▁M	-9.47137
▁Hier	-9.47456
▁everyone	-9.47728
▁principles	-9.47766
▁protect	-9.47797
▁After	-9.47843
▁term	-9.48016
▁consequences	-9.48111
▁include	-9.48311
▁Selbst	-9.48355
▁Verordnung	-9.4836
on	-9.4845
▁Gebiet	-9.48589
▁consumer	-9.48683
▁Erachtens	-9.48689
▁she	-9.48777
▁Geschichte	-9.48962
▁Affairs	-9.49023
le	-9.49179
▁hinsichtlich	-9.49236
▁Finanzierung	-9.49297
▁Natürlich	-9.49297
▁due	-9.49327
ieren	-9.49398
▁Kommissarin	-9.49439
▁heißt	-9.49511
▁Ansatz	-9.4955
▁agreed	-9.4958
▁promote	-9.50105
▁macht	-9.50107
▁Programm	-9.50233
▁d	-9.50376
▁Industrie	-9.50447
▁Gefahr	-9.50598
▁history	-9.50652
▁Article	-9.50739
▁L	-9.50848
▁upon	-9.50862
▁stand	-9.50929
ern	-9.50938
▁excellent	-9.51083
▁effort	-9.51216
▁Haushalts	-9.51225
▁turn	-9.51233
▁water	-9.51239
▁Lissabon	-9.51332
▁Anwendung	-9.51333
▁held	-9.5141
ischen	-9.51431
▁activities	-9.51519
▁levels	-9.5155
▁old	-9.51576
▁bisher	-9.51662
w	-9.51707
▁concerning	-9.51728
▁pressure	-9.5173
up	-9.51847
▁basic	-9.52141
▁wichtigen	-9.52179
▁crucial	-9.52529
▁gestellt	-9.52539
▁Zweitens	-9.52674
▁verschiedenen	-9.52687
▁Krieg	-9.527
▁provided	-9.52804
▁Mal	-9.52961
▁either	-9.53027
▁increasing	-9.53074
▁mind	-9.53077
▁gegeben	-9.53143
▁four	-9.53146
▁congratulate	-9.53157
▁Trump	-9.53173
▁avoid	-9.53314
▁speak	-9.53356
▁addition	-9.53372
▁Frankreich	-9.53539
wirtschaftlichen	-9.53558
▁model	-9.5357
▁cause	-9.5357
▁K	-9.53883
▁challenge	-9.53955
▁Convention	-9.54014
▁Wahl	-9.54016
▁above	-9.54142
▁vergangenen	-9.54337
▁develop	-9.54372
▁Standpunkt	-9.54493
▁Some	-9.54533
▁Förderung	-9.54573
▁unemployment	-9.54624
▁Amendment	-9.54674
▁Irak	-9.54682
▁F	-9.54691
▁draft	-9.54798
▁Mitglieder	-9.54817
▁richtig	-9.54829
▁begrüße	-9.54928
▁R	-9.55031
▁Initiative	-9.55058
▁practice	-9.5506
▁Party	-9.5508
▁äußerst	-9.55109
▁discussion	-9.55255
▁West	-9.55263
▁aim	-9.55457
▁Verbesserung	-9.55525
▁oft	-9.5554
▁setzen	-9.5555
▁New	-9.55626
▁experience	-9.55651
▁reports	-9.5572
▁Even	-9.55793
▁gemeinsam	-9.55828
▁Erklärung	-9.5601
▁soziale	-9.56134
▁Diskussion	-9.56156
▁increasingly	-9.56205
▁Greece	-9.56311
▁Notwendigkeit	-9.56409
▁fair	-9.56419
▁Bemühungen	-9.56448
▁monetary	-9.56487
▁gab	-9.56586
▁Reformen	-9.56607
um	-9.56613
▁existing	-9.56656
▁By	-9.56699
Fraktion	-9.56847
▁stark	-9.56859
▁Seite	-9.56962
▁Programme	-9.56976
▁technology	-9.57104
▁halte	-9.57158
▁Gelegenheit	-9.57205
▁verbessern	-9.57265
▁Bekämpfung	-9.57276
▁Schaffung	-9.57298
▁gesamten	-9.5732
▁live	-9.57348
▁hohe	-9.57414
▁angenommen	-9.57427
▁Bereichen	-9.57434
▁Today	-9.575
▁geführt	-9.57574
▁First	-9.57607
▁home	-9.57666
▁away	-9.57707
M	-9.57751
▁International	-9.57805
▁found	-9.57827
sch	-9.57848
▁T	-9.57884
politik	-9.57887
▁fest	-9.57959
▁required	-9.5796
▁apply	-9.58064
▁globalen	-9.58094
▁Frieden	-9.58139
▁asked	-9.58144
▁income	-9.58178
▁zweite	-9.58184
▁fördern	-9.58271
▁service	-9.58322
DE	-9.5837
▁Möglichkeiten	-9.58406
▁meet	-9.58413
▁total	-9.58474
▁gar	-9.58613
▁Yet	-9.5863
▁Bildung	-9.58689
▁Landwirtschaft	-9.58764
▁external	-9.58796
▁behind	-9.5885
▁Präsidenten	-9.58868
▁schnell	-9.58888
▁care	-9.58896
▁actions	-9.58973
▁legislative	-9.59083
lich	-9.59273
▁quickly	-9.59277
▁bestehen	-9.59299
▁Dieses	-9.59371
▁reality	-9.59563
▁November	-9.59605
▁Entscheidungen	-9.59719
▁Armut	-9.5973
▁forces	-9.59826
▁führt	-9.59832
▁post	-9.59866
▁solidarity	-9.59876
▁transparency	-9.59876
▁early	-9.59982
▁huge	-9.60079
▁emissions	-9.60288
▁hätten	-9.60293
▁Ergebnisse	-9.60299
▁Partei	-9.60369
▁self	-9.60417
▁opportunities	-9.60591
gesichts	-9.60598
▁South	-9.60644
▁Erstens	-9.60758
▁Integration	-9.60805
▁Terrorismus	-9.60832
▁week	-9.60839
▁Pakistan	-9.60871
▁Russian	-9.60912
▁adopt	-9.60949
▁guarantee	-9.61049
▁allein	-9.61205
P	-9.61266
▁stage	-9.61381
▁growing	-9.61453
▁developed	-9.61467
▁Zahl	-9.61501
▁meinem	-9.61622
▁effects	-9.61724
▁Grenzen	-9.61967
▁Fund	-9.61977
▁V	-9.62027
▁wichtiger	-9.62098
▁Hinsicht	-9.62105
bei	-9.62129
▁Now	-9.62227
▁helfen	-9.62347
▁similar	-9.62362
▁Darüber	-9.62383
▁member	-9.62418
▁fünf	-9.62476
▁Tatsächlich	-9.62522
▁öffentliche	-9.62533
▁media	-9.62549
▁domestic	-9.62588
▁farmers	-9.62615
▁risks	-9.62666
▁W	-9.62693
▁Secondly	-9.62824
▁exchange	-9.62861
▁Damit	-9.62915
▁Druck	-9.62936
▁although	-9.62941
▁Z	-9.62947
▁jeden	-9.62954
▁Freiheit	-9.6297
▁coming	-9.62976
▁doubt	-9.63056
▁arbeiten	-9.63188
▁spending	-9.63204
▁Prozess	-9.63232
G	-9.6338
▁nutzen	-9.63394
▁zeigt	-9.634
▁Dinge	-9.63401
▁rest	-9.63506
▁took	-9.63527
▁direction	-9.63627
▁unterschiedlich	-9.6367
u	-9.63719
▁obwohl	-9.63749
▁gebracht	-9.63784
ion	-9.63788
▁reach	-9.63875
▁leisten	-9.63925
verständlich	-9.64013
▁former	-9.64039
▁Asia	-9.64106
▁inflation	-9.64134
▁nature	-9.64153
▁lower	-9.64191
▁contribution	-9.64269
▁election	-9.64276
▁Unter	-9.64487
▁cultural	-9.64497
▁Präsidentschaft	-9.64542
▁assistance	-9.64599
▁meines	-9.64673
▁leben	-9.64735
at	-9.64919
▁task	-9.6495
▁Verfügung	-9.64991
▁Therefore	-9.65061
▁großer	-9.65077
▁return	-9.65137
▁reached	-9.6518
▁Über	-9.65251
▁einzelnen	-9.6542
▁currency	-9.65421
▁German	-9.65466
▁getan	-9.65486
▁technical	-9.65579
▁hoch	-9.65597
▁Daten	-9.65718
▁Nationen	-9.65759
▁voll	-9.65779
▁requires	-9.65876
▁using	-9.66012
▁everything	-9.6603
▁voting	-9.66139
▁amount	-9.66196
▁living	-9.66211
▁Banken	-9.66275
ment	-9.6633
▁aspects	-9.66342
▁Vertrauen	-9.66523
▁threat	-9.66555
▁regards	-9.66715
▁equal	-9.66762
▁creation	-9.66827
▁natural	-9.66846
ness	-9.66856
▁ourselves	-9.67045
iert	-9.67054
▁‘	-9.67119
▁throughout	-9.67128
▁größten	-9.67163
▁despite	-9.67269
▁raised	-9.6731
▁stop	-9.67319
▁warum	-9.67374
▁joint	-9.67433
▁alone	-9.67485
▁negative	-9.67525
▁party	-9.6757
▁North	-9.67589
▁Dialog	-9.67625
▁stärker	-9.67693
▁tell	-9.67736
▁require	-9.67801
▁Wahlen	-9.67972
▁colleagues	-9.68075
▁movement	-9.68179
▁created	-9.68217
▁pleased	-9.68276
▁supply	-9.68397
▁saying	-9.68436
▁Auffassung	-9.68458
▁Central	-9.68477
▁led	-9.68477
▁outside	-9.68487
▁Transparenz	-9.68514
▁writing	-9.68605
▁Sache	-9.68613
▁Middle	-9.68847
▁politics	-9.68863
▁Politiker	-9.68897
▁Tat	-9.68975
▁einzige	-9.68975
▁How	-9.69013
▁Aufmerksamkeit	-9.6907
▁solchen	-9.69124
▁communication	-9.69141
▁nie	-9.69147
zu	-9.69162
▁konnte	-9.69214
▁vier	-9.69276
▁vital	-9.69312
▁brought	-9.6948
▁regarding	-9.69498
▁wrong	-9.69611
▁Rights	-9.69758
▁May	-9.69888
▁Ausschusses	-9.7006
▁lives	-9.70193
▁Western	-9.70256
▁follow	-9.70311
▁statement	-9.70368
sfähigkeit	-9.70415
▁War	-9.70459
▁labour	-9.70531
▁BIP	-9.70549
▁seem	-9.7056
▁zunächst	-9.70568
▁direct	-9.70603
ne	-9.70626
▁confidence	-9.70648
▁beitragen	-9.70732
▁Many	-9.71162
▁liegen	-9.71255
▁zeigen	-9.71288
F	-9.7137
▁begin	-9.7142
▁side	-9.71422
▁sorgen	-9.71439
▁offer	-9.71443
▁p	-9.71508
▁structural	-9.71516
▁big	-9.71568
▁capacity	-9.71603
▁weiteren	-9.71623
▁accession	-9.71658
im	-9.71715
▁implement	-9.7175
▁established	-9.71811
▁try	-9.71813
▁talk	-9.71819
▁Angelegenheit	-9.71851
▁UK	-9.71861
▁verhindern	-9.71898
▁express	-9.71929
▁draw	-9.72232
ische	-9.72246
▁Durch	-9.72283
▁enthalten	-9.72292
▁powers	-9.72355
▁stimmen	-9.7239
▁weltweit	-9.72435
▁zehn	-9.72503
▁Öffentlichkeit	-9.72512
▁Preis	-9.72557
▁administration	-9.72616
▁Nations	-9.72683
▁days	-9.72709
▁co	-9.72733
▁Tag	-9.72798
▁enable	-9.72804
▁men	-9.72875
▁run	-9.72955
▁road	-9.73026
▁lässt	-9.7304
▁regulations	-9.73062
▁beyond	-9.73091
▁Kultur	-9.73097
▁sagte	-9.7312
▁borders	-9.73169
▁Fischerei	-9.7322
▁schriftlich	-9.73232
▁nor	-9.73243
Office	-9.73347
▁Not	-9.73357
▁Regeln	-9.73558
▁gleichzeitig	-9.73634
▁Einführung	-9.73678
▁eindeutig	-9.73808
▁Themen	-9.73818
ro	-9.73856
▁ways	-9.74069
▁carried	-9.74102
▁Arbeitnehmer	-9.74164
▁prepared	-9.74206
▁Allerdings	-9.7422
▁expect	-9.74238
▁Zum	-9.74268
▁ten	-9.74288
▁Development	-9.74298
▁additional	-9.74305
▁light	-9.74325
▁previous	-9.74596
▁Punkte	-9.746
▁Tagesordnung	-9.74612
▁eigentlich	-9.74617
▁überhaupt	-9.74658
▁Beitritt	-9.74712
▁mention	-9.7485
▁decided	-9.74855
▁Italy	-9.74888
▁Parteien	-9.74907
▁geworden	-9.75124
▁Ireland	-9.75243
▁events	-9.75253
▁successful	-9.7531
▁Nicht	-9.75336
▁Prozent	-9.75341
▁wahrscheinlich	-9.75377
▁businesses	-9.75429
land	-9.75452
▁Opfer	-9.75468
▁eurozone	-9.75522
▁tragen	-9.75556
▁bekannt	-9.75583
▁along	-9.75595
▁While	-9.75639
▁illegal	-9.75652
ter	-9.75806
▁Zeitpunkt	-9.75811
▁fall	-9.75816
▁erster	-9.7582
ive	-9.75822
▁Solidarität	-9.7585
▁Berichts	-9.76109
▁Heute	-9.76198
C	-9.76285
▁Zunächst	-9.76316
T	-9.76476
▁six	-9.76496
▁review	-9.76835
▁zumindest	-9.76927
▁criteria	-9.76958
▁statt	-9.77021
▁unserem	-9.77033
▁received	-9.77048
▁lot	-9.77049
▁kaum	-9.77159
▁Stabilität	-9.77236
▁De	-9.7724
ab	-9.7733
▁presented	-9.77342
▁spielen	-9.77342
▁Such	-9.77386
▁knowledge	-9.77402
▁relation	-9.77509
▁fordern	-9.77527
▁industrial	-9.77547
▁goods	-9.77561
▁dringend	-9.77612
▁Le	-9.78156
▁credit	-9.78168
▁infrastructure	-9.78177
▁later	-9.78318
▁initiatives	-9.7834
▁annual	-9.78495
▁partners	-9.78512
▁Ressourcen	-9.78547
▁hold	-9.78667
▁ziehen	-9.78738
▁alternative	-9.78748
▁implemented	-9.78805
▁innovation	-9.78842
▁Text	-9.78874
▁waste	-9.78891
▁priorities	-9.78909
▁europäischer	-9.78941
▁Vorschriften	-9.78989
▁Vergangenheit	-9.7899
▁Lebensmittel	-9.79163
▁tabled	-9.79275
▁gewesen	-9.79281
▁beginning	-9.7932
▁inter	-9.79365
▁establish	-9.79375
▁bitte	-9.79449
▁provisions	-9.79487
▁Schließlich	-9.79525
▁eher	-9.79623
▁decades	-9.79731
▁versuchen	-9.7975
▁Personen	-9.79768
▁status	-9.79914
▁Directive	-9.79981
▁death	-9.80035
▁treatment	-9.80076
gen	-9.80182
▁Wert	-9.80229
▁Ausgaben	-9.80344
▁Handels	-9.8038
▁mere	-9.80481
▁kurz	-9.80505
FR	-9.80566
▁Bürgern	-9.80728
▁requirements	-9.80735
▁relevant	-9.80765
▁Gründen	-9.80862
▁talking	-9.80914
▁training	-9.80926
▁procedures	-9.80946
▁Anfang	-9.81026
▁Arbeitsplätze	-9.81038
▁influence	-9.81046
▁Risiko	-9.8113
▁creating	-9.8119
▁bekommen	-9.8122
▁Änderung	-9.81304
▁fear	-9.81306
▁Binnenmarkt	-9.81384
▁outcome	-9.81425
▁anderer	-9.81451
▁request	-9.81466
▁expressed	-9.81575
id	-9.81595
▁gas	-9.81639
▁Am	-9.81672
▁organisations	-9.81803
▁opposition	-9.81838
▁Kompromiss	-9.81945
▁independent	-9.81973
▁supported	-9.81992
▁Since	-9.82118
▁victims	-9.82122
▁air	-9.82136
▁allowed	-9.82158
▁genommen	-9.82163
▁Eurozone	-9.8217
▁solutions	-9.82339
▁gewährleisten	-9.82415
▁genug	-9.82415
▁Indien	-9.82443
svorschriften	-9.82469
▁CO	-9.82471
▁Korea	-9.82491
▁Unsere	-9.82496
▁strategic	-9.82515
ol	-9.8254
▁Woche	-9.82713
▁extent	-9.82713
▁summit	-9.82757
▁strengthen	-9.82817
▁immigration	-9.82856
▁family	-9.83097
▁list	-9.8311
▁schwer	-9.83176
▁justice	-9.83191
▁included	-9.83311
▁Agenda	-9.83337
▁instruments	-9.83427
▁Haltung	-9.83446
▁Ja	-9.83541
as	-9.83574
ia	-9.83587
▁failure	-9.83746
▁National	-9.83748
▁heard	-9.83797
erstatterin	-9.83811
▁presidency	-9.83956
▁tomorrow	-9.83956
▁limited	-9.84111
▁Unfortunately	-9.84172
▁lost	-9.84177
▁Werte	-9.84234
▁entwickeln	-9.84239
ent	-9.84255
▁late	-9.84325
▁Hand	-9.84482
▁personal	-9.84503
▁begrüßen	-9.84549
▁completely	-9.84564
▁leider	-9.84577
▁failed	-9.84616
is	-9.84624
▁danke	-9.84665
▁pre	-9.84666
▁massive	-9.8471
▁probably	-9.8478
▁russische	-9.84886
▁später	-9.84899
▁highly	-9.84946
▁weder	-9.84954
▁ändern	-9.84954
▁happen	-9.84988
▁culture	-9.85088
▁trying	-9.85102
igen	-9.85115
▁Kraft	-9.85178
▁Seiten	-9.85222
▁message	-9.85277
▁behandelt	-9.85291
fe	-9.85315
▁reduction	-9.85326
▁package	-9.85369
▁December	-9.85434
▁Position	-9.85437
▁institutional	-9.85537
▁Obwohl	-9.8561
▁Portugal	-9.85785
▁wären	-9.85786
▁derartige	-9.85886
▁erneut	-9.85941
▁finance	-9.86097
▁Sicht	-9.861
▁Lassen	-9.86111
▁Von	-9.86132
▁Osten	-9.86263
▁wichtigsten	-9.86273
▁effectively	-9.86321
▁Furthermore	-9.86403
▁fellow	-9.86403
▁globale	-9.86415
EN	-9.86435
sverfahren	-9.86529
▁schließlich	-9.86535
▁leave	-9.86607
▁gleich	-9.86798
▁century	-9.86804
▁Plan	-9.86873
▁bewusst	-9.86884
▁braucht	-9.8689
▁Während	-9.86935
▁Monaten	-9.8694
▁shown	-9.8696
▁modern	-9.87062
▁produce	-9.87067
▁April	-9.87113
▁crime	-9.87263
▁Annahme	-9.87439
▁Öl	-9.8753
▁Qualität	-9.87563
▁sectors	-9.87573
▁conclusion	-9.87592
ling	-9.8761
▁Einige	-9.87856
▁encourage	-9.87937
sicherheit	-9.87942
▁leading	-9.87952
▁cross	-9.88012
▁nationale	-9.8805
▁cohesion	-9.88052
▁giving	-9.88176
▁Großbritannien	-9.88185
▁geschaffen	-9.88188
▁erwarten	-9.88285
▁Rechts	-9.88297
▁agriculture	-9.88322
▁entire	-9.884
▁Medien	-9.88412
▁add	-9.88448
▁committed	-9.88465
▁verstehen	-9.88579
▁Kapital	-9.8858
▁fishing	-9.8859
▁hinter	-9.88692
▁ermöglichen	-9.88819
▁instead	-9.88865
ierung	-9.88944
▁Angesicht	-9.88947
▁dadurch	-9.88972
▁häufig	-9.88975
▁speech	-9.88985
▁akzeptieren	-9.89164
▁takes	-9.8923
▁discuss	-9.89372
▁build	-9.89416
R	-9.89472
▁Information	-9.89479
▁Chinas	-9.89523
▁competitiveness	-9.89552
▁recht	-9.89554
▁stress	-9.89562
▁Economic	-9.89638
▁angesprochen	-9.89703
▁emerging	-9.89729
▁Spain	-9.89775
ur	-9.8987
▁größere	-9.89882
▁vorgeschlagen	-9.89899
▁sieht	-9.89927
▁precisely	-9.89934
▁Afrika	-9.90053
▁budgetary	-9.90067
▁konnten	-9.90147
▁damage	-9.90173
▁neu	-9.90203
▁applied	-9.90371
▁evidence	-9.90371
▁möglicherweise	-9.90429
▁vertreten	-9.90496
▁Sektor	-9.9055
▁instrument	-9.90616
▁gesamte	-9.90623
▁absolutely	-9.90681
▁Palestinian	-9.90844
▁bestimmte	-9.9085
▁ganze	-9.90954
▁heutigen	-9.90965
▁Führung	-9.91021
▁Steuer	-9.9105
▁Wasser	-9.91066
▁finally	-9.91113
▁Schwierigkeiten	-9.9115
ungen	-9.91207
▁Folge	-9.91248
D	-9.91258
▁politicians	-9.91431
▁wider	-9.91495
▁Einfluss	-9.91562
▁jedem	-9.91584
▁vorgelegt	-9.91665
▁Although	-9.91761
▁Anstrengungen	-9.91841
▁thanks	-9.91911
▁came	-9.92138
▁Globalisierung	-9.9223
▁reading	-9.92242
▁goes	-9.92298
▁Seit	-9.92351
▁namely	-9.92371
▁financing	-9.92378
▁circumstances	-9.92389
▁monitoring	-9.92391
▁weapons	-9.92446
▁bad	-9.92507
▁bessere	-9.92513
▁glauben	-9.92515
▁scope	-9.92558
I	-9.92559
▁views	-9.92606
▁demokratischen	-9.92609
▁Schulden	-9.92612
▁Instrument	-9.92622
▁campaign	-9.92654
ta	-9.92688
▁becoming	-9.92793
▁practical	-9.92879
▁Haupt	-9.92924
▁schützen	-9.92935
▁maintain	-9.92954
▁considered	-9.9296
▁Griechenland	-9.93069
he	-9.93145
▁overall	-9.93176
ö	-9.9321
co	-9.93234
▁bevor	-9.93246
▁medium	-9.93313
▁dangerous	-9.93402
▁versucht	-9.93442
▁größte	-9.93479
bzw	-9.93544
▁guten	-9.93566
isch	-9.93636
▁easy	-9.93645
▁lösen	-9.93645
O	-9.93766
▁je	-9.93769
▁steps	-9.93786
▁known	-9.93807
▁Bestimmungen	-9.9391
▁trust	-9.93934
▁scientific	-9.93991
▁berücksichtigt	-9.94026
▁possibility	-9.94026
▁Fällen	-9.94088
▁zweiten	-9.9417
▁shows	-9.94181
▁Arab	-9.94207
▁anything	-9.9425
▁gleichen	-9.94254
▁Dennoch	-9.94265
▁People	-9.94313
▁document	-9.94364
▁Nun	-9.94396
▁Republic	-9.94444
▁respond	-9.94484
▁provides	-9.94507
▁Fed	-9.94679
▁Organisation	-9.94703
▁raise	-9.94786
▁thought	-9.94813
▁verbunden	-9.94859
▁trotz	-9.94888
▁Prime	-9.9489
▁jedes	-9.94924
▁affected	-9.94989
▁ergreifen	-9.94996
▁Einigung	-9.95072
▁simple	-9.95122
▁fallen	-9.95162
▁Conference	-9.95178
▁dagegen	-9.9523
▁efficiency	-9.9532
▁parliamentary	-9.95321
▁criminal	-9.95336
▁Security	-9.9542
▁Änderungen	-9.95435
▁General	-9.95437
▁directly	-9.95442
▁receive	-9.95618
▁Aspekte	-9.95622
▁Belarus	-9.95693
▁Firstly	-9.95695
▁Stelle	-9.95757
▁neuer	-9.95803
PL	-9.95832
H	-9.9584
ized	-9.95849
▁schwierig	-9.95881
▁Abschließend	-9.95905
▁unseres	-9.95914
▁June	-9.95955
▁ban	-9.96022
▁diejenigen	-9.96022
▁caused	-9.96046
▁jede	-9.96118
▁Chance	-9.9614
▁morgen	-9.96192
▁Anteil	-9.96213
▁discussed	-9.96236
▁discussions	-9.96325
▁offen	-9.96339
▁fisheries	-9.96343
▁betrachtet	-9.9636
▁according	-9.96409
▁critical	-9.96419
▁demands	-9.96421
▁cut	-9.96539
▁carry	-9.96558
▁Bürgerinnen	-9.96849
▁seriously	-9.96901
ri	-9.96906
est	-9.96959
▁mein	-9.97067
▁durchaus	-9.97079
▁vergessen	-9.97276
▁leadership	-9.97425
▁wegen	-9.97453
▁wobei	-9.9755
▁reducing	-9.97572
▁paid	-9.97581
▁Linie	-9.97604
▁official	-9.97644
▁union	-9.97681
und	-9.97682
N	-9.97717
▁eingehen	-9.97735
▁amerikanischen	-9.97741
▁contribute	-9.97743
▁erinnern	-9.97819
▁unacceptable	-9.97919
▁O	-9.97923
▁building	-9.97933
▁average	-9.97947
▁authority	-9.97971
▁plans	-9.98022
▁Nur	-9.98061
▁sechs	-9.98068
▁umgesetzt	-9.98191
▁goal	-9.9828
▁hohen	-9.98353
▁dealing	-9.98358
▁insgesamt	-9.98366
▁sanctions	-9.98392
▁Staats	-9.98425
▁II	-9.98485
▁date	-9.98504
▁humanitarian	-9.98519
▁treffen	-9.98538
▁hoffen	-9.98604
▁rural	-9.98616
▁Sinne	-9.98643
▁richtige	-9.98653
▁Einsatz	-9.98762
▁fund	-9.98795
▁purpose	-9.98806
▁considerable	-9.98835
▁police	-9.98867
▁endlich	-9.98922
▁study	-9.98986
▁Produktion	-9.99037
▁refugees	-9.99095
▁consumption	-9.99197
▁Beginn	-9.9923
▁Volkswirtschaft	-9.99273
▁worse	-9.99317
▁providing	-9.99418
▁age	-9.99441
▁application	-9.99466
▁Kingdom	-9.9957
▁aimed	-9.99597
▁assessment	-9.99673
▁z	-9.99722
▁Vereinte	-9.99787
▁bieten	-9.99808
▁entscheiden	-9.99859
▁bietet	-9.99873
called	-9.99889
▁coordination	-9.99923
▁happened	-9.99968
▁calls	-9.99998
▁competitive	-10.0002
▁combat	-10.0005
▁Verwaltung	-10.0015
▁Vertreter	-10.0023
▁accepted	-10.0032
▁expected	-10.0033
▁Leider	-10.0036
▁Schengen	-10.0043
▁besten	-10.0044
▁met	-10.0058
▁candidate	-10.0059
▁eigene	-10.0064
▁kleinen	-10.0069
▁unbedingt	-10.0071
▁Mitglied	-10.0074
▁jene	-10.0079
▁active	-10.008
▁relating	-10.0089
▁border	-10.0092
▁thinking	-10.0096
▁Human	-10.0097
▁join	-10.0098
ren	-10.0099
▁ground	-10.0102
▁press	-10.0104
▁beide	-10.0107
▁letzte	-10.0109
▁sometimes	-10.0109
▁produced	-10.0111
▁Europäer	-10.0112
▁Amerika	-10.012
▁bank	-10.0126
▁stimme	-10.0126
▁top	-10.013
▁Zweifel	-10.0135
▁exist	-10.014
E	-10.0148
▁normal	-10.0169
▁labor	-10.017
▁erzielt	-10.0171
▁measure	-10.0176
and	-10.0177
▁decide	-10.0183
▁chance	-10.0187
▁note	-10.0187
▁aufgenommen	-10.019
▁limit	-10.02
▁Abgeordnete	-10.02
▁path	-10.0209
▁Lösungen	-10.021
▁Roma	-10.0212
▁relationship	-10.0215
▁offensichtlich	-10.0219
▁Dezember	-10.0228
▁erklärt	-10.0233
▁ihres	-10.0234
▁Rede	-10.0237
industrie	-10.0257
▁gezeigt	-10.0259
▁überzeugt	-10.0264
▁Veränderungen	-10.0265
▁politischer	-10.0268
▁Fehler	-10.0275
▁governance	-10.0283
▁wanted	-10.0285
▁Behandlung	-10.0288
▁heraus	-10.0297
▁finanzielle	-10.0306
▁disease	-10.0314
▁ideas	-10.0316
▁Zudem	-10.0317
▁reduced	-10.0319
▁complex	-10.0321
age	-10.0322
▁handeln	-10.0327
▁Ge	-10.033
▁Verpflichtungen	-10.0331
▁intervention	-10.0335
▁parts	-10.0335
ir	-10.0339
▁improved	-10.0347
▁konkrete	-10.0359
▁transparent	-10.0361
Arbeitslosigkeit	-10.0363
▁choice	-10.0377
▁zunehmend	-10.0381
▁Höhe	-10.0389
▁discrimination	-10.0393
▁Risiken	-10.0395
▁ahead	-10.0406
▁asylum	-10.0411
▁ensuring	-10.0416
▁content	-10.0424
▁seek	-10.0429
▁möchten	-10.0429
▁außerdem	-10.0432
▁Mai	-10.0432
▁erkennen	-10.044
ismus	-10.0441
▁consensus	-10.0443
▁facing	-10.0443
▁Meiner	-10.0446
▁Augen	-10.0447
▁eben	-10.0449
▁wants	-10.0449
▁toward	-10.0451
▁Sozial	-10.0453
▁animal	-10.0457
▁Gesundheits	-10.0459
▁administrative	-10.0474
▁nächste	-10.0478
▁closely	-10.0485
▁proper	-10.0487
▁connection	-10.049
▁jüngsten	-10.0501
▁Brussels	-10.0506
▁Inflation	-10.0512
▁Agreement	-10.0512
▁getroffen	-10.0515
▁complete	-10.0516
▁Republik	-10.0517
▁entwickelt	-10.0518
▁efficient	-10.0518
▁Warum	-10.0529
▁verantwortlich	-10.0534
▁recovery	-10.0534
▁forms	-10.0538
▁Britain	-10.0538
▁broad	-10.0539
▁partnership	-10.0544
▁kommende	-10.0544
▁deficit	-10.0549
▁African	-10.0552
▁sufficient	-10.0553
▁motion	-10.0553
▁Innovation	-10.0556
ci	-10.0557
▁Sch	-10.0557
▁Währung	-10.0561
▁konzentrieren	-10.0571
▁gesprochen	-10.0579
▁IMF	-10.0581
▁else	-10.0582
▁export	-10.0587
▁Greek	-10.0597
tra	-10.0598
▁forced	-10.0614
▁verfügen	-10.0615
▁Why	-10.0619
é	-10.063
▁activity	-10.063
▁improving	-10.0633
man	-10.0634
di	-10.0643
▁ability	-10.0644
▁geleistet	-10.0645
ner	-10.0646
▁officials	-10.0648
▁wesentlich	-10.0653
me	-10.0654
▁representatives	-10.0666
▁gefordert	-10.0667
▁berücksichtigen	-10.0668
▁Transport	-10.0668
▁rich	-10.0668
▁Fortschritt	-10.0675
▁targets	-10.0675
▁name	-10.0677
▁Social	-10.0683
▁commitments	-10.0694
▁freue	-10.0695
▁bilateral	-10.07
iv	-10.0702
▁type	-10.0707
▁darstellt	-10.0728
▁Italien	-10.0728
▁entirely	-10.0745
ck	-10.0748
▁Ihrer	-10.075
▁earlier	-10.076
▁Sorge	-10.0761
▁gelten	-10.0765
▁erzielen	-10.0766
▁weeks	-10.0767
▁urgent	-10.0771
▁befinden	-10.078
ra	-10.0781
▁impossible	-10.0787
▁honourable	-10.0788
▁participation	-10.0793
▁beginnen	-10.0794
Dienstleistungen	-10.0797
▁March	-10.08
▁item	-10.08
▁Barroso	-10.0815
▁erfolgreich	-10.0816
keit	-10.0817
▁enorme	-10.0818
▁Do	-10.0818
schutz	-10.0825
▁Regelung	-10.083
▁word	-10.0832
▁findet	-10.0833
▁erhöhen	-10.0837
▁erwähnt	-10.0848
▁Zustimmung	-10.0859
ige	-10.0862
▁Konferenz	-10.0862
▁sicherlich	-10.0872
▁reference	-10.0873
▁event	-10.0878
▁Amsterdam	-10.0881
▁company	-10.0887
▁Dazu	-10.0889
▁burden	-10.0895
▁sources	-10.0896
▁hinweisen	-10.0898
▁contrary	-10.0898
▁technologies	-10.0898
▁difficulties	-10.0899
▁finanziellen	-10.0899
un	-10.0905
▁person	-10.0906
▁Anerkennung	-10.0914
▁rapid	-10.0916
▁bald	-10.0921
▁rightly	-10.0926
▁Al	-10.0932
mo	-10.0948
▁Mitteilung	-10.0948
▁product	-10.0952
▁übernehmen	-10.0952
ate	-10.0981
▁Volk	-10.0984
▁Angelegenheiten	-10.0988
▁gesehen	-10.099
▁Alle	-10.1006
▁eingesetzt	-10.1008
▁Only	-10.1014
▁comprehensive	-10.1015
▁Gesamt	-10.1019
▁entschieden	-10.102
▁folgen	-10.1023
▁Antrag	-10.1032
▁sort	-10.1048
▁Revolution	-10.1054
▁language	-10.1055
▁laws	-10.1058
▁January	-10.1062
bar	-10.1097
▁Waffen	-10.1101
▁verfolgen	-10.1105
▁Priorität	-10.1105
▁More	-10.1107
▁month	-10.1113
▁genannten	-10.1115
▁guidelines	-10.1121
▁remember	-10.1125
▁Gesetzgebung	-10.1127
▁Summit	-10.1128
▁Märkte	-10.1133
▁Hoffnung	-10.1134
▁Forderung	-10.1139
mp	-10.114
am	-10.1144
▁According	-10.1145
▁Schritte	-10.1149
▁mag	-10.1154
▁Instead	-10.1156
▁Poland	-10.1156
▁gekommen	-10.1163
ry	-10.1168
▁minimum	-10.1173
▁religious	-10.1177
▁sound	-10.1181
▁zudem	-10.1184
▁Hamas	-10.1184
▁stärken	-10.1184
▁fuel	-10.1185
▁hear	-10.1193
▁comments	-10.1201
▁useful	-10.1201
▁Ausbildung	-10.1202
▁Prioritäten	-10.1209
▁ambitious	-10.1209
▁provision	-10.121
▁propose	-10.1212
▁f	-10.1217
▁president	-10.1218
▁obvious	-10.1219
▁whom	-10.1222
▁klare	-10.1227
▁Gleichzeitig	-10.1236
▁Jetzt	-10.1242
▁ent	-10.1243
▁unterstütze	-10.1244
▁bezüglich	-10.1249
▁geschehen	-10.1257
▁Juni	-10.126
▁read	-10.1262
▁represent	-10.1262
▁referred	-10.1265
sektor	-10.1266
▁decade	-10.1274
▁Regulierung	-10.1276
▁Vorteile	-10.1282
▁Organisationen	-10.1283
▁supporting	-10.1291
▁besondere	-10.1292
▁h	-10.1301
▁Worte	-10.1303
▁bringt	-10.1304
▁Praxis	-10.1305
▁Vereinbarung	-10.1305
▁adoption	-10.1307
ary	-10.1309
▁Ebenso	-10.1311
▁Mitgliedstaat	-10.1312
making	-10.1316
▁Familien	-10.1322
▁differences	-10.1325
▁independence	-10.1326
▁setting	-10.1326
▁Idee	-10.1337
▁investors	-10.134
▁enormous	-10.134
nt	-10.1352
▁comment	-10.1355
▁defence	-10.1357
▁Reaktion	-10.1359
▁Klimawandel	-10.1364
▁gehören	-10.1369
▁Initiativen	-10.137
W	-10.137
▁traditional	-10.1381
▁Constitution	-10.1383
▁approved	-10.1395
ut	-10.1397
▁Gegenteil	-10.1398
▁Überwachung	-10.14
▁elected	-10.1418
▁beschlossen	-10.1421
▁office	-10.143
led	-10.143
▁ehemalige	-10.1438
▁Nahen	-10.1438
ti	-10.1441
▁rising	-10.145
▁conclusions	-10.1452
▁source	-10.1452
▁Kenntnis	-10.1456
▁Berichte	-10.1458
▁implementing	-10.1464
▁Konflikt	-10.1465
kt	-10.1466
▁attacks	-10.1473
▁remind	-10.1478
▁Gipfel	-10.1485
▁Prodi	-10.1486
▁erfüllen	-10.1491
ke	-10.1494
Geschäftsordnung	-10.1508
▁verpflichtet	-10.1509
▁gesetzt	-10.1515
▁looking	-10.1516
▁ermöglicht	-10.152
▁aspect	-10.1523
▁Infrastruktur	-10.1525
▁verloren	-10.153
▁standard	-10.1534
▁animals	-10.1534
▁powerful	-10.1541
▁largely	-10.1544
▁Kriterien	-10.1544
▁analysis	-10.155
▁stated	-10.157
▁frei	-10.1571
▁body	-10.1573
▁anders	-10.1574
▁vermeiden	-10.158
based	-10.1585
▁Europeans	-10.1585
ant	-10.1587
▁sub	-10.1589
▁closer	-10.1589
▁largest	-10.1594
▁unable	-10.1596
▁gegenwärtig	-10.1596
▁intended	-10.1604
▁duty	-10.1604
ier	-10.1617
▁commercial	-10.162
▁followed	-10.1623
▁spent	-10.1633
▁ECB	-10.1634
▁Einwanderung	-10.164
▁continues	-10.164
▁taxes	-10.1642
▁Ihr	-10.1644
▁Falle	-10.1645
▁membership	-10.1646
ated	-10.1646
▁Wochen	-10.1646
▁speaking	-10.1648
▁N	-10.1652
▁safe	-10.1653
▁enthält	-10.1657
▁extreme	-10.1662
▁represents	-10.1669
▁Nevertheless	-10.1669
▁consideration	-10.167
▁Aspekt	-10.1677
▁target	-10.1687
▁diskutieren	-10.1687
▁Projekt	-10.1688
▁enterprises	-10.169
▁Gründe	-10.1691
▁perspective	-10.1691
▁Stimme	-10.1694
erweise	-10.1697
▁Gesetze	-10.1697
▁Spanien	-10.1698
▁Ort	-10.1699
▁spirit	-10.1699
▁erfordert	-10.17
▁Democrats	-10.1705
▁Irish	-10.1705
▁achieving	-10.171
▁betonen	-10.1711
▁Saudi	-10.1711
▁einschließlich	-10.1723
▁Produkte	-10.1724
▁b	-10.1724
▁equality	-10.1725
▁bear	-10.1727
▁bestimmten	-10.1729
▁Nutzen	-10.1732
▁Realität	-10.1733
▁disaster	-10.1734
▁Engagement	-10.1734
▁Verteidigung	-10.174
▁Verwendung	-10.1748
▁Ist	-10.1749
▁mandate	-10.1749
▁gives	-10.1751
▁changed	-10.1753
▁secure	-10.1753
▁introduce	-10.1759
▁regret	-10.1759
▁bitten	-10.176
▁understanding	-10.1763
▁managed	-10.1765
▁Klima	-10.1766
ert	-10.1775
▁Partnerschaft	-10.1775
K	-10.1777
▁unfortunately	-10.178
▁Raum	-10.1783
▁Charter	-10.1784
▁convinced	-10.1792
▁appears	-10.1796
▁Irland	-10.1801
▁exactly	-10.1803
▁britischen	-10.1811
▁addressed	-10.1813
▁conference	-10.182
▁Last	-10.1821
santrag	-10.1826
▁Policy	-10.1832
▁Sanktionen	-10.1832
▁developments	-10.1855
▁worth	-10.186
▁Thank	-10.1862
▁prüfen	-10.1863
▁concept	-10.1865
▁sides	-10.1872
▁colleague	-10.1874
▁talks	-10.1884
▁properly	-10.1887
ie	-10.1889
▁child	-10.189
ting	-10.1893
▁Den	-10.1894
▁Bereiche	-10.1901
less	-10.1903
ko	-10.1904
▁Grundsatz	-10.1906
▁expenditure	-10.1912
▁Kern	-10.1919
▁appear	-10.1921
▁Brüssel	-10.1924
▁Fonds	-10.1927
▁außer	-10.1927
▁urge	-10.1936
▁firms	-10.1938
v	-10.1942
▁Americans	-10.1946
▁verbessert	-10.1948
▁nimmt	-10.1961
▁PPE	-10.1967
▁acceptable	-10.1969
▁diskutiert	-10.1973
▁attack	-10.1975
ization	-10.1977
▁Denn	-10.198
▁Kyoto	-10.1982
▁Vertrags	-10.1984
▁thousands	-10.1989
▁producers	-10.199
▁Sitzung	-10.1991
▁leicht	-10.1995
▁sch	-10.1998
▁verwendet	-10.2004
▁Soviet	-10.2013
▁conclude	-10.2018
▁Spiel	-10.2021
▁dollar	-10.2032
li	-10.2035
▁direkt	-10.2038
▁promoting	-10.2041
▁lose	-10.2047
▁introduced	-10.2054
▁vision	-10.2069
▁staff	-10.2072
▁Aufgaben	-10.2078
▁exports	-10.2079
ad	-10.2098
▁told	-10.2098
▁myself	-10.2104
▁genuine	-10.2111
▁scale	-10.2114
▁somit	-10.2116
▁Aktivitäten	-10.2119
▁heart	-10.212
▁Given	-10.2122
sländern	-10.2123
▁Lesung	-10.2129
▁sea	-10.213
▁mehrere	-10.2131
▁investments	-10.2132
▁Wer	-10.2135
▁bestehenden	-10.2139
▁aktuellen	-10.2139
▁calling	-10.2141
▁Sicherheits	-10.2143
▁demokratische	-10.2143
▁Finanzkrise	-10.2144
▁became	-10.2147
sländer	-10.2152
chen	-10.2154
▁shared	-10.2158
▁worked	-10.2162
ken	-10.2162
▁länger	-10.2163
V	-10.2163
▁balanced	-10.2171
▁manner	-10.2174
▁correct	-10.2177
▁From	-10.2185
▁Justice	-10.2185
▁mainly	-10.2195
▁politisch	-10.2197
▁Mediterranean	-10.2203
▁attempt	-10.2204
▁serve	-10.2208
▁agencies	-10.221
▁Durchführung	-10.2211
▁Informations	-10.2211
▁Those	-10.2217
▁Syria	-10.2219
▁refer	-10.2245
▁lang	-10.2246
▁Zentralbank	-10.2247
▁added	-10.2251
▁Vielleicht	-10.2261
▁verfolgt	-10.2261
▁positiv	-10.2266
▁Natur	-10.2267
▁IWF	-10.2268
▁Liberalisierung	-10.2274
▁corruption	-10.2274
▁eingeführt	-10.2277
▁counter	-10.2278
▁Trade	-10.2279
▁Unabhängigkeit	-10.228
▁festgelegt	-10.2282
▁decline	-10.2287
▁Islam	-10.229
▁obviously	-10.2293
rlei	-10.2301
▁kam	-10.231
▁concrete	-10.2312
▁substantial	-10.2319
▁betrachten	-10.2321
▁says	-10.2323
▁practices	-10.2329
▁neither	-10.2331
▁chinesischen	-10.2332
▁advanced	-10.2335
▁round	-10.2338
▁erklären	-10.2342
▁gewisse	-10.2346
▁subsidies	-10.2357
ating	-10.2358
▁EZB	-10.2363
ce	-10.2374
▁advantage	-10.238
▁Nachfrage	-10.2398
▁Projekte	-10.2398
▁Ausschuß	-10.2402
▁Gruppen	-10.2405
ho	-10.2411
▁Forderungen	-10.2414
▁Latin	-10.2415
▁Instrumente	-10.242
▁Diskriminierung	-10.2429
▁London	-10.243
▁table	-10.2445
▁Ratspräsident	-10.2445
▁NEW	-10.246
▁Dann	-10.2461
▁defend	-10.2463
▁strongly	-10.2464
ous	-10.2465
▁durchgeführt	-10.2467
▁continued	-10.2472
▁Neu	-10.2472
▁bedarf	-10.2475
▁dis	-10.2476
▁Anzahl	-10.2484
▁relativ	-10.2486
▁Italian	-10.2492
▁Spanish	-10.2492
▁figures	-10.2494
ft	-10.2494
▁Gruppe	-10.2495
▁Verbindung	-10.2499
▁Einkommen	-10.2499
▁allgemeine	-10.2504
border	-10.2509
▁Militär	-10.2513
▁goals	-10.2514
▁Königreich	-10.2517
▁Regulation	-10.2518
unternehmen	-10.2523
▁verstärkt	-10.2524
▁wealth	-10.2528
men	-10.2534
▁method	-10.2537
▁structure	-10.2537
▁gefunden	-10.2541
▁discussing	-10.2544
▁near	-10.2544
▁stets	-10.2551
▁network	-10.2557
▁Stärkung	-10.2558
▁Stellungnahme	-10.2568
▁zustimmen	-10.2569
▁Partner	-10.2573
▁vorgesehen	-10.2577
rat	-10.2582
▁fragen	-10.2583
▁opening	-10.2594
▁Polen	-10.2597
▁außerhalb	-10.26
▁Maße	-10.2607
▁Prinzip	-10.2608
▁lies	-10.2613
▁angeht	-10.2616
▁Botschaft	-10.2619
▁Vergleich	-10.2625
▁applies	-10.263
▁Moment	-10.263
ally	-10.2636
▁gern	-10.2643
▁communities	-10.2643
▁relative	-10.2644
▁immediate	-10.2644
▁news	-10.2653
▁began	-10.2653
▁fail	-10.2659
▁sign	-10.2679
▁feststellen	-10.2683
▁millions	-10.2688
▁desire	-10.2688
espite	-10.2689
▁gegenwärtigen	-10.2692
▁establishment	-10.2697
▁Westen	-10.2703
▁send	-10.2704
▁flexibility	-10.2709
▁getting	-10.2711
▁started	-10.2717
▁continent	-10.2717
▁leader	-10.272
com	-10.2722
▁manage	-10.2724
▁greatest	-10.2726
▁Dem	-10.2736
rate	-10.2738
▁Grundrechte	-10.2738
▁La	-10.2743
ma	-10.2744
▁Nutzung	-10.275
isation	-10.2752
▁Israeli	-10.2756
vi	-10.2759
ität	-10.2759
▁UNO	-10.276
▁März	-10.2763
▁truth	-10.2763
▁Gaza	-10.2763
▁exercise	-10.2763
▁Erfahrungen	-10.2765
▁elements	-10.2765
▁Umfang	-10.2776
▁höhere	-10.2777
stand	-10.2778
▁kleine	-10.2779
heit	-10.2779
▁explain	-10.2783
pe	-10.2791
▁Sinn	-10.2793
▁October	-10.2803
▁happy	-10.2803
na	-10.2807
▁immediately	-10.2808
▁Januar	-10.2813
▁Global	-10.2815
▁networks	-10.2817
▁Gas	-10.2819
▁mechanism	-10.2824
aus	-10.283
▁Aufnahme	-10.2839
▁nations	-10.2847
▁unternehmen	-10.2848
▁hingewiesen	-10.285
▁fish	-10.2863
▁institution	-10.2871
pp	-10.2871
▁permanent	-10.2871
ph	-10.2879
▁board	-10.2879
▁ausreichend	-10.2887
▁pointed	-10.2887
▁bodies	-10.289
▁record	-10.2905
▁cover	-10.2905
ber	-10.2909
responsibilities	-10.2911
▁moral	-10.2918
▁danger	-10.2919
▁link	-10.292
▁putting	-10.292
▁wollte	-10.2923
▁ready	-10.2928
▁Konzept	-10.2931
▁factors	-10.2932
ien	-10.2934
U	-10.2936
▁range	-10.2938
▁verfügt	-10.2938
▁Regime	-10.294
▁allgemeinen	-10.294
▁darstellen	-10.2945
▁Zeitraum	-10.2946
▁folgt	-10.2947
▁introduction	-10.2948
▁Abschluss	-10.2957
▁Perhaps	-10.2958
▁entsprechende	-10.296
▁factor	-10.2961
rs	-10.2961
▁seeking	-10.2968
▁Koordinierung	-10.2972
▁Worten	-10.2972
▁resolve	-10.2973
ging	-10.2984
▁Foreign	-10.2985
▁entspricht	-10.2985
▁betroffen	-10.2987
▁sensible	-10.2992
▁payments	-10.2993
ein	-10.2996
▁accordance	-10.3006
▁sicherzustellen	-10.3006
▁seines	-10.3007
▁Sprache	-10.3009
▁gemäß	-10.301
ring	-10.3011
▁elsewhere	-10.3013
▁yesterday	-10.3013
▁specifically	-10.3014
▁opposed	-10.3017
▁deep	-10.3017
ster	-10.3022
▁starke	-10.3022
▁weltweiten	-10.3024
▁truly	-10.3026
▁Wohlstand	-10.3027
▁zahlreiche	-10.3027
▁weiterer	-10.3028
system	-10.3032
▁nation	-10.3038
▁families	-10.304
▁Bedrohung	-10.3042
▁documents	-10.3054
▁entsprechend	-10.3056
▁Verpflichtung	-10.3056
L	-10.3056
zeit	-10.3064
▁car	-10.3064
▁Modell	-10.3067
▁verlieren	-10.3068
▁Wege	-10.3068
▁recognition	-10.3075
▁Entwurf	-10.3081
▁Bau	-10.3083
▁wichtigste	-10.3084
▁Health	-10.3085
▁einsetzen	-10.3091
▁migration	-10.3095
cht	-10.3095
▁causes	-10.3095
lichkeit	-10.3096
▁Wachstums	-10.3097
▁Green	-10.3099
▁freien	-10.3099
▁Hälfte	-10.3102
▁Basis	-10.3102
▁vorliegenden	-10.3105
▁aims	-10.3114
▁arms	-10.3115
▁erfüllt	-10.3116
▁difference	-10.312
▁Minderheiten	-10.3121
▁Another	-10.3123
ot	-10.3127
▁ernst	-10.3132
▁forget	-10.3137
year	-10.314
nearly	-10.3144
▁push	-10.3145
▁degree	-10.3155
▁Technologien	-10.3162
▁strengthening	-10.3165
▁integrated	-10.3167
▁drugs	-10.317
▁Sweden	-10.3174
▁Drittens	-10.3179
▁controls	-10.3182
▁falsch	-10.3182
▁terrorist	-10.3185
▁stock	-10.3193
▁methods	-10.3194
▁welfare	-10.3198
▁Gemeinsamen	-10.3215
▁constitution	-10.3218
▁improvement	-10.322
▁establishing	-10.3221
▁unternommen	-10.3227
▁Welche	-10.3233
▁succeed	-10.3233
▁appeal	-10.3241
▁zusätzliche	-10.3244
▁faced	-10.3251
▁constructive	-10.3257
▁recognise	-10.3269
▁continuing	-10.3269
▁Bedenken	-10.327
▁Grunde	-10.327
▁Romania	-10.327
▁Ereignisse	-10.327
▁gerecht	-10.3272
▁Ordnung	-10.3276
mi	-10.3278
▁signed	-10.3278
▁prosperity	-10.3284
▁dienen	-10.3286
▁Kritik	-10.3289
▁claim	-10.3289
▁Rules	-10.3291
▁anyone	-10.3294
▁option	-10.3304
▁emphasise	-10.3306
▁Angst	-10.3312
▁Most	-10.3314
▁intention	-10.3317
▁credibility	-10.3319
▁gleiche	-10.332
▁niemand	-10.3321
▁gain	-10.3324
▁rejected	-10.3333
▁limits	-10.3345
▁entsprechenden	-10.3347
▁nachhaltige	-10.3353
▁asking	-10.3363
▁Trotz	-10.3368
▁amerikanische	-10.337
▁reflect	-10.3372
▁formal	-10.3374
▁mass	-10.3376
os	-10.3379
▁sämtliche	-10.3383
▁Also	-10.3388
▁aktiv	-10.3388
▁Wähler	-10.3389
▁affairs	-10.3398
ac	-10.3401
▁Beihilfen	-10.3404
ka	-10.341
▁actual	-10.3412
▁reagieren	-10.3418
▁loss	-10.342
▁letztlich	-10.3439
▁treaty	-10.3441
▁Dokument	-10.3448
▁includes	-10.345
▁productivity	-10.345
ug	-10.3476
▁Bis	-10.3481
▁verehrte	-10.3482
▁BSE	-10.3483
▁July	-10.3484
▁aufmerksam	-10.349
▁Kollege	-10.3491
▁prevention	-10.3491
▁flexible	-10.3496
▁definition	-10.3505
▁ging	-10.3507
▁designed	-10.3508
▁Bewertung	-10.351
▁Islamic	-10.3512
▁Monetary	-10.3518
▁lines	-10.3523
▁gender	-10.3526
▁expression	-10.3537
▁Verbot	-10.354
▁absolut	-10.3541
▁sagt	-10.3542
▁Pro	-10.3544
▁drawn	-10.3545
▁Korruption	-10.3556
▁Paris	-10.356
ow	-10.3561
NL	-10.3561
▁reply	-10.3562
▁Turkish	-10.3562
ty	-10.3562
▁Unterschiede	-10.3573
▁Wahrheit	-10.3576
▁related	-10.3589
▁obtain	-10.359
▁individuals	-10.3594
▁paar	-10.3598
markt	-10.36
▁banking	-10.3602
ve	-10.3603
▁Weltwirtschaft	-10.3607
▁base	-10.3622
▁Status	-10.3623
liche	-10.3627
▁funktioniert	-10.3627
▁Regelungen	-10.3628
▁nennen	-10.3633
▁travel	-10.3633
▁Wunsch	-10.3634
▁profitieren	-10.3635
▁wünschen	-10.3639
▁informed	-10.3643
▁Financial	-10.3649
▁Entwicklungen	-10.365
▁ought	-10.3656
tschaftswachstum	-10.3657
pa	-10.3658
lo	-10.3658
▁verschiedene	-10.3659
▁school	-10.366
▁Budget	-10.3664
▁privaten	-10.3669
smaßnahmen	-10.367
▁suggest	-10.3672
▁suffering	-10.3675
▁bringing	-10.3679
▁gerne	-10.368
sp	-10.3681
▁transition	-10.3684
▁innovative	-10.3685
▁rasch	-10.3688
▁referendum	-10.3691
▁Versuch	-10.3692
Schlussfolgerung	-10.3693
▁regulatory	-10.3693
▁alten	-10.3695
▁J	-10.3697
▁geändert	-10.37
▁cities	-10.37
▁learn	-10.3702
▁Gebieten	-10.3704
▁Beteiligung	-10.3715
▁legen	-10.3717
ere	-10.3717
▁Gesetz	-10.372
▁positions	-10.3726
▁vollständig	-10.3747
▁morning	-10.3751
▁Gegensatz	-10.3752
▁test	-10.3753
▁dealt	-10.3755
▁geschieht	-10.3759
▁renewable	-10.3762
▁groß	-10.3764
▁Paper	-10.3766
▁teilweise	-10.3774
▁zufolge	-10.3774
▁adequate	-10.3775
▁wide	-10.3778
▁stronger	-10.3782
▁Preise	-10.3784
▁helped	-10.3784
▁Erfahrung	-10.3786
▁recession	-10.379
▁Konsens	-10.3792
ler	-10.3795
▁science	-10.3795
▁mutual	-10.3798
▁Technologie	-10.38
▁Ka	-10.38
▁Ladies	-10.3803
▁Egypt	-10.3808
kommen	-10.3811
▁nationaler	-10.3813
▁Eastern	-10.3813
▁Monate	-10.3813
▁voters	-10.3814
▁Because	-10.3818
▁Erhöhung	-10.3818
▁origin	-10.382
▁Great	-10.3825
▁Jahrhundert	-10.3833
▁vorgeschlagenen	-10.3833
▁affect	-10.3837
▁easier	-10.384
▁Anfrage	-10.3859
▁sensitive	-10.3863
▁assets	-10.3867
▁Amerikas	-10.3869
▁inzwischen	-10.387
▁Agency	-10.387
▁liebe	-10.3872
▁delegation	-10.3874
▁gave	-10.3878
auf	-10.3879
▁starting	-10.3882
▁contrast	-10.3885
▁enter	-10.3888
▁Krisen	-10.389
▁York	-10.3893
▁vulnerable	-10.39
▁Ohne	-10.3907
▁Syrien	-10.3907
amp	-10.3913
relatively	-10.3914
the	-10.3915
▁Amt	-10.3916
ian	-10.392
▁AIDS	-10.3922
▁britische	-10.3923
▁van	-10.3933
▁votes	-10.3934
sized	-10.3935
ies	-10.3935
▁MEPs	-10.3936
▁criticism	-10.3944
▁repeat	-10.3946
▁Arbeits	-10.3948
▁original	-10.3949
▁fighting	-10.395
▁grenzüber	-10.395
▁Verbrechen	-10.3951
▁willing	-10.3955
▁generally	-10.396
▁worldwide	-10.3963
▁obligations	-10.3964
▁Lebens	-10.3966
▁Problemen	-10.3981
▁ultimately	-10.3985
▁setzt	-10.3985
▁politically	-10.3986
▁mechanisms	-10.3989
ors	-10.3994
▁darunter	-10.3998
▁liberalisation	-10.3998
▁shift	-10.4004
▁liberal	-10.4004
▁e	-10.4012
▁invest	-10.4014
▁dimension	-10.4016
ze	-10.4018
▁anderem	-10.4019
▁anderes	-10.4019
▁minority	-10.4021
▁constitutional	-10.4023
innen	-10.4024
▁happening	-10.4028
▁otherwise	-10.4036
▁verringern	-10.4036
▁solcher	-10.4036
▁Rechnung	-10.4041
▁damals	-10.4051
▁falls	-10.4052
▁Arbeitsmarkt	-10.406
▁dennoch	-10.4066
▁ausdrücklich	-10.4074
▁weak	-10.4086
stellung	-10.409
▁Inhalt	-10.4092
▁larger	-10.4092
▁partner	-10.4095
▁Zweck	-10.4106
▁absolute	-10.4107
▁Juli	-10.4108
▁immigrants	-10.4109
▁Protokoll	-10.4109
ger	-10.411
▁Angriff	-10.4113
▁paragraph	-10.4115
▁debates	-10.4115
mit	-10.4115
▁diseases	-10.4123
▁überall	-10.4127
▁firm	-10.4131
▁tried	-10.4137
▁societies	-10.4142
ts	-10.4148
▁Willen	-10.4154
▁head	-10.4155
▁carbon	-10.4156
▁reject	-10.4157
▁Russlands	-10.4157
▁bilden	-10.4158
▁bedeuten	-10.4161
ine	-10.4166
▁beteiligt	-10.4168
▁carefully	-10.4169
▁trägt	-10.4175
▁trading	-10.4178
▁notwendigen	-10.418
▁moving	-10.4181
▁dürfte	-10.4186
▁näher	-10.4188
▁reichen	-10.4207
▁zufrieden	-10.4211
▁miteinander	-10.4212
ure	-10.4218
io	-10.4225
▁industries	-10.4228
▁spread	-10.4229
▁compared	-10.423
▁Will	-10.423
▁Kooperation	-10.4235
▁extend	-10.4236
▁denken	-10.4238
▁argument	-10.4239
▁fraud	-10.4241
▁tackle	-10.4244
▁Charta	-10.4252
ities	-10.4254
▁Chamber	-10.4258
▁discharge	-10.426
▁Fälle	-10.4261
IT	-10.4261
▁Zeiten	-10.4265
▁attitude	-10.4273
▁St	-10.4282
▁Wo	-10.4285
▁pursue	-10.4291
▁deliver	-10.4296
▁betont	-10.4299
▁imports	-10.4302
▁grateful	-10.4305
ize	-10.4309
▁Dimension	-10.4312
▁festgestellt	-10.4313
▁insurance	-10.4314
▁Treffen	-10.4315
▁Export	-10.4315
▁solve	-10.4321
ha	-10.4324
nd	-10.4327
▁Anpassung	-10.4328
▁Verständnis	-10.4328
▁prove	-10.4329
▁Fraktionen	-10.4329
▁leiden	-10.4331
▁signal	-10.4337
▁Amendments	-10.4342
durch	-10.4343
▁derzeitigen	-10.4345
▁stimmt	-10.4351
▁französischen	-10.4352
▁daraus	-10.4353
▁wer	-10.4354
per	-10.4355
▁übrigen	-10.4357
▁Hause	-10.4357
▁Maßnahme	-10.4357
▁Amerikaner	-10.4358
▁popular	-10.4358
▁Absatz	-10.4362
▁Oktober	-10.4367
▁Überprüfung	-10.4367
▁seien	-10.4368
▁spielt	-10.4373
▁stattfinden	-10.4373
▁umfassende	-10.4376
▁Dur	-10.4376
▁Zahlen	-10.4379
ES	-10.4381
▁technological	-10.4383
▁statements	-10.439
▁ergriffen	-10.4399
▁planning	-10.4399
▁Untersuchung	-10.4405
▁presence	-10.4406
▁thereby	-10.4411
▁gratulieren	-10.4413
▁territory	-10.4414
▁Schweden	-10.4414
RK	-10.4417
▁kürzlich	-10.4422
▁boost	-10.4425
▁stable	-10.4426
ell	-10.4432
wa	-10.4443
▁zweifellos	-10.4446
▁contains	-10.4449
▁größeren	-10.445
iz	-10.4453
▁Männer	-10.446
▁gewinnen	-10.4462
go	-10.4464
ru	-10.4466
▁befassen	-10.447
▁intend	-10.4472
▁künftig	-10.4488
▁operation	-10.4491
▁Muslim	-10.4492
▁Platz	-10.4507
▁pollution	-10.4509
▁linked	-10.4511
▁Blick	-10.4518
▁entgegen	-10.4519
▁revolution	-10.452
ik	-10.4525
▁experts	-10.453
▁cuts	-10.453
▁laid	-10.4534
▁nachdem	-10.4537
sprozess	-10.4537
▁wenige	-10.4538
▁rapporteurs	-10.4538
▁Here	-10.4548
▁Sea	-10.4549
▁ethnic	-10.4554
▁Asien	-10.4556
▁Außenpolitik	-10.4556
▁voice	-10.4561
▁Völker	-10.4563
▁submitted	-10.4565
▁einig	-10.4568
▁Schluss	-10.4576
▁helping	-10.4579
▁einiger	-10.4592
▁vielmehr	-10.4597
▁gap	-10.46
▁Mitteln	-10.4605
▁recommendations	-10.4605
▁interesting	-10.4606
▁k	-10.4609
▁Liste	-10.4614
▁deficits	-10.4622
▁expectations	-10.4627
▁grundlegende	-10.4627
▁rapidly	-10.4629
▁bekämpfen	-10.4629
▁außerordentlich	-10.4637
▁floor	-10.4637
▁erhöht	-10.4638
▁crises	-10.4645
▁totally	-10.4651
▁Achtung	-10.4655
▁Einhaltung	-10.4663
▁hält	-10.4666
au	-10.4669
▁benötigen	-10.467
wing	-10.467
▁Kindern	-10.4679
▁Strategien	-10.4683
nstatt	-10.4686
ba	-10.4689
da	-10.469
▁Einrichtung	-10.4696
op	-10.4699
▁finde	-10.4704
ß	-10.4707
▁Brazil	-10.4709
▁Pact	-10.4711
ance	-10.4711
▁performance	-10.4713
▁lautet	-10.4716
▁Phase	-10.4718
▁herzlich	-10.4718
▁neues	-10.4726
▁seiten	-10.4731
▁Washington	-10.4734
los	-10.4737
▁regionalen	-10.4739
▁operations	-10.4742
sabkommen	-10.4742
▁unfair	-10.4745
▁generation	-10.4747
▁Nr	-10.4749
▁gelungen	-10.4751
▁consultation	-10.4755
▁reasonable	-10.4755
▁delay	-10.4758
▁Thus	-10.4759
▁speed	-10.476
▁built	-10.4767
▁Opposition	-10.477
la	-10.4772
▁Verkehrs	-10.4781
▁protecting	-10.4786
▁sitting	-10.4792
▁minister	-10.4792
▁collective	-10.4794
▁hands	-10.4799
▁program	-10.4799
▁highlight	-10.4799
▁Diskussionen	-10.4799
▁Rezession	-10.48
▁akzeptiert	-10.48
▁Tätigkeit	-10.4802
▁imposed	-10.4812
▁hören	-10.4812
▁langfristige	-10.4819
▁Na	-10.482
▁granted	-10.4821
ud	-10.4823
▁Swedish	-10.4824
▁Eindruck	-10.4826
▁wirtschaftlich	-10.483
▁Drogen	-10.4831
▁structures	-10.4842
▁collapse	-10.4843
▁latest	-10.4843
▁genutzt	-10.4849
▁ex	-10.4853
skonferenz	-10.4858
▁High	-10.4866
▁highest	-10.4869
mal	-10.4871
▁impose	-10.4881
▁organisation	-10.4882
▁vollkommen	-10.4883
ists	-10.4885
▁seven	-10.4889
▁visit	-10.489
▁acts	-10.4895
▁beste	-10.49
▁abgelehnt	-10.4907
▁Can	-10.4914
▁jährlich	-10.4915
▁primary	-10.4915
▁Überzeugung	-10.4917
▁umzusetzen	-10.4918
▁Public	-10.4923
▁Anspruch	-10.4923
▁Standards	-10.4924
▁Teilen	-10.4925
▁Second	-10.4926
organisationen	-10.4928
▁struggle	-10.4932
▁sent	-10.4935
tic	-10.4938
▁Sorgen	-10.4939
▁Beweis	-10.494
▁scheinen	-10.494
▁separate	-10.4945
är	-10.4948
▁space	-10.4948
▁minorities	-10.4948
▁Over	-10.495
▁Anstieg	-10.4957
▁Tagen	-10.4961
▁combating	-10.4961
▁chinesische	-10.4962
▁Netherlands	-10.4965
▁Stadt	-10.4965
▁internationaler	-10.4965
▁Krankheiten	-10.4966
schaft	-10.497
▁möglichst	-10.4974
gt	-10.4975
▁betroffenen	-10.4979
▁drug	-10.4981
▁diversity	-10.4981
▁size	-10.4982
▁beglückwünschen	-10.4982
▁construction	-10.499
ag	-10.4997
▁urban	-10.4998
recht	-10.4998
▁Strategy	-10.4998
▁Both	-10.4999
EL	-10.5005
▁Vorgehen	-10.5007
bi	-10.5009
▁element	-10.5022
▁HIV	-10.5023
▁legitimate	-10.5024
▁Steuern	-10.5027
▁Procedure	-10.5032
▁fehlt	-10.5036
▁Ausnahme	-10.5038
▁slow	-10.5038
▁erhebliche	-10.5039
▁Thirdly	-10.5043
▁Mann	-10.5047
▁Wirkung	-10.5049
▁verlassen	-10.5049
▁sicherstellen	-10.5049
▁echte	-10.5055
▁fordere	-10.5057
▁Justiz	-10.5069
European	-10.5069
▁Saddam	-10.5074
▁entscheidende	-10.5074
▁universal	-10.5076
▁Verkehr	-10.5079
ach	-10.5081
▁Richtlinien	-10.5083
▁Ministers	-10.5083
▁wonder	-10.5088
▁save	-10.5096
▁choose	-10.5099
▁court	-10.5104
▁Flexibilität	-10.5107
▁verurteilt	-10.5107
▁Absicht	-10.5108
▁suffer	-10.5119
po	-10.5121
▁Berlin	-10.5126
▁significantly	-10.5126
▁core	-10.5128
hilfe	-10.5128
▁Ratsvorsitz	-10.5132
▁binding	-10.5141
▁conflicts	-10.5143
▁parliaments	-10.5143
▁Mein	-10.5149
▁easily	-10.515
▁unmöglich	-10.5151
▁involving	-10.5158
▁abgeschlossen	-10.5158
▁property	-10.5159
▁unless	-10.5161
▁organised	-10.5161
▁crimes	-10.5169
▁reden	-10.5173
▁Sport	-10.5173
▁Cyprus	-10.5175
▁Umständen	-10.5177
▁overcome	-10.518
▁guarantees	-10.5184
▁erfolgen	-10.5185
▁Flüchtlinge	-10.5188
▁turned	-10.5189
▁involve	-10.5193
▁directives	-10.5196
▁sage	-10.5197
▁Erklärungen	-10.5209
▁befindet	-10.5218
▁series	-10.5218
▁sinnvoll	-10.5218
▁closed	-10.5218
rt	-10.5219
▁nahe	-10.5223
▁Nahrungsmittel	-10.5226
▁Merkel	-10.5226
ll	-10.5227
▁abhängig	-10.5228
▁excessive	-10.5229
▁Asian	-10.5231
▁pension	-10.5233
▁YO	-10.5233
▁Federal	-10.5235
▁initial	-10.5238
▁plant	-10.5244
▁entscheidender	-10.5247
tion	-10.5249
▁material	-10.5251
▁safeguard	-10.5252
▁mindesten	-10.5252
▁Pflicht	-10.5256
▁hours	-10.5259
▁announced	-10.5263
▁peaceful	-10.5265
▁Barcelona	-10.5269
▁mobility	-10.5269
▁Leute	-10.5272
schaftlichen	-10.5277
▁Vielfalt	-10.5278
▁spend	-10.5278
▁erwartet	-10.5278
▁Verhalten	-10.5279
▁accounts	-10.5291
▁zuvor	-10.5294
▁ausschließlich	-10.5295
▁transfer	-10.5296
▁volle	-10.5302
▁vast	-10.5303
▁Gebiete	-10.5306
▁Ferner	-10.5307
PT	-10.5308
▁equally	-10.5308
▁Monat	-10.5309
▁Environment	-10.531
▁meetings	-10.5313
▁ländlichen	-10.5313
▁ständig	-10.5317
▁Empfehlungen	-10.5318
▁presidential	-10.5321
▁konkreten	-10.5323
▁staatlichen	-10.5325
▁speakers	-10.5336
▁wishes	-10.5337
▁Ausmaß	-10.5338
▁treated	-10.5344
schw	-10.5346
▁fällt	-10.535
▁Fähigkeit	-10.5359
▁depend	-10.536
▁Li	-10.537
▁amounts	-10.5371
▁conduct	-10.5371
ov	-10.5373
▁Taiwan	-10.5381
▁".	-10.5381
▁Nice	-10.5382
▁involvement	-10.5382
▁erlebt	-10.5382
▁arrangements	-10.5387
▁August	-10.539
out	-10.5392
▁tut	-10.5393
▁schließen	-10.5394
▁Landwirte	-10.5396
▁persönlich	-10.5396
▁sehe	-10.5402
▁approval	-10.5403
▁Niveau	-10.5403
▁Verhältnis	-10.5403
▁Delegation	-10.5408
▁radical	-10.541
▁besseren	-10.541
▁Gemeinschafts	-10.5412
ill	-10.5414
▁geäußert	-10.5416
▁Mangel	-10.5417
▁played	-10.5418
▁buy	-10.5419
▁bewegen	-10.5423
▁supports	-10.5423
off	-10.5427
ful	-10.5427
▁hervor	-10.5428
▁restrictions	-10.5431
▁gestern	-10.5433
bo	-10.5434
▁defined	-10.5435
▁gone	-10.5438
▁went	-10.5449
▁Schaden	-10.5451
▁identity	-10.5451
▁associated	-10.5452
▁nötig	-10.5453
▁Struktur	-10.5454
▁Verträge	-10.5455
▁erforderlichen	-10.5456
▁richtigen	-10.5458
▁Clinton	-10.546
sbereich	-10.5463
▁Polizei	-10.5468
▁distribution	-10.5468
▁nochmals	-10.5468
▁instance	-10.547
▁mission	-10.5478
▁employees	-10.5482
▁con	-10.5483
ven	-10.5485
▁sovereign	-10.5486
▁traffic	-10.5486
▁treten	-10.5486
▁emphasis	-10.5487
▁positiven	-10.5487
▁i	-10.5494
▁rund	-10.5501
▁Gedanken	-10.5509
▁Trotzdem	-10.5521
sa	-10.5521
▁Bemerkungen	-10.5524
▁militärische	-10.5531
ton	-10.5532
▁Balkans	-10.5534
▁freie	-10.5539
▁wesentlichen	-10.554
▁Strukturfonds	-10.5548
maßnahmen	-10.5551
▁strength	-10.5553
▁anerkannt	-10.5556
▁Hintergrund	-10.5556
▁aktuelle	-10.556
▁demonstrated	-10.5562
▁grow	-10.5566
▁multilateral	-10.5566
▁Nor	-10.5569
▁Glaubwürdigkeit	-10.5574
▁keiner	-10.5575
no	-10.5578
▁Reserve	-10.5578
▁participate	-10.5586
▁Leitlinien	-10.5587
▁himself	-10.5592
▁Effizienz	-10.5601
▁behandeln	-10.5609
▁Erwartungen	-10.5618
▁biggest	-10.5618
her	-10.5636
▁kennen	-10.5639
▁Besorgnis	-10.5651
▁verdient	-10.5654
▁bestimmt	-10.5655
▁covered	-10.5656
▁happens	-10.5657
▁Wandel	-10.5657
▁Ausführungen	-10.5661
▁praktisch	-10.5662
▁partly	-10.5665
▁schlecht	-10.5665
▁Nos	-10.5666
▁paper	-10.5666
▁Institution	-10.5667
▁monitor	-10.5668
▁Mo	-10.5673
▁increases	-10.5675
▁naturally	-10.5676
▁wichtiges	-10.568
▁Migration	-10.569
▁Anliegen	-10.569
▁offers	-10.5693
▁taxation	-10.5695
▁ones	-10.5696
organisation	-10.5699
▁erheblich	-10.57
▁gelöst	-10.5708
▁Regional	-10.5708
▁Nein	-10.571
▁facilitate	-10.571
▁Familie	-10.5711
▁zugleich	-10.5713
▁gewährleistet	-10.5716
▁warten	-10.5719
▁becomes	-10.572
▁improvements	-10.572
▁Mut	-10.5721
▁Leistung	-10.5724
▁Verringerung	-10.5725
▁Hauses	-10.5727
▁rein	-10.5727
▁detailed	-10.5733
▁Congress	-10.5734
▁Zur	-10.5738
▁consistent	-10.5738
▁professional	-10.5748
▁SMEs	-10.5752
des	-10.5761
▁Pa	-10.5761
▁Jahrzehnten	-10.5767
▁Führer	-10.5776
▁knows	-10.5776
▁savings	-10.5778
▁Dutch	-10.5779
▁dritte	-10.5786
▁eng	-10.579
▁Brexit	-10.5793
▁Ideen	-10.5794
▁Wirklichkeit	-10.5798
▁kept	-10.5798
do	-10.5799
▁Ihren	-10.5802
RO	-10.5803
▁incentives	-10.5804
▁Kredit	-10.581
▁Ra	-10.5814
▁Plenum	-10.5816
▁medical	-10.5816
▁Aufbau	-10.5817
▁trafficking	-10.5821
▁allowing	-10.5827
ical	-10.5831
▁places	-10.5838
▁Bemerkung	-10.584
▁substances	-10.5841
▁policymakers	-10.5845
▁Katastrophe	-10.5846
▁worst	-10.5852
▁inequality	-10.5852
▁früh	-10.5856
▁citizen	-10.5857
▁gefördert	-10.5861
▁grundlegenden	-10.5867
▁Chancen	-10.5869
▁höher	-10.5873
gesellschaftlich	-10.5878
▁fordert	-10.5879
▁amtierende	-10.588
▁entstehen	-10.588
▁Handeln	-10.5885
▁Harmonisierung	-10.5898
▁ECU	-10.5899
vo	-10.59
▁Problems	-10.5906
▁Tage	-10.5907
▁beschränkt	-10.5907
▁genauso	-10.5908
ON	-10.5909
▁entscheidend	-10.591
▁front	-10.5912
▁fossil	-10.5913
▁proved	-10.5914
▁Market	-10.5921
▁room	-10.5924
▁Nigeria	-10.5925
▁begonnen	-10.5934
▁erscheint	-10.5934
▁gezwungen	-10.5934
▁Alternative	-10.5935
▁Unser	-10.5936
▁harm	-10.5937
▁annehmen	-10.5942
ise	-10.5943
▁einverstanden	-10.5943
▁Premierminister	-10.5943
▁Waren	-10.5944
▁staatliche	-10.5946
▁double	-10.5946
▁below	-10.5947
▁ongoing	-10.5948
▁encouraging	-10.5953
▁Europol	-10.5954
shilfe	-10.5959
▁hit	-10.5961
▁niemals	-10.5962
fer	-10.5962
▁contributions	-10.5964
ak	-10.5965
▁Kräfte	-10.5968
▁adopting	-10.5969
▁Wissen	-10.5969
▁break	-10.5969
▁electricity	-10.5971
▁Gefühl	-10.5974
▁al	-10.5979
▁Copenhagen	-10.5989
▁Energy	-10.5989
▁got	-10.5993
▁äußern	-10.6008
▁Menge	-10.6013
ende	-10.6017
▁ausgesetzt	-10.602
▁Stability	-10.6027
▁Once	-10.6029
sh	-10.6036
▁trend	-10.6043
▁regionale	-10.6048
market	-10.6052
▁vorlegen	-10.606
▁belief	-10.6061
▁bestätigt	-10.6062
▁Research	-10.6063
▁Zeichen	-10.6063
▁Friedens	-10.6068
▁George	-10.6069
▁pass	-10.6072
▁middle	-10.6073
vor	-10.6077
▁capable	-10.6082
▁Einklang	-10.6082
▁launched	-10.6088
▁placed	-10.6088
▁Noch	-10.6096
▁claims	-10.6103
▁interested	-10.6108
mer	-10.6109
▁changing	-10.611
▁jungen	-10.6115
▁firstly	-10.6116
▁Des	-10.6116
▁temporary	-10.6119
▁verabschiedet	-10.6122
▁ministers	-10.6125
▁widely	-10.6126
▁Barack	-10.6129
▁strategies	-10.6129
▁behaupten	-10.6132
▁prospects	-10.6132
▁endorse	-10.614
▁absence	-10.6147
SV	-10.615
▁entfernt	-10.6157
▁Rechtsgrundlage	-10.6158
▁programs	-10.6162
▁Jahrhunderts	-10.6162
versorgung	-10.6163
▁Austria	-10.6164
▁vehicles	-10.6165
▁figure	-10.6165
▁Sarkozy	-10.6166
▁negotiating	-10.6166
▁parliament	-10.6173
▁Grundsätze	-10.6175
▁detail	-10.6176
▁Agrarpolitik	-10.6176
▁argue	-10.6177
▁Gespräche	-10.6179
▁Systems	-10.6184
▁weiteres	-10.6185
▁jeweiligen	-10.6191
▁Aktionen	-10.6194
bereich	-10.6203
▁wiederum	-10.621
▁green	-10.6213
ap	-10.6215
▁Widerstand	-10.6215
▁stands	-10.6221
▁John	-10.6222
▁investieren	-10.6225
▁g	-10.623
▁declaration	-10.6231
▁Prüfung	-10.6231
▁verstärken	-10.6232
▁whatever	-10.6234
▁unabhängig	-10.6236
▁promotion	-10.6242
▁ausgesprochen	-10.6243
▁Bestandteil	-10.6245
▁früher	-10.6245
▁works	-10.6247
▁Sollte	-10.625
▁eight	-10.6251
▁Without	-10.6252
▁gelangen	-10.6256
▁kurzem	-10.6257
tro	-10.6263
▁institutionelle	-10.6267
▁resolutions	-10.6268
▁grounds	-10.6268
▁starken	-10.627
▁Secretary	-10.627
▁running	-10.627
▁Palestinians	-10.6276
▁Krankheit	-10.6279
▁Stellung	-10.6279
▁depends	-10.6288
▁hauptsächlich	-10.6289
▁junge	-10.6291
ah	-10.6293
▁momentan	-10.6294
▁rail	-10.6298
▁erfahren	-10.6301
▁win	-10.6307
▁Begriff	-10.6308
▁Produktivität	-10.6308
▁emergency	-10.6309
▁focused	-10.6312
▁westlichen	-10.6313
ial	-10.632
▁Anforderungen	-10.632
▁globalisation	-10.6322
▁appreciate	-10.6325
▁saw	-10.6325
▁Vorbereitung	-10.6326
que	-10.6328
▁phase	-10.633
▁Außen	-10.6336
ben	-10.6336
fall	-10.6338
▁gehalten	-10.6339
▁manche	-10.6346
▁via	-10.6348
▁schwierigen	-10.6348
▁mehreren	-10.635
▁Agentur	-10.6354
▁Voraussetzung	-10.6355
▁Stand	-10.6363
▁Blair	-10.6365
▁Their	-10.6367
▁historical	-10.6371
pf	-10.638
▁Patienten	-10.6384
▁Entlastung	-10.6384
▁Rumänien	-10.6385
▁Tagung	-10.6385
▁inform	-10.6387
▁wiederholt	-10.6393
▁hervorheben	-10.6394
▁geraten	-10.6394
spräsidentschaft	-10.6395
▁deutschen	-10.6402
▁Bulgaria	-10.6403
▁Regierungschefs	-10.6403
▁recognised	-10.6404
▁funktionieren	-10.6409
▁Ex	-10.6411
▁Schlüssel	-10.6412
▁Serbia	-10.6422
▁barriers	-10.6422
▁Analyse	-10.6423
▁Vorschlägen	-10.6431
▁extra	-10.6432
▁Gleichgewicht	-10.6432
▁poorest	-10.6434
res	-10.6434
▁Anti	-10.6437
▁Produkt	-10.6438
▁Japanese	-10.644
▁verlangt	-10.6442
▁diplomatic	-10.6442
▁won	-10.6447
▁Investoren	-10.6449
▁multi	-10.6451
weg	-10.6457
▁See	-10.646
▁skills	-10.648
▁plenary	-10.6481
▁Sonder	-10.6483
om	-10.6486
▁exists	-10.6488
▁bemüht	-10.649
▁spricht	-10.6491
▁delighted	-10.6491
▁genannt	-10.6497
con	-10.6497
ising	-10.6504
▁operate	-10.6505
▁Stimmen	-10.6506
▁Mio	-10.6511
▁competence	-10.6511
richtlinie	-10.6513
ted	-10.6514
izing	-10.6515
▁threats	-10.6517
kosten	-10.6519
▁spoke	-10.6519
▁verhindert	-10.652
▁determined	-10.6521
▁Unterschied	-10.6527
▁manchmal	-10.6529
▁Österreich	-10.6529
▁Prinzipien	-10.653
preise	-10.6531
scale	-10.6532
▁passed	-10.6538
▁weitgehend	-10.6539
▁führte	-10.654
▁technische	-10.654
▁brief	-10.6541
▁situations	-10.6544
▁sexual	-10.6547
▁Erholung	-10.6549
▁respected	-10.6551
▁era	-10.6558
▁jegliche	-10.6561
▁pure	-10.6563
lichen	-10.6566
▁passiert	-10.6566
▁patent	-10.6568
▁weshalb	-10.6568
▁zuletzt	-10.6568
qui	-10.6569
▁Ent	-10.6573
▁reicht	-10.6575
▁digital	-10.6577
▁Mehr	-10.6578
▁Potenzial	-10.6578
▁legitimacy	-10.6578
▁primarily	-10.6588
▁net	-10.6589
▁Faktoren	-10.6592
▁betreffen	-10.6594
▁Nachbarn	-10.6596
▁Voraussetzungen	-10.6599
▁advance	-10.6603
▁angemessen	-10.6609
▁Structural	-10.6617
▁gestalten	-10.6617
produktion	-10.6618
▁Kontinent	-10.6619
▁patients	-10.6621
ium	-10.6624
▁Identität	-10.6627
▁Zwei	-10.663
▁compensation	-10.6637
▁latter	-10.6637
▁Straßen	-10.6637
▁restructuring	-10.6647
▁offered	-10.6649
zen	-10.6654
▁historic	-10.6654
▁Brasilien	-10.6657
▁tobacco	-10.6657
▁proposing	-10.6657
▁künftigen	-10.6661
▁entschlossen	-10.6665
▁Vorteil	-10.6666
▁abge	-10.6666
▁lay	-10.6669
▁representative	-10.6669
▁palästinensisch	-10.667
▁evaluation	-10.6676
▁Gericht	-10.6676
▁aussprechen	-10.6676
▁sovereignty	-10.6677
▁Religion	-10.6677
▁lag	-10.6677
gesellschaft	-10.668
ang	-10.6685
▁implications	-10.6686
▁Doha	-10.6687
▁effectiveness	-10.6687
▁Boden	-10.6688
▁Georgia	-10.6689
min	-10.6691
▁supposed	-10.6701
▁opposite	-10.6706
▁extended	-10.6707
ised	-10.671
▁diesbezüglich	-10.6712
▁reserves	-10.6717
▁playing	-10.6717
▁reflects	-10.6717
▁justified	-10.6718
▁published	-10.6719
▁demonstrate	-10.6723
▁technischen	-10.6724
▁eventually	-10.6727
▁wesentliche	-10.673
▁Internationalen	-10.6732
zi	-10.6735
▁Personal	-10.6735
▁Maastricht	-10.6746
▁leads	-10.6746
▁determine	-10.675
▁meant	-10.6753
▁Funds	-10.6754
▁Tibet	-10.6754
▁subsidiarity	-10.6756
▁einzigen	-10.6756
steuer	-10.6757
▁described	-10.6758
isten	-10.6761
▁scheme	-10.6769
stellen	-10.6774
time	-10.678
▁losses	-10.6784
politischen	-10.6785
▁neben	-10.6788
▁suchen	-10.679
▁drive	-10.6796
▁voraus	-10.6796
ish	-10.6798
▁Einheit	-10.6799
war	-10.68
▁Nizza	-10.6809
▁prepare	-10.681
▁mistake	-10.6811
▁concluded	-10.6815
▁studies	-10.6816
▁KMU	-10.682
▁Deswegen	-10.6826
▁Verbesserungen	-10.6826
▁Studie	-10.6828
▁führende	-10.6831
▁Czech	-10.6836
▁Or	-10.6837
▁arguments	-10.6837
▁Just	-10.6837
▁function	-10.6841
▁abgestimmt	-10.6846
▁lernen	-10.6846
▁gezogen	-10.6846
▁Definition	-10.6847
▁heutige	-10.6847
▁Mitgliedern	-10.6849
▁Van	-10.685
▁obligation	-10.685
▁musste	-10.6851
▁resolved	-10.6855
▁Kandidaten	-10.6855
▁cooperate	-10.6856
▁corporate	-10.6856
▁Under	-10.6856
▁His	-10.6865
▁großes	-10.6866
form	-10.687
▁examples	-10.6873
▁Maß	-10.688
▁Balkan	-10.6883
▁kämpfen	-10.6886
▁bezeichnet	-10.6887
schaftliche	-10.6889
▁deeply	-10.6894
▁adapt	-10.6894
▁Sudan	-10.6896
▁schafft	-10.6896
▁Normen	-10.6896
▁tool	-10.6912
▁mid	-10.6916
▁tools	-10.6916
▁options	-10.6919
▁Are	-10.6922
▁allgemein	-10.6922
▁Dienstleistungs	-10.6924
▁asset	-10.6926
▁Konflikte	-10.6926
▁somewhat	-10.6926
▁understood	-10.6926
▁strict	-10.6928
▁Me	-10.6932
▁holding	-10.6933
▁NGOs	-10.6935
▁protected	-10.694
▁Menschenrecht	-10.6948
▁tasks	-10.6948
ca	-10.6948
▁hundreds	-10.6948
▁entwickelten	-10.6949
▁Wissenschaft	-10.695
▁globalization	-10.6951
▁öffentlich	-10.6953
▁steigen	-10.6954
▁Ansichten	-10.6955
▁wait	-10.6957
▁February	-10.6959
▁Gefahren	-10.6964
▁numerous	-10.6967
▁Women	-10.6967
▁ca	-10.6975
igkeit	-10.6976
▁peoples	-10.6986
▁battle	-10.6987
▁verlangen	-10.6987
▁absurd	-10.6987
▁promised	-10.6993
▁afford	-10.6999
▁keeping	-10.7007
▁dependent	-10.7013
▁nachhaltigen	-10.7015
▁Vietnam	-10.7017
▁Inter	-10.7018
▁AKP	-10.7018
▁Luft	-10.7018
▁Gesellschaften	-10.7018
fi	-10.7022
▁comply	-10.7025
▁angemessene	-10.7029
▁müsste	-10.703
▁contain	-10.7033
▁maximum	-10.7038
▁Macron	-10.7038
▁zahlreichen	-10.7042
▁größer	-10.7042
▁Gerichtshof	-10.7044
▁begrüßt	-10.7049
wirtschaft	-10.7052
one	-10.7053
arbeit	-10.7054
▁Vice	-10.7056
▁verändert	-10.7057
▁feed	-10.7057
▁driving	-10.7059
▁allows	-10.7071
▁prospect	-10.7075
▁housing	-10.709
▁möglichen	-10.7096
▁Programms	-10.7102
▁mussten	-10.7106
▁suggests	-10.7118
▁bezieht	-10.7119
▁urgently	-10.7121
▁Staates	-10.7122
▁jüngste	-10.7128
▁tourism	-10.7129
▁Mexico	-10.7134
▁Rück	-10.7135
▁inadequate	-10.7141
▁judicial	-10.7141
▁yes	-10.7142
▁abzu	-10.7143
▁Zuständigkeit	-10.7144
▁wirksam	-10.7144
end	-10.7144
bau	-10.7145
j	-10.715
unsten	-10.7153
▁cancer	-10.7155
gel	-10.7161
▁zentrale	-10.7162
▁written	-10.7162
▁wage	-10.7166
▁guaranteed	-10.717
▁resulting	-10.7171
▁assume	-10.7174
▁stocks	-10.7176
▁Verhandlungs	-10.7178
▁konfrontiert	-10.7183
▁wenigen	-10.7187
gehen	-10.7188
▁Tiere	-10.7195
▁langsam	-10.7196
▁gewählt	-10.7196
▁sieben	-10.7198
▁Abend	-10.7199
▁französische	-10.7202
▁allzu	-10.7203
▁menschliche	-10.7205
▁Jugend	-10.7206
▁herrscht	-10.721
▁Arbeitsplätzen	-10.721
▁Budgets	-10.7211
▁Teile	-10.7211
▁maritime	-10.7214
▁ausländische	-10.7217
▁Übereinkommen	-10.722
▁Angebot	-10.7224
line	-10.7225
ou	-10.7226
▁destroy	-10.7227
▁Agrar	-10.7228
▁OECD	-10.7228
▁Vorstellung	-10.7229
▁remarks	-10.7241
▁fine	-10.7251
▁united	-10.7252
▁Rest	-10.7252
▁Uhr	-10.7256
▁purposes	-10.7258
▁letzter	-10.7264
▁center	-10.7267
▁zug	-10.7267
▁Einstellung	-10.727
▁organizations	-10.7274
▁felt	-10.7277
pro	-10.7278
▁bonds	-10.7278
▁processes	-10.7281
wert	-10.7284
präsident	-10.7285
▁beigetragen	-10.7287
▁unlikely	-10.729
▁Ausland	-10.7291
▁Beispiele	-10.7292
▁unterzeichnet	-10.7299
▁decisive	-10.7303
▁smaller	-10.7307
▁harmonisation	-10.7308
▁city	-10.7313
▁Mir	-10.7313
▁proceed	-10.7319
▁heavy	-10.7319
▁hängt	-10.7319
▁acht	-10.7319
▁protest	-10.7323
▁Nord	-10.7326
▁Assembly	-10.7329
▁danach	-10.733
▁komme	-10.7332
▁promise	-10.7332
▁widespread	-10.734
▁Vermittlung	-10.734
▁beruht	-10.734
▁Arten	-10.7347
zusammenarbeiten	-10.7348
▁Firmen	-10.7349
isierung	-10.7359
▁ideal	-10.736
▁owing	-10.7361
▁defense	-10.7364
▁assure	-10.7366
▁teile	-10.7366
▁abuse	-10.7369
▁condition	-10.7369
▁bewältigen	-10.7372
▁PSE	-10.7382
▁functioning	-10.7387
▁unmittelbar	-10.7388
akt	-10.739
▁White	-10.7393
▁confirm	-10.7393
▁Fischer	-10.7395
▁Jeder	-10.74
frage	-10.74
▁Wiederaufbau	-10.7403
▁victory	-10.7404
▁trotzdem	-10.7404
▁Bild	-10.7406
▁expensive	-10.7414
▁Burma	-10.7414
▁Action	-10.7415
▁agency	-10.7425
▁oral	-10.7429
▁glad	-10.743
▁severe	-10.743
▁loans	-10.7434
ex	-10.7434
▁nunmehr	-10.7435
▁requirement	-10.7436
▁She	-10.7438
▁langfristigen	-10.744
▁Lastly	-10.7445
▁notwendige	-10.7448
▁Beschluss	-10.7453
▁wiederholen	-10.7455
▁Baltic	-10.7458
▁Iranian	-10.7458
▁evening	-10.7463
▁Haushalte	-10.7465
▁Con	-10.7465
▁recognize	-10.7466
▁Stellen	-10.7468
▁languages	-10.747
▁Empfehlung	-10.7471
▁story	-10.7472
▁existence	-10.7477
▁anwesend	-10.7478
▁proposes	-10.7479
▁El	-10.7481
▁Schwerpunkt	-10.7484
▁numbers	-10.7484
▁voluntary	-10.7489
▁tend	-10.7489
Strategie	-10.7492
▁laut	-10.7495
▁Legal	-10.75
▁Similarly	-10.75
▁künftige	-10.7501
▁oppose	-10.7504
▁Kurs	-10.7507
▁Subsidiarität	-10.751
▁quantitative	-10.751
▁ACP	-10.7511
▁ergeben	-10.7519
▁übernommen	-10.7521
▁Auditors	-10.7521
▁recommendation	-10.7521
▁weltweite	-10.7524
▁insist	-10.7527
▁folgende	-10.7527
▁finding	-10.7531
▁Antworten	-10.7537
▁schools	-10.754
▁game	-10.7542
▁Bedarf	-10.7542
▁uncertainty	-10.7543
▁intellectual	-10.7543
▁awareness	-10.7545
▁payment	-10.7546
▁schneller	-10.7547
▁höheren	-10.7549
▁revision	-10.7554
▁Signal	-10.7554
▁noted	-10.7556
▁Je	-10.7563
▁Kollegin	-10.7564
▁electronic	-10.7564
▁inclusion	-10.7564
▁learning	-10.7567
▁students	-10.7569
ör	-10.7573
▁Hohen	-10.7578
▁beschäftigt	-10.758
▁links	-10.7582
▁secret	-10.7585
▁destruction	-10.7586
▁occasion	-10.7586
▁clean	-10.7587
▁Besuch	-10.7591
▁Drittel	-10.7597
enden	-10.76
▁version	-10.7601
▁bemühen	-10.7607
▁Konsequenzen	-10.7608
▁Systeme	-10.761
▁Mindest	-10.7618
▁planned	-10.7619
▁bislang	-10.762
▁Regel	-10.7621
▁Dienste	-10.7622
▁trifft	-10.7629
▁umfassenden	-10.763
▁Socialist	-10.7631
▁obstacles	-10.7637
▁eingereicht	-10.7637
▁warming	-10.7637
▁geschützt	-10.764
▁abstimmen	-10.764
▁Resolution	-10.7644
▁persons	-10.7645
▁tätig	-10.7647
ssystem	-10.7652
▁blame	-10.7655
▁bit	-10.7658
▁rational	-10.7661
▁parallel	-10.7662
▁ziemlich	-10.7662
▁Mitte	-10.7664
▁personally	-10.7665
▁Sektoren	-10.7667
related	-10.7667
▁brings	-10.7672
▁realistic	-10.7673
▁Bo	-10.7674
▁promises	-10.7674
▁gutes	-10.7678
▁apart	-10.768
▁Überlegungen	-10.7682
▁profits	-10.7684
▁bound	-10.7686
▁deaths	-10.7691
▁allocated	-10.7696
▁Vision	-10.7699
▁expansion	-10.77
▁Sp	-10.7701
▁geschlossen	-10.7703
▁experienced	-10.7704
ng	-10.7704
▁replace	-10.7709
▁vorgeschlagene	-10.771
▁please	-10.7711
fragen	-10.7714
▁types	-10.7715
▁Strom	-10.7716
▁erfolgt	-10.7716
▁entry	-10.7717
▁friends	-10.7721
▁approve	-10.7721
▁vieler	-10.7723
▁host	-10.7727
▁behavior	-10.7727
▁Schwellenländer	-10.7729
▁richten	-10.773
▁Sa	-10.7734
▁mark	-10.7734
▁firmly	-10.7735
▁coalition	-10.7738
▁statistics	-10.7745
▁ernsthaft	-10.7746
▁Lebanon	-10.7749
▁arabischen	-10.7751
▁soft	-10.7753
▁wages	-10.7753
▁welcomed	-10.7758
▁Front	-10.776
▁dignity	-10.776
▁valuable	-10.776
isieren	-10.7761
▁surely	-10.7763
▁substance	-10.7773
▁solches	-10.7774
▁compliance	-10.7775
▁verteidigen	-10.7782
▁dynamic	-10.7784
▁saving	-10.7786
▁flows	-10.7792
▁menschlichen	-10.7792
▁guter	-10.7792
▁disasters	-10.7796
▁selten	-10.7804
▁Mandat	-10.7805
▁erleben	-10.7807
ator	-10.7811
▁prime	-10.7813
▁condemn	-10.7814
▁Charakter	-10.7815
▁Strasbourg	-10.7815
▁Vorausschau	-10.7815
▁killed	-10.782
▁Widerspruch	-10.7826
durchschnittlich	-10.7827
▁Anreize	-10.7827
▁daily	-10.7828
▁army	-10.7828
▁Punkten	-10.783
▁aufzunehmen	-10.783
eren	-10.7832
lu	-10.784
▁zahlen	-10.7847
▁occasions	-10.7848
▁suffered	-10.7848
▁restore	-10.7856
▁ordinary	-10.786
▁sought	-10.786
▁dankbar	-10.786
▁Unternehmens	-10.7862
▁declared	-10.7863
ious	-10.7867
▁preventing	-10.7871
▁southern	-10.7871
▁früheren	-10.7882
tri	-10.7882
▁estimated	-10.7884
▁Wissenschaftler	-10.7885
log	-10.7885
▁langfristig	-10.7886
▁Schuld	-10.7894
▁sonst	-10.7901
▁müssten	-10.7902
▁Methode	-10.7905
▁Se	-10.7908
▁Generation	-10.791
▁stärkere	-10.7915
▁Gleichstellung	-10.7916
▁summer	-10.7916
▁Mittelpunkt	-10.7917
TON	-10.7917
▁Ägypten	-10.7919
▁Vorschlags	-10.792
▁informiert	-10.7925
▁Übrigen	-10.7927
▁someone	-10.7932
▁vorhanden	-10.7936
▁gefährdet	-10.7937
▁undoubtedly	-10.7938
▁Paket	-10.7942
▁übertragen	-10.7942
▁Andere	-10.7946
▁verstanden	-10.7949
▁Fundamental	-10.7964
▁addressing	-10.7966
▁letter	-10.7967
▁Person	-10.7971
▁Festlegung	-10.7972
▁involves	-10.7973
▁alte	-10.7978
▁Grenze	-10.798
ib	-10.7982
old	-10.7987
▁teilen	-10.7989
▁briefly	-10.7989
▁Würde	-10.799
▁identify	-10.7992
▁Ablehnung	-10.7994
red	-10.7995
▁facts	-10.7996
▁Elemente	-10.7999
sehen	-10.8001
▁bestehende	-10.8002
▁impression	-10.8005
▁aufgefordert	-10.8005
▁suggested	-10.8007
▁vorgenommen	-10.8008
▁plants	-10.8008
▁engage	-10.801
▁cars	-10.8011
▁lessons	-10.8011
▁Vorsitz	-10.8014
▁deutsche	-10.8015
▁possibly	-10.8017
▁Konsum	-10.8021
▁Israelis	-10.8022
▁mögliche	-10.8024
▁Insbesondere	-10.8028
▁Wird	-10.8033
▁besonderen	-10.8033
▁zone	-10.8034
▁maintaining	-10.8048
▁Croatia	-10.805
▁Labour	-10.805
tu	-10.8054
▁courage	-10.8061
▁Agriculture	-10.8062
▁entweder	-10.8062
▁Vorhaben	-10.8062
▁Einbeziehung	-10.8062
▁broader	-10.8066
▁opinions	-10.8067
▁Po	-10.8067
▁realise	-10.807
▁examine	-10.8071
▁television	-10.8073
▁sustainability	-10.8074
stra	-10.8075
▁reflected	-10.8075
▁Übergang	-10.8075
▁imagine	-10.8078
▁verursacht	-10.808
▁usually	-10.8089
▁EC	-10.81
▁electoral	-10.8107
▁contracts	-10.8109
▁Katastrophen	-10.8112
▁Tod	-10.8114
▁Herzen	-10.8114
▁Report	-10.8117
▁sofort	-10.8118
▁unique	-10.8119
▁lokalen	-10.8123
▁Palästinenser	-10.8127
▁candidates	-10.8129
▁besorgt	-10.813
▁operating	-10.813
▁welchen	-10.8132
▁uneingeschränkt	-10.8132
▁Befugnisse	-10.8132
▁committees	-10.8132
▁Ko	-10.8134
▁Laufe	-10.8135
▁entsprechen	-10.8135
▁la	-10.8136
so	-10.8136
▁contained	-10.8139
▁humanitäre	-10.8139
fa	-10.8142
▁Darum	-10.8143
▁issued	-10.8151
▁forthcoming	-10.8153
▁undermine	-10.8153
x	-10.8154
lage	-10.8155
▁exception	-10.8156
▁Methoden	-10.8157
▁Ombudsman	-10.8164
▁erinnert	-10.8164
▁Yes	-10.8167
▁careful	-10.8171
▁finanziert	-10.8172
▁Kontrollen	-10.8172
▁proportion	-10.8175
▁Kopenhagen	-10.8176
▁preparing	-10.8176
▁erscheinen	-10.8176
all	-10.8178
▁shape	-10.8181
▁Formen	-10.8182
of	-10.8185
▁Energien	-10.8189
▁Februar	-10.8196
▁benötigt	-10.8197
▁raising	-10.8201
▁freedoms	-10.8203
▁Studien	-10.8209
▁Umgang	-10.8211
▁import	-10.8211
▁assist	-10.8216
▁England	-10.8222
▁senken	-10.8222
▁Zinsen	-10.8224
▁strategische	-10.8232
▁Mobilität	-10.8234
macht	-10.8235
▁Faktor	-10.8241
▁strengthened	-10.8244
▁leaving	-10.8245
▁ähnliche	-10.8247
ierte	-10.8248
▁Drittländern	-10.8248
▁vorliegende	-10.8249
▁healthy	-10.8252
▁Versprechen	-10.8257
▁Northern	-10.8259
▁jemand	-10.8262
wide	-10.8266
▁Rückgang	-10.8268
▁dritten	-10.8269
▁Experten	-10.8275
▁Dienst	-10.8275
▁Where	-10.828
▁Depression	-10.828
sträger	-10.8285
▁schwierige	-10.8285
weit	-10.8291
▁Meanwhile	-10.8291
▁Taliban	-10.8291
▁details	-10.8293
Berücksichtigung	-10.83
▁assess	-10.8304
▁visa	-10.8304
▁previously	-10.8308
▁violations	-10.8309
sweise	-10.8309
▁customs	-10.8314
▁trillion	-10.8315
▁verfügbar	-10.8315
▁fewer	-10.8318
▁coherent	-10.8321
verfahren	-10.8323
▁players	-10.8326
▁Gerechtigkeit	-10.8326
▁advice	-10.8326
▁Georgien	-10.8326
▁relates	-10.833
▁penalty	-10.8338
▁Konvent	-10.8345
▁reaction	-10.8346
▁Armee	-10.8347
▁Senkung	-10.835
▁Co	-10.8353
▁constantly	-10.8354
▁troops	-10.8355
▁entitled	-10.8361
▁moderate	-10.8363
▁Argument	-10.8367
Mitgliedstaaten	-10.8368
▁treat	-10.8369
▁letztendlich	-10.8373
▁spoken	-10.8373
gu	-10.8383
▁budgets	-10.8384
▁Framework	-10.8385
▁Todesstrafe	-10.8385
▁coordinated	-10.8388
▁beteiligen	-10.8396
▁Anlass	-10.8396
▁Patten	-10.8397
▁stake	-10.8398
▁falling	-10.84
len	-10.8401
▁combined	-10.8401
▁economists	-10.8405
▁sichern	-10.8411
▁openness	-10.8412
▁precise	-10.8414
▁Like	-10.842
▁considering	-10.8421
▁kulturellen	-10.8421
▁acknowledge	-10.8421
▁Ob	-10.8422
▁surplus	-10.8426
les	-10.8426
▁Two	-10.8432
fr	-10.8435
▁wollten	-10.8446
▁einbezogen	-10.8453
▁sum	-10.8453
▁users	-10.8454
▁bedroht	-10.8455
▁nachdrücklich	-10.8455
▁percentage	-10.8455
ct	-10.8456
▁Does	-10.8456
▁Act	-10.8459
▁Reduzierung	-10.8467
▁enorm	-10.8467
▁define	-10.847
▁Erst	-10.8472
▁represented	-10.8473
▁Growth	-10.8479
▁ferner	-10.8484
ja	-10.8487
▁labelling	-10.8487
▁schlägt	-10.8494
▁Constitutional	-10.8496
lin	-10.85
▁zukünftige	-10.8501
▁territorial	-10.8503
▁Debatten	-10.851
▁answers	-10.8511
legen	-10.8514
▁Bereitschaft	-10.8514
▁class	-10.8516
▁complicated	-10.8516
▁restrict	-10.8517
▁attempts	-10.8522
ufgrund	-10.8525
▁sugar	-10.8526
▁Food	-10.8526
▁abroad	-10.8527
▁höchst	-10.8529
ite	-10.853
▁grundsätzlich	-10.8533
programm	-10.8534
▁amongst	-10.8534
▁Beschlüsse	-10.8537
▁track	-10.8543
▁meat	-10.8547
▁enjoy	-10.855
▁drawing	-10.8555
▁überein	-10.8557
▁Kommunikation	-10.8559
▁significance	-10.8562
EU	-10.8563
▁Renten	-10.8566
abkommen	-10.857
▁angesehen	-10.857
▁Ziffer	-10.8573
▁Redner	-10.8573
▁code	-10.8574
▁waiting	-10.8577
▁terrorists	-10.8578
▁bedeutende	-10.8579
▁Beziehung	-10.8583
▁shadow	-10.8586
▁successfully	-10.8591
▁zulassen	-10.8592
▁species	-10.8598
▁Zinssätze	-10.8598
▁legt	-10.8606
▁Pen	-10.861
▁equipment	-10.861
▁Post	-10.8624
▁enhance	-10.8625
▁Geldpolitik	-10.8626
▁mobile	-10.8626
▁weight	-10.863
▁Vereinbarungen	-10.8631
▁allies	-10.8632
▁Di	-10.8634
▁Hussein	-10.8634
ence	-10.8636
▁reported	-10.864
▁port	-10.8643
▁Forum	-10.8643
▁explanation	-10.8644
▁output	-10.8649
▁breite	-10.8652
▁farming	-10.8655
▁derart	-10.8656
▁beziehen	-10.8657
▁achten	-10.866
▁Ca	-10.8667
▁oben	-10.8668
▁iranische	-10.867
▁gewährt	-10.8671
▁Communist	-10.8674
▁religion	-10.868
▁Kontroll	-10.8682
▁Donald	-10.8694
▁interessiert	-10.8694
▁tragic	-10.8694
▁anschließen	-10.8701
▁confirmed	-10.8703
▁difficulty	-10.8705
▁geehrte	-10.8715
▁contact	-10.8717
▁Emissionen	-10.8718
▁Wesentlichen	-10.8718
▁Protocol	-10.8718
▁materials	-10.8719
▁faith	-10.8721
ek	-10.8729
▁Seine	-10.8731
▁Liberal	-10.8737
President	-10.8738
▁Zypern	-10.8754
▁Investment	-10.8754
▁gestärkt	-10.8755
▁stance	-10.8755
▁Städte	-10.8759
▁jenen	-10.8762
▁Bewegung	-10.8763
▁reduzieren	-10.8767
▁Freiheiten	-10.8769
▁Terroristen	-10.8772
▁zählen	-10.8773
▁regular	-10.8773
▁wachsende	-10.8776
▁U	-10.8777
▁neighbor	-10.8785
General	-10.8787
▁Mitarbeiter	-10.8788
▁Respekt	-10.8791
▁mal	-10.8792
▁militärischen	-10.8793
▁gains	-10.8794
▁Politiken	-10.8795
OND	-10.8795
▁coal	-10.8798
▁erfordern	-10.8803
▁übrigens	-10.8804
▁Abkommens	-10.8812
▁ausgezeichneten	-10.8813
stehen	-10.8815
▁ansprechen	-10.8816
ni	-10.8817
▁überzeugen	-10.8824
▁verringert	-10.8828
▁Finanzielle	-10.8828
▁Zusammenbruch	-10.8828
▁bildet	-10.8828
▁offenbar	-10.8837
▁Terror	-10.8839
▁Luxembourg	-10.884
▁urgency	-10.884
▁Rule	-10.8841
▁EG	-10.8843
▁youth	-10.8845
▁Kim	-10.8846
▁surprise	-10.8846
▁derzeitige	-10.8848
▁profit	-10.8849
▁Marktes	-10.8851
▁models	-10.8852
▁anbelangt	-10.8852
▁verwenden	-10.8852
▁ruling	-10.8852
▁contributed	-10.8855
▁favor	-10.8856
▁remaining	-10.8857
si	-10.8862
▁none	-10.8863
▁necessarily	-10.8865
▁Argumente	-10.8866
hi	-10.8866
▁unterstreichen	-10.8868
▁couple	-10.8875
▁erwiesen	-10.8876
▁Andererseits	-10.8877
▁Finland	-10.8877
▁Weltbank	-10.888
hand	-10.8885
▁trans	-10.8885
▁quotas	-10.8888
che	-10.8889
▁twenty	-10.8889
▁Steuerzahler	-10.8889
▁beträchtliche	-10.889
▁Arbeitsplatz	-10.8895
▁ausgezeichnete	-10.8896
▁beschäftigen	-10.8902
▁credible	-10.8902
▁picture	-10.8902
▁Menschenrechts	-10.8905
▁Haushaltsplan	-10.8908
▁strategischen	-10.8912
▁Presse	-10.8912
sbedingungen	-10.8912
▁Defizit	-10.8913
ga	-10.8916
▁Dadurch	-10.8917
▁hopes	-10.8917
▁Ungleichheit	-10.8924
▁finanzieren	-10.8926
▁Umfeld	-10.8928
▁Geist	-10.8931
▁paying	-10.8931
▁release	-10.8933
▁solange	-10.8939
state	-10.8939
▁ange	-10.8941
institutionellen	-10.8946
▁knapp	-10.8951
▁aggressive	-10.8951
▁armed	-10.8952
▁timetable	-10.8953
▁politisches	-10.8956
▁Hindernisse	-10.8956
▁migrants	-10.8974
▁tragedy	-10.8976
▁zero	-10.8976
▁überwinden	-10.8976
▁greenhouse	-10.8976
Staaten	-10.898
▁team	-10.898
▁Kon	-10.8982
halten	-10.8986
▁clarify	-10.8988
▁umsetzen	-10.8988
▁clause	-10.8989
▁divided	-10.8994
▁einzusetzen	-10.8995
▁Abhängigkeit	-10.9001
▁Mexiko	-10.9001
▁fire	-10.9002
▁Lateinamerika	-10.9004
▁wünsche	-10.9009
▁Laut	-10.9009
▁entstanden	-10.9009
▁Währungsunion	-10.9013
za	-10.9014
▁recall	-10.9018
▁Verlust	-10.9019
▁Gemeinsame	-10.9019
▁Christian	-10.9021
▁eingegangen	-10.9022
rum	-10.9025
▁nevertheless	-10.9026
▁background	-10.9026
BRI	-10.9026
bel	-10.9031
▁veröffentlicht	-10.9032
▁armen	-10.9034
▁prior	-10.9037
▁Abschaffung	-10.9038
▁Pläne	-10.9039
▁Kredite	-10.904
▁effektiv	-10.9043
▁Any	-10.9049
▁prefer	-10.905
▁m	-10.905
▁Ungarn	-10.9051
▁Cuba	-10.9052
▁Malta	-10.9053
▁exclusion	-10.9063
▁listen	-10.9069
▁passengers	-10.907
▁federal	-10.9073
▁voran	-10.9074
▁conducted	-10.9075
▁extension	-10.9076
▁zugrunde	-10.9076
sstrategie	-10.9076
▁fuels	-10.9077
▁Du	-10.9078
▁believes	-10.908
▁charge	-10.9085
▁bedauerlich	-10.9088
▁Hungary	-10.9088
▁Treaties	-10.9088
▁Großteil	-10.9089
▁flow	-10.9091
▁perfectly	-10.9093
▁eingehalten	-10.9098
▁Ursachen	-10.9098
Bericht	-10.9098
▁producing	-10.9098
▁Akteure	-10.9099
▁austerity	-10.9101
▁Männern	-10.9103
▁taxpayers	-10.9104
▁differ	-10.9105
▁minutes	-10.9107
▁maintained	-10.911
▁stimulus	-10.9114
▁regarded	-10.9114
▁geprüft	-10.9114
▁actively	-10.9115
▁prison	-10.9115
▁Leistungen	-10.9118
▁offenen	-10.9123
▁dollars	-10.9125
▁spezielle	-10.9127
▁greatly	-10.9129
▁meaning	-10.913
▁ill	-10.9133
▁Eisenbahn	-10.9133
isiert	-10.9135
▁End	-10.914
▁gegenwärtige	-10.914
▁turning	-10.9141
▁welcher	-10.9145
▁Forschungs	-10.9151
▁gewissen	-10.9151
▁stay	-10.9156
▁fulfil	-10.9161
▁book	-10.9162
▁Fa	-10.9162
▁Entwicklungs	-10.9164
▁Intervention	-10.9165
▁Zustand	-10.9166
▁opened	-10.9166
▁blind	-10.9177
▁seemed	-10.9179
las	-10.9181
cha	-10.9182
▁economically	-10.9187
▁Veränderung	-10.9189
▁resistance	-10.919
▁Bauern	-10.9191
▁beschränken	-10.9192
▁andererseits	-10.9202
▁begrenzt	-10.9209
▁constitute	-10.9212
▁essentially	-10.9213
iger	-10.9215
▁Polish	-10.9215
▁spreche	-10.9215
▁Unsicherheit	-10.9216
▁eye	-10.9219
▁w	-10.9219
▁Commissioners	-10.9222
▁generations	-10.9223
▁Journalisten	-10.9226
▁operators	-10.9227
▁wine	-10.9228
▁remove	-10.9234
▁Umweltschutz	-10.9239
▁remained	-10.9241
▁Aktionsplan	-10.9241
▁count	-10.9244
▁populations	-10.9245
▁genannte	-10.9246
▁requested	-10.9253
▁garantiert	-10.9253
▁identified	-10.9253
wei	-10.9264
▁admit	-10.9266
▁Schicksal	-10.9266
▁conciliation	-10.9266
▁occur	-10.9269
▁concentrate	-10.9273
last	-10.9277
▁operational	-10.9278
▁Straßburg	-10.9279
▁Venezuela	-10.9279
▁definiert	-10.9279
▁beinahe	-10.928
Regierung	-10.928
tal	-10.9283
▁Jahrzehnt	-10.9283
▁zusätzlichen	-10.9284
▁erwähnen	-10.9284
▁Strukturen	-10.9285
▁wahr	-10.9289
▁schlechte	-10.9291
▁dient	-10.9292
▁derartigen	-10.9293
▁durchzuführen	-10.9294
▁revenue	-10.9295
▁faster	-10.9297
▁undertaken	-10.93
▁Beide	-10.9303
▁Urteil	-10.9304
▁Sieg	-10.9317
▁ausgerichtet	-10.9317
sstaatlichkeit	-10.9325
▁Mu	-10.9328
▁Having	-10.933
▁versichern	-10.933
har	-10.9333
▁encouraged	-10.9335
▁seeing	-10.9339
▁echten	-10.9341
▁Ausweitung	-10.9343
▁Bürokratie	-10.9343
▁angeblich	-10.9343
▁Perspektive	-10.9346
og	-10.9348
▁wirksame	-10.9349
▁boom	-10.935
▁justify	-10.9354
DGE	-10.9356
▁CAM	-10.9356
▁retain	-10.936
▁verändern	-10.9361
DA	-10.9363
▁Angaben	-10.9365
▁Einrichtungen	-10.9367
▁Sommer	-10.9369
▁Argentina	-10.9369
▁duties	-10.9369
▁Zoll	-10.9369
▁check	-10.937
▁journalists	-10.9375
▁deals	-10.9375
▁modernen	-10.9378
▁scientists	-10.9381
▁Kuba	-10.9382
▁commit	-10.9383
▁rely	-10.9383
▁Krieges	-10.9383
▁sozialer	-10.9392
▁Neben	-10.9393
▁Übereinstimmung	-10.9395
▁umfasst	-10.9395
▁Gang	-10.9396
▁langen	-10.9397
▁Wettbewerbs	-10.9398
▁reaching	-10.9398
▁wirkliche	-10.9399
▁Produktions	-10.9403
▁fruit	-10.9405
▁fields	-10.9405
▁demanding	-10.9407
▁session	-10.9408
▁Verbreitung	-10.9408
▁courts	-10.941
▁determination	-10.9411
▁sell	-10.9412
▁launch	-10.9412
▁Arabia	-10.9418
▁befürworten	-10.9421
▁Libya	-10.9424
▁Allgemeinen	-10.9424
▁jetzigen	-10.9433
▁wann	-10.9434
ip	-10.9437
ect	-10.9442
▁spring	-10.9443
▁Mitgliedschaft	-10.9443
▁reagiert	-10.9443
▁Ho	-10.9444
▁Ratifizierung	-10.9448
▁willingness	-10.9448
▁red	-10.945
▁ports	-10.945
svorschlag	-10.9453
▁heading	-10.9456
▁Patent	-10.9456
▁Alliance	-10.946
▁everywhere	-10.946
krise	-10.9465
▁legally	-10.947
▁irgendeine	-10.9472
we	-10.9472
▁manufacturing	-10.9473
▁höchste	-10.9473
free	-10.9477
lang	-10.948
▁gestiegen	-10.9481
▁OLAF	-10.9486
▁verdienen	-10.9486
▁wonach	-10.9487
ability	-10.9488
▁search	-10.9488
▁investigation	-10.9491
▁Other	-10.9492
▁Then	-10.9493
▁mündliche	-10.9497
▁Portuguese	-10.9499
▁Rückkehr	-10.9499
setzung	-10.9502
▁Its	-10.9503
wesen	-10.9503
▁kulturelle	-10.951
▁verleihen	-10.9512
▁occurred	-10.9512
▁verboten	-10.9512
ue	-10.9517
▁konzentriert	-10.9521
▁bestimmen	-10.9522
▁follows	-10.9523
▁gelegt	-10.9524
▁repeatedly	-10.953
▁Aktion	-10.9531
▁Zielen	-10.9536
▁bereitgestellt	-10.9539
▁erweisen	-10.954
▁Hong	-10.954
▁quo	-10.9546
▁compete	-10.9551
▁violent	-10.9551
▁Denmark	-10.9552
▁klaren	-10.9556
▁unabhängige	-10.9556
dienst	-10.9563
▁creates	-10.9565
▁vorzulegen	-10.9569
▁Freude	-10.9578
▁insufficient	-10.9578
▁prisoners	-10.9579
▁Ru	-10.9589
▁Glück	-10.9591
schen	-10.9592
▁Iraqi	-10.9594
▁betreffenden	-10.9596
▁association	-10.9597
▁introducing	-10.9606
▁gemein	-10.9612
ari	-10.9613
▁achievement	-10.9615
▁underlying	-10.9618
▁resource	-10.9625
▁offene	-10.963
▁Freizügigkeit	-10.9631
▁pace	-10.9631
▁dispute	-10.9631
▁Mittelmeer	-10.9632
▁geprägt	-10.9633
▁Element	-10.9634
eh	-10.9637
▁house	-10.9638
va	-10.9644
ei	-10.965
▁Bulgarien	-10.9651
▁faces	-10.9652
▁extensive	-10.9652
▁einzuführen	-10.9654
▁eyes	-10.9654
verkehr	-10.9656
▁gefährlich	-10.9656
▁debating	-10.9657
▁deserves	-10.9659
▁sogenannte	-10.9659
politische	-10.966
▁blood	-10.9662
▁design	-10.9665
▁physical	-10.9665
▁frage	-10.9667
▁sport	-10.9668
▁accidents	-10.9668
▁folgenden	-10.9669
▁refugee	-10.967
▁Nonetheless	-10.9671
▁choices	-10.9675
▁affects	-10.9678
▁theory	-10.9681
▁Kong	-10.9683
▁fishermen	-10.9684
▁reliable	-10.9684
▁enforcement	-10.9684
▁planet	-10.9689
▁Hungarian	-10.9689
▁topic	-10.969
▁zuständigen	-10.9693
▁chosen	-10.9694
ew	-10.9696
▁Beobachter	-10.9696
▁medicines	-10.9698
mann	-10.97
▁moved	-10.9702
▁ungefähr	-10.9707
ür	-10.9708
▁Größe	-10.9711
▁Lohn	-10.9711
▁anzunehmen	-10.9711
über	-10.9711
▁konkret	-10.9723
▁geregelt	-10.9724
▁lesson	-10.9727
▁Betracht	-10.9727
▁emerged	-10.9729
▁Wieder	-10.9731
▁läuft	-10.9733
lä	-10.9734
▁convergence	-10.9738
▁mangelnde	-10.9738
▁Dafür	-10.9738
▁effektive	-10.9739
▁stelle	-10.974
▁Bedürfnisse	-10.9743
▁Dr	-10.9743
▁proceedings	-10.9744
▁negotiation	-10.9745
▁appropriations	-10.9746
▁Genau	-10.9751
▁phenomenon	-10.9751
▁Austausch	-10.9751
ivilgesellschaft	-10.9752
▁Tradition	-10.9752
▁Beteiligten	-10.9754
▁art	-10.9756
▁trial	-10.976
▁bestätigen	-10.9764
▁qualified	-10.9764
▁whereas	-10.9774
▁Auto	-10.9774
▁sorgfältig	-10.9774
▁failing	-10.9777
▁einheitlichen	-10.978
▁Ost	-10.9787
▁supplies	-10.9791
▁gerichtet	-10.9792
▁hinweg	-10.9793
art	-10.9797
staaten	-10.9798
▁Gelder	-10.9802
▁robust	-10.9805
▁Öffnung	-10.9805
▁looks	-10.9806
▁spanischen	-10.981
▁facilities	-10.9818
son	-10.982
▁proud	-10.982
▁succeeded	-10.9821
▁bezahlen	-10.9826
▁Third	-10.9826
▁griechischen	-10.983
▁Untersuchungen	-10.9832
▁Papier	-10.9832
▁disposal	-10.9832
▁roughly	-10.9833
▁considerably	-10.9833
▁learned	-10.9834
▁jener	-10.9834
▁Konjunktur	-10.9836
▁Ben	-10.9836
▁islamische	-10.9837
▁Taten	-10.9843
▁Buch	-10.9845
▁arbeitet	-10.9845
▁Libanon	-10.9845
▁tief	-10.9852
▁schwieriger	-10.9853
▁unity	-10.9857
▁Consequently	-10.9859
▁vorbereitet	-10.9859
▁apparent	-10.9867
▁quarter	-10.9869
▁überlassen	-10.987
▁ended	-10.9871
▁Sprachen	-10.9873
▁pillar	-10.9874
ierten	-10.9876
▁einzelne	-10.9877
▁Praktiken	-10.9877
level	-10.9881
▁untergraben	-10.9886
▁whilst	-10.9886
▁Jahrzehnte	-10.989
▁fears	-10.9892
▁applying	-10.9899
▁highlighted	-10.99
▁reconstruction	-10.99
▁regimes	-10.9907
▁settlement	-10.9909
▁genuinely	-10.9912
▁geboten	-10.9913
▁hoffentlich	-10.9914
▁CAP	-10.9914
▁Auge	-10.9915
▁cutting	-10.9915
▁genügend	-10.9919
▁Finanzmärkte	-10.992
od	-10.992
▁ernsthafte	-10.9921
▁aufnehmen	-10.9923
hen	-10.9929
▁Gegen	-10.9933
▁überaus	-10.9938
▁Tabak	-10.994
▁supervision	-10.9941
▁Every	-10.9941
▁ignore	-10.9945
▁behauptet	-10.9945
▁spät	-10.9946
▁Einkommens	-10.9949
ably	-10.9951
▁Hu	-10.9953
▁zunehmende	-10.9954
▁Vorgehensweise	-10.9955
▁satisfied	-10.9958
▁ausgegeben	-10.9959
▁lie	-10.9966
▁causing	-10.9968
▁Authority	-10.9968
ay	-10.9969
▁tough	-10.997
▁historischen	-10.9972
▁parlamentarisch	-10.9974
▁Binnenmarktes	-10.9974
▁tests	-10.9978
▁Kriminalität	-10.9982
▁jedenfalls	-10.9982
▁c	-10.9987
▁Anders	-10.9987
Z	-10.9988
▁trouble	-10.999
werk	-10.9992
▁dramatic	-10.9995
▁Solana	-10.9996
▁froh	-10.9996
▁acting	-10.9999
igung	-10.9999
▁expand	-11.0003
▁obliged	-11.0011
▁Arbeiten	-11.002
tergovernmental	-11.0022
▁democracies	-11.0023
▁entered	-11.0025
▁informieren	-11.0025
▁mo	-11.0025
cy	-11.0028
▁advantages	-11.0029
kontrolle	-11.0031
▁Spannungen	-11.0032
▁opt	-11.0032
sätze	-11.0032
▁English	-11.0037
▁Su	-11.0038
▁brutal	-11.0039
▁Demokraten	-11.0041
▁seeks	-11.0041
▁Dis	-11.0043
ign	-11.0049
kl	-11.0062
▁erleichtern	-11.0065
▁gelingt	-11.0065
▁Kontext	-11.0065
▁Ma	-11.0066
kraft	-11.0067
sur	-11.0075
▁einheitliche	-11.0075
Dollar	-11.0075
▁Serbien	-11.0076
vis	-11.0079
▁Vereinfachung	-11.0079
▁Souveränität	-11.0079
problem	-11.008
▁centre	-11.0081
wirtschaftlicher	-11.0084
▁indicated	-11.0084
▁eingebracht	-11.0091
▁Chile	-11.0092
▁bureaucracy	-11.0093
▁unverzüglich	-11.0093
▁VAT	-11.0093
▁gradually	-11.0097
spräsident	-11.0097
▁movements	-11.0097
▁Weil	-11.0099
▁Nordkorea	-11.0104
nis	-11.0104
▁south	-11.0106
▁unnecessary	-11.0106
▁Subject	-11.0106
▁speziell	-11.011
▁bestand	-11.0111
▁governing	-11.0113
rechte	-11.0116
▁ursprünglichen	-11.0117
▁San	-11.0119
▁Haiti	-11.0119
▁Nachbarschaft	-11.012
▁gering	-11.0123
▁alter	-11.0125
▁zukünftigen	-11.0127
▁worrying	-11.0131
▁verständlich	-11.0133
setzen	-11.0133
▁Schulen	-11.0133
▁Brok	-11.0134
▁contract	-11.0135
mat	-11.0137
ard	-11.014
▁educational	-11.0148
▁equivalent	-11.0148
▁hervorgehoben	-11.0148
▁nahezu	-11.0154
▁Reise	-11.0154
▁showing	-11.0154
▁eingeleitet	-11.0156
▁don	-11.016
▁expense	-11.016
▁intends	-11.016
▁höchsten	-11.0163
▁mögen	-11.0166
▁Tisch	-11.0169
▁vorher	-11.0172
ich	-11.0175
▁Austrian	-11.0179
ok	-11.0179
▁ethical	-11.018
▁negativen	-11.018
rück	-11.0183
preis	-11.0183
▁Bitte	-11.0184
uch	-11.0186
Wirtschaftskrise	-11.0186
▁Helsinki	-11.019
▁beantworten	-11.019
ide	-11.0191
▁completed	-11.0192
länder	-11.0197
▁direkte	-11.0197
▁erhält	-11.0198
▁Wall	-11.0203
▁ratification	-11.0204
▁illegalen	-11.0205
▁Investition	-11.0205
▁Alter	-11.0205
▁Vorrang	-11.0205
▁Zwischen	-11.0207
▁Indian	-11.0207
▁Generationen	-11.0211
▁argued	-11.0213
side	-11.0213
▁Sektors	-11.0214
▁umfassend	-11.0215
▁Weltkrieg	-11.0216
▁Dynamik	-11.0218
▁hearing	-11.022
▁Minderheit	-11.0225
▁Gerade	-11.0232
▁submit	-11.0233
▁befasst	-11.0233
▁bezahlt	-11.0233
▁gebeten	-11.0234
lose	-11.0238
▁entscheidenden	-11.0239
▁bezug	-11.0244
▁geltenden	-11.0246
▁Gewicht	-11.0247
▁erlaubt	-11.0247
▁wind	-11.0249
▁Nachrichten	-11.0249
▁uniform	-11.026
elt	-11.0261
▁Kroatien	-11.0261
▁Dringlichkeit	-11.0261
▁begun	-11.0261
▁instability	-11.0261
for	-11.0267
▁sustained	-11.0267
ron	-11.0267
▁deserve	-11.0268
▁Ökonomen	-11.027
▁charges	-11.0273
▁Free	-11.0275
▁hingegen	-11.0276
teils	-11.0283
▁laufen	-11.0289
▁Stattdessen	-11.0289
▁sufficiently	-11.029
▁Democratic	-11.029
▁Who	-11.0291
▁Referendum	-11.0291
▁Berg	-11.0293
▁Management	-11.0293
▁Offenheit	-11.0303
▁Clearly	-11.0304
▁ersetzen	-11.0309
▁Bosnia	-11.0317
▁Groß	-11.0326
▁Scheitern	-11.0332
▁festzulegen	-11.0332
▁northern	-11.0332
▁reserve	-11.0334
▁Zentralbanken	-11.0334
▁Gegner	-11.0337
punkt	-11.0341
▁feeling	-11.0342
▁Süden	-11.0343
▁erfreut	-11.0346
▁retten	-11.0346
▁codecision	-11.0346
▁Licht	-11.0348
ff	-11.0348
zahl	-11.0349
bild	-11.0349
▁auszu	-11.0353
▁showed	-11.0357
▁incomes	-11.0358
▁Finnland	-11.036
▁behaviour	-11.036
▁pensions	-11.0361
▁households	-11.0363
gleich	-11.0365
raum	-11.0366
▁removed	-11.0367
▁Organe	-11.0371
selben	-11.0373
▁fresh	-11.0374
▁Gegenstand	-11.0375
▁Arbeiter	-11.0377
▁angewandt	-11.0379
▁constant	-11.0383
▁ausgeschlossen	-11.039
▁Volkes	-11.039
▁waters	-11.0392
▁erklärte	-11.0392
▁unzureichend	-11.0393
▁Beiträge	-11.0397
▁l	-11.04
▁Wahrscheinlich	-11.0403
▁satisfactory	-11.0403
▁Stoffe	-11.0405
bare	-11.0406
▁losing	-11.0408
kon	-11.0409
▁verstehe	-11.0411
▁schlagen	-11.0414
▁targeted	-11.0423
▁considerations	-11.0424
▁eliminate	-11.0426
▁Einwanderer	-11.0426
▁stolz	-11.0432
ordnung	-11.0435
▁Armen	-11.0439
▁divide	-11.044
▁generate	-11.0441
beauftragten	-11.0442
▁Kopf	-11.0444
▁Belgium	-11.0446
tan	-11.0454
▁viable	-11.0461
▁verstärkte	-11.0463
▁vollständige	-11.0463
▁mis	-11.0466
▁interpretation	-11.0471
▁te	-11.0472
▁intensive	-11.0473
▁aside	-11.0475
▁stellte	-11.0477
▁hervorragende	-11.048
▁Investitions	-11.0483
▁Stärke	-11.0484
▁weg	-11.0485
▁Milosevic	-11.0489
▁Representative	-11.0489
ges	-11.0491
▁gained	-11.0492
zug	-11.0494
▁schemes	-11.0499
plan	-11.0499
▁civilian	-11.0506
unterschiedliche	-11.0507
Energieeffizienz	-11.051
▁falsche	-11.0511
▁productive	-11.0512
ausschuss	-11.0517
sfreiheit	-11.0517
▁signs	-11.0518
▁Well	-11.0519
▁niedrig	-11.0522
▁Kann	-11.0522
▁solid	-11.0525
▁befürwortet	-11.0526
ob	-11.0531
▁Before	-11.0533
▁Durchsetzung	-11.0534
▁zurückzuführen	-11.0534
▁dank	-11.0545
▁vorstellen	-11.0545
▁Control	-11.0547
▁familiar	-11.0547
▁protocol	-11.0547
▁unprecedented	-11.0547
▁Ha	-11.0549
▁durchführen	-11.0559
▁einfache	-11.056
bank	-11.0561
▁kaufen	-11.0562
▁Verteilung	-11.0563
▁reinforce	-11.057
▁usual	-11.0571
▁Subventionen	-11.0572
mittel	-11.0575
▁vermutlich	-11.0577
▁bereitet	-11.058
tag	-11.0582
▁ablehnen	-11.0585
ations	-11.0585
▁negotiate	-11.0585
▁sets	-11.0587
▁ratio	-11.0592
emissionen	-11.0592
▁virtually	-11.0593
▁demographic	-11.0594
▁Grenz	-11.0598
▁terror	-11.0601
▁Korean	-11.0601
▁Grad	-11.0606
▁v	-11.0608
economic	-11.0609
▁vernünftige	-11.0609
▁ambition	-11.0611
▁honour	-11.0611
▁u	-11.0612
▁Mission	-11.0616
▁Tausende	-11.0618
▁Verheugen	-11.062
▁einstimmig	-11.062
▁fell	-11.0621
▁consequence	-11.0622
▁rechtlichen	-11.0628
▁Heads	-11.0629
▁begann	-11.0631
systeme	-11.0634
▁überprüfen	-11.0635
▁gewonnen	-11.0635
▁murder	-11.064
▁historische	-11.064
▁exploitation	-11.0641
▁Putins	-11.0643
▁Belgian	-11.065
▁Wichtig	-11.0652
▁mittleren	-11.0657
▁engaged	-11.0658
▁erfolgreiche	-11.0658
▁unions	-11.0658
▁beenden	-11.066
▁Klimawandels	-11.0662
smöglichkeiten	-11.0663
▁Erzeuger	-11.0664
▁afternoon	-11.0665
▁Partnership	-11.0665
▁modest	-11.067
▁bottom	-11.067
▁replaced	-11.0673
▁globaler	-11.0674
▁rechtliche	-11.0678
▁black	-11.0679
▁garantieren	-11.0679
▁kleiner	-11.0686
▁fairly	-11.0689
▁grant	-11.069
▁island	-11.069
Entschlossenheit	-11.0694
▁Mädchen	-11.0694
▁allocation	-11.0694
▁Modernisierung	-11.0694
ju	-11.0694
▁regelmäßig	-11.0696
▁scenario	-11.0696
▁Eltern	-11.07
▁afrikanischen	-11.0704
▁Erzeugnisse	-11.0704
▁extrem	-11.0708
▁Tragödie	-11.0709
▁Robert	-11.0709
▁Canada	-11.0714
▁intervene	-11.0717
▁carrying	-11.0719
▁Ba	-11.0722
▁freuen	-11.0723
▁Berlusconi	-11.0724
▁kontrollieren	-11.0724
▁potentially	-11.0724
▁Freihandel	-11.0724
▁Her	-11.0725
programme	-11.0729
▁standing	-11.0729
▁perfect	-11.0733
▁Phänomen	-11.0738
▁keineswegs	-11.0738
▁nonetheless	-11.0738
▁zerstört	-11.0738
▁race	-11.0738
▁niedriger	-11.0741
sector	-11.0743
▁woman	-11.0744
▁Rather	-11.0745
▁accident	-11.0749
▁proof	-11.0752
▁alternatives	-11.0753
▁Hersteller	-11.0753
ssen	-11.0755
session	-11.0756
▁Zweiten	-11.076
▁Parlamente	-11.0762
▁Institute	-11.0764
▁regardless	-11.0765
▁observers	-11.0766
▁ausgehen	-11.0768
▁Paul	-11.0769
by	-11.0769
▁oftmals	-11.0769
▁Teilnahme	-11.0769
▁fate	-11.077
▁Hohe	-11.0771
▁Verwaltungs	-11.0773
Gipfel	-11.0773
▁zuständig	-11.0774
FI	-11.0775
elle	-11.0776
▁estimates	-11.0779
▁Netz	-11.0782
▁imperative	-11.0783
▁cash	-11.0784
lung	-11.0786
▁anderswo	-11.0787
▁Grünen	-11.0787
▁fourth	-11.0787
▁marked	-11.0789
▁threatened	-11.0789
▁dead	-11.0795
▁arise	-11.0797
▁wenden	-11.0798
▁Dänemark	-11.0798
▁Vorredner	-11.0798
▁harmful	-11.0798
▁Zwar	-11.0799
▁kinds	-11.0799
▁piece	-11.0807
hält	-11.0807
▁Minuten	-11.0809
▁Arbeitskräfte	-11.081
▁Nachhaltigkeit	-11.0813
▁soeben	-11.0813
▁Erfolge	-11.0815
▁ähnlich	-11.0818
srecht	-11.082
▁Sowjetunion	-11.0828
▁Ta	-11.0831
wo	-11.0834
▁joined	-11.0837
▁debated	-11.0839
ker	-11.084
▁Quoten	-11.0841
▁Danish	-11.0843
▁Fischler	-11.0843
▁Darfur	-11.0843
▁zuerst	-11.0844
▁angebracht	-11.0844
▁mostly	-11.0845
▁preserve	-11.0852
▁Ganz	-11.0852
weise	-11.0853
▁Steigerung	-11.0858
▁hilfreich	-11.0858
▁Atomwaffen	-11.0858
▁Cooperation	-11.0858
sche	-11.0865
▁Mängel	-11.0873
▁Stockholm	-11.0873
▁antworten	-11.0873
▁Amtszeit	-11.0873
▁bedanken	-11.0873
▁representation	-11.0874
▁Netze	-11.0875
▁Petitions	-11.0879
▁Kontakt	-11.0887
▁Außenminister	-11.0887
▁Existenz	-11.0887
▁equity	-11.0888
▁macroeconomic	-11.0888
▁+	-11.0889
▁inside	-11.0889
▁organization	-11.0892
▁Innovationen	-11.0892
hu	-11.0893
▁Viel	-11.0895
▁Märkten	-11.0897
▁Internal	-11.0899
▁beabsichtigt	-11.0903
▁micro	-11.0903
▁universities	-11.0903
▁Mitentscheidung	-11.0904
▁ALE	-11.0904
▁progressive	-11.0905
▁Jean	-11.0905
▁schlimmer	-11.0907
▁incentive	-11.0907
▁ausge	-11.091
▁approaches	-11.0912
▁arrest	-11.0914
▁Demokratien	-11.0915
▁Likewise	-11.0918
▁default	-11.0918
▁Planung	-11.0919
▁sprach	-11.093
▁inevitable	-11.0933
▁irakische	-11.0933
▁possibilities	-11.0933
▁foremost	-11.0933
▁Sind	-11.0933
cre	-11.0934
rie	-11.0937
▁transitional	-11.0938
▁exploit	-11.0939
▁lending	-11.0942
▁cheap	-11.0944
▁Dublin	-11.0948
▁dargelegt	-11.0949
ship	-11.095
▁thanking	-11.0954
▁Weiteren	-11.0959
▁Kurz	-11.0962
▁außen	-11.0963
▁comparison	-11.0963
▁vorschlagen	-11.0966
▁türkischen	-11.0968
par	-11.0969
sentwurf	-11.0969
▁Mensch	-11.097
▁negotiated	-11.097
▁Privat	-11.0977
▁advertising	-11.0978
▁steigern	-11.0978
▁Dauer	-11.0978
▁gefasst	-11.0978
▁sterben	-11.0978
▁teilnehmen	-11.0979
▁ships	-11.0981
▁speeches	-11.0984
▁illegale	-11.0984
▁persönliche	-11.0985
▁actors	-11.0988
▁Stunden	-11.0993
Umstrukturierung	-11.0994
▁Bereitstellung	-11.0994
▁aviation	-11.0994
▁intentions	-11.0996
▁verurteilen	-11.1001
▁Flug	-11.1002
▁di	-11.1003
▁definitely	-11.1011
▁Zeitplan	-11.1012
▁Lehren	-11.1014
▁Palestine	-11.1014
▁schlechter	-11.1017
▁afraid	-11.1024
▁Versammlung	-11.1024
▁Überleben	-11.1025
▁traditionellen	-11.1027
▁formuliert	-11.1027
hm	-11.1029
▁warning	-11.1032
▁moreover	-11.1034
HU	-11.1038
▁Legitimität	-11.1039
▁Ga	-11.104
▁affecting	-11.1051
▁Common	-11.1055
▁verschärft	-11.1055
▁fortsetzen	-11.1055
▁ärmsten	-11.1058
▁refused	-11.106
ev	-11.1062
▁narrow	-11.1064
▁fehlende	-11.1065
▁beeinflussen	-11.107
▁Kluft	-11.107
▁David	-11.107
▁shares	-11.1071
ät	-11.1072
▁Mitgliedsländer	-11.1072
▁gefallen	-11.1073
▁Truppen	-11.1074
▁Million	-11.1078
ick	-11.1078
▁Anfragen	-11.108
▁aktive	-11.1085
▁Beseitigung	-11.1085
▁Bio	-11.1086
▁hart	-11.1087
sausschuss	-11.1087
▁kamen	-11.1088
▁langem	-11.109
▁Funktion	-11.1091
▁Consumer	-11.1091
institutional	-11.1094
▁immense	-11.1097
▁birth	-11.1101
▁Nachdem	-11.1102
▁ma	-11.1106
▁investiert	-11.1106
▁preparation	-11.1107
▁strukturelle	-11.1111
hol	-11.1113
▁beinhaltet	-11.1116
▁Zunahme	-11.1118
▁Massen	-11.1121
á	-11.1124
▁Millennium	-11.1125
▁Tages	-11.1126
▁fit	-11.1128
▁Muslims	-11.1129
▁stehenden	-11.113
▁Ar	-11.1131
▁enabling	-11.1131
▁wachsenden	-11.1133
▁strike	-11.1138
ions	-11.1139
▁überrascht	-11.1147
▁combination	-11.1147
▁einst	-11.1149
▁solely	-11.115
▁ergibt	-11.1151
▁Jo	-11.1152
▁tradition	-11.1158
▁resulted	-11.116
▁weist	-11.1161
▁Gründung	-11.1162
▁considers	-11.1163
gruppen	-11.1164
▁Kremlin	-11.1165
▁anzu	-11.1168
▁Mechanismus	-11.1169
▁Geschlechter	-11.1169
▁wahren	-11.1173
schlag	-11.1176
rei	-11.1177
▁Zucker	-11.1178
▁diverse	-11.1178
▁intelligence	-11.1178
▁Gipfeltreffen	-11.1178
▁Einnahmen	-11.1187
sicht	-11.1189
acht	-11.1189
▁Gen	-11.1191
▁Besteuerung	-11.1193
▁Betrifft	-11.1193
▁Libyen	-11.1193
▁milk	-11.1193
▁reduziert	-11.1193
▁Beachtung	-11.1194
verbot	-11.1194
▁employers	-11.1199
▁driven	-11.1206
▁lasting	-11.1208
▁wählen	-11.1209
▁sorry	-11.1209
▁Niederlanden	-11.121
▁nine	-11.121
▁eastern	-11.121
▁girls	-11.1211
▁Hinweis	-11.122
▁EIB	-11.1224
▁Fisheries	-11.1224
▁gerechtfertigt	-11.1227
▁excluded	-11.1229
▁react	-11.1233
▁constitutes	-11.1236
sverletzungen	-11.1238
▁Liberalen	-11.1239
▁parents	-11.1242
▁deutliche	-11.1244
▁verantwortungs	-11.1249
▁Hongkong	-11.1256
▁Berichten	-11.1259
▁vorgesehenen	-11.126
wirtschaftliche	-11.1266
▁einfacher	-11.1266
ural	-11.1268
▁Kapitel	-11.1271
▁clarity	-11.1271
▁importantly	-11.1273
krieg	-11.1276
pt	-11.1278
▁surprised	-11.1279
▁Schulz	-11.1287
▁night	-11.1287
▁Zugleich	-11.1288
▁correctly	-11.1301
▁ländliche	-11.1301
▁accompanied	-11.1303
▁fördert	-11.1303
▁Asyl	-11.1304
▁communications	-11.1304
ub	-11.1307
▁vorbei	-11.1309
▁Greens	-11.1309
sk	-11.1312
▁einge	-11.1318
▁gescheitert	-11.1318
▁Follow	-11.1318
▁fassen	-11.1319
▁Auftrag	-11.1319
▁untersucht	-11.132
▁mental	-11.1322
▁Koalition	-11.1326
▁repeated	-11.133
▁Alternativen	-11.133
▁Indonesia	-11.1332
▁Association	-11.1334
▁Consider	-11.1334
▁bureaucratic	-11.1334
▁Fleisch	-11.1334
▁Hunger	-11.1334
istische	-11.1336
▁unterscheiden	-11.1337
▁leichter	-11.1338
▁Schiffe	-11.1338
▁geringer	-11.134
▁looked	-11.1341
▁Kohle	-11.1342
ple	-11.1344
▁drängen	-11.135
tor	-11.1351
▁anerkennen	-11.1354
▁amended	-11.1359
Länder	-11.1361
ssysteme	-11.1364
▁Niemand	-11.1365
▁frequently	-11.1368
▁auswirken	-11.1369
▁neighbours	-11.1369
▁eindeutige	-11.1373
▁Syrian	-11.1377
income	-11.1378
▁erkannt	-11.1379
▁Aussage	-11.138
▁Climate	-11.1381
▁Otherwise	-11.1381
▁inakzeptabel	-11.1381
▁besitzt	-11.1381
▁referring	-11.1382
ative	-11.1384
▁Verts	-11.1384
▁dream	-11.139
▁fand	-11.1393
▁occupation	-11.1395
▁Safety	-11.1397
▁chairman	-11.1397
▁indicate	-11.14
▁Cold	-11.14
▁humanitären	-11.1401
▁lieber	-11.1406
▁usw	-11.1411
▁Atom	-11.1412
▁relief	-11.1413
ey	-11.1415
▁schwedischen	-11.1418
hin	-11.1419
▁implies	-11.1429
▁Protection	-11.1429
ost	-11.1432
▁discipline	-11.1432
▁Nation	-11.1436
▁irischen	-11.1439
▁Güter	-11.1442
▁Geschäft	-11.1445
▁Arbeitgeber	-11.1446
▁hergestellt	-11.1446
ana	-11.1447
▁certainty	-11.1448
▁fixed	-11.1451
▁everybody	-11.1461
▁zugute	-11.1461
ping	-11.1462
day	-11.1464
nehmen	-11.1466
▁requests	-11.1467
Kohäsionspolitik	-11.1471
▁umgehen	-11.1475
▁Bar	-11.1477
▁behindert	-11.1483
▁Trend	-11.1484
▁beings	-11.1484
sbehörden	-11.1491
▁aufzubauen	-11.1493
▁denjenigen	-11.1493
▁competent	-11.1493
▁object	-11.1494
gemeinschaftlich	-11.1494
▁informal	-11.1495
▁manufacturers	-11.1495
▁Oder	-11.1496
▁Pe	-11.1497
▁populist	-11.1497
▁Defizite	-11.1497
▁offering	-11.15
oc	-11.1501
▁Gewinne	-11.1506
▁Zusammenhalt	-11.1506
▁zusätzlich	-11.1508
▁könne	-11.1508
▁ideological	-11.1509
press	-11.1512
▁Anmerkungen	-11.1513
▁Studenten	-11.1514
▁believed	-11.1518
▁chain	-11.1519
▁sharp	-11.1519
druck	-11.1519
▁fühlen	-11.1522
▁Schatten	-11.1522
nz	-11.1524
▁Milch	-11.1525
▁verletzt	-11.1525
geht	-11.1528
▁erheblichen	-11.1528
mission	-11.1533
▁speaker	-11.1534
▁alliance	-11.1535
cu	-11.1535
long	-11.1535
▁fragile	-11.1537
▁Obviously	-11.1541
▁eingeschränkt	-11.1541
▁ratified	-11.1541
▁pursuing	-11.1541
▁badly	-11.1544
▁outstanding	-11.1544
▁explained	-11.1544
▁erlassen	-11.1545
▁davor	-11.1546
▁Com	-11.1546
▁Zahlungen	-11.1555
▁Behörde	-11.1556
▁verabschieden	-11.1557
▁sake	-11.1557
▁automatisch	-11.1557
sel	-11.1558
▁Atlantic	-11.1559
▁Verluste	-11.1566
▁Stalin	-11.1573
▁transactions	-11.1574
▁durchzusetzen	-11.1576
▁trends	-11.1579
▁sobald	-11.158
▁doubts	-11.1581
▁refers	-11.1582
tisch	-11.1583
▁Rechnungshof	-11.1583
▁Allianz	-11.1589
▁Grünbuch	-11.1589
▁geringe	-11.159
▁hierfür	-11.159
king	-11.1594
▁logic	-11.1594
▁honest	-11.1597
▁umso	-11.1599
Programm	-11.1605
·	-11.1605
▁Ashton	-11.1605
▁adjustment	-11.1606
▁liquidity	-11.1606
▁schwere	-11.1608
▁Fähigkeiten	-11.1614
ries	-11.1614
▁vorgelegten	-11.1616
▁verweisen	-11.1619
▁bestimmter	-11.1619
▁Beschränkungen	-11.162
▁Zimbabwe	-11.162
▁schrittweise	-11.1621
▁Herstellung	-11.1622
▁financed	-11.1624
J	-11.1627
▁Prozesses	-11.1627
▁Besonder	-11.1635
▁plötzlich	-11.1638
▁erarbeitet	-11.1639
▁Zuge	-11.1646
svorschläge	-11.1652
▁Norden	-11.1653
▁unterbreitet	-11.1654
▁Termin	-11.1654
▁catch	-11.1663
▁Geschäfts	-11.1666
▁image	-11.1667
▁unabhängigen	-11.1667
▁Positionen	-11.1669
▁Morocco	-11.167
▁Until	-11.167
▁ecological	-11.167
▁Volksgesundheit	-11.167
▁extraordinary	-11.167
▁gestatten	-11.167
▁zählt	-11.1671
gesellschaften	-11.1672
▁existiert	-11.1678
istischen	-11.1679
SK	-11.1679
▁Gu	-11.1682
▁Wechselkurs	-11.1683
▁Belgien	-11.1686
▁facto	-11.1689
▁online	-11.1697
▁door	-11.1698
skosten	-11.1699
▁indicators	-11.1701
▁attractive	-11.1702
▁Argentinien	-11.1703
▁Betrag	-11.1703
▁Gemeinschaften	-11.1705
▁behalten	-11.1707
▁cycle	-11.1712
▁Beamten	-11.1716
▁Abfall	-11.1718
▁drop	-11.1719
▁festzustellen	-11.1719
▁Ergebnissen	-11.1726
▁convention	-11.1727
barkeit	-11.1727
▁Mechanismen	-11.1727
▁vorliegen	-11.1729
▁Währungs	-11.1733
▁praktische	-11.1734
▁Malaria	-11.1735
▁dasselbe	-11.1741
▁mistakes	-11.1745
▁survive	-11.1746
▁Solche	-11.1746
CS	-11.1748
▁Mugabe	-11.1752
▁remarkable	-11.1752
▁konsequent	-11.1754
▁prevented	-11.1754
▁sales	-11.1755
▁evident	-11.1758
investitionen	-11.1759
▁Uns	-11.1764
tre	-11.1765
cur	-11.1767
▁Klein	-11.1767
▁kritisiert	-11.1768
▁minimal	-11.1768
▁rhetoric	-11.1769
▁lokale	-11.1769
du	-11.1771
▁environmentally	-11.1771
▁north	-11.1774
▁sharing	-11.1777
▁endgültige	-11.178
▁neutral	-11.1783
▁diplomacy	-11.1785
▁Verbrauch	-11.1789
zer	-11.1789
▁Dialogs	-11.1792
▁ausreichende	-11.1798
handel	-11.1799
▁angewendet	-11.1801
▁heavily	-11.1801
▁terrible	-11.1801
▁Klarheit	-11.1801
▁besitzen	-11.1801
▁Einschätzung	-11.1802
ight	-11.1802
qua	-11.1803
▁italienischen	-11.1806
ku	-11.1808
▁cl	-11.1812
▁Regimes	-11.1813
▁pursued	-11.1814
▁halt	-11.1814
▁foundation	-11.182
if	-11.1821
▁Per	-11.1822
▁wording	-11.1824
care	-11.1824
▁beträgt	-11.1825
▁unilateral	-11.1828
▁vessels	-11.1829
uf	-11.183
▁Tier	-11.1832
▁Lithuania	-11.1834
▁Luxemburg	-11.1834
▁willkommen	-11.1837
▁etc	-11.1838
▁humanity	-11.1839
▁capitalism	-11.184
▁gehe	-11.1847
▁computer	-11.1847
▁judgment	-11.1847
▁Beschäftigungs	-11.1849
▁disagree	-11.185
▁beraten	-11.1852
▁symbol	-11.1853
▁homes	-11.1854
▁demokratischer	-11.1854
ition	-11.1854
▁Martin	-11.1855
svertrag	-11.1855
▁Time	-11.1861
▁gefährliche	-11.1861
▁Alles	-11.1862
▁shortcomings	-11.1863
berg	-11.1866
▁household	-11.1866
▁Morgen	-11.1867
▁NRO	-11.1868
▁Anzeichen	-11.1868
▁managing	-11.187
▁cr	-11.1871
▁zweiter	-11.1871
▁ehrlich	-11.1873
▁regulate	-11.1874
▁wesentlicher	-11.1874
lei	-11.1877
▁Bilanz	-11.1878
▁Pre	-11.1878
▁condemned	-11.188
▁auffordern	-11.1884
▁lenken	-11.1884
▁erteilt	-11.1884
ible	-11.1885
▁Garantie	-11.1886
country	-11.1886
▁europäisches	-11.1887
▁exposed	-11.1887
▁Erreich	-11.1887
▁Suche	-11.1889
strategie	-11.1892
▁noise	-11.1897
▁Anleihen	-11.1898
▁gleichermaßen	-11.1901
▁Menschheit	-11.1901
▁Nachdruck	-11.1902
▁slightly	-11.1902
▁unanimously	-11.1905
▁ambitions	-11.1915
▁Anreiz	-11.1915
▁Schäden	-11.1917
▁transatlantic	-11.1917
▁stimulate	-11.1917
▁beginnt	-11.1919
▁ASEAN	-11.1922
▁Arbeitnehmern	-11.1925
defizit	-11.1926
▁Power	-11.1927
ischer	-11.1933
▁ALDE	-11.1934
▁gelingen	-11.1934
tätigkeit	-11.194
▁ignored	-11.1941
dy	-11.1941
fonds	-11.1944
▁moderne	-11.1946
▁female	-11.1951
▁jemals	-11.1951
▁Ne	-11.1951
▁Yugoslavia	-11.1951
▁Richter	-11.1956
ki	-11.1958
▁mitteilen	-11.1963
bringen	-11.1967
▁Löhne	-11.1967
▁beseitigen	-11.1967
▁Betrug	-11.1969
▁Fang	-11.1969
▁accountability	-11.1969
▁transformation	-11.197
▁Bas	-11.197
▁TB	-11.1978
▁hundred	-11.1982
▁Glauben	-11.1984
▁hinzufügen	-11.1984
▁eintreten	-11.1984
anz	-11.1984
▁unemployed	-11.1985
▁resort	-11.1985
▁Monti	-11.1985
▁distinction	-11.1985
▁block	-11.1986
▁Insel	-11.1987
▁withdraw	-11.1987
arbeiten	-11.199
▁Office	-11.1991
möglich	-11.1995
▁destroyed	-11.1997
▁chemical	-11.1999
#	-11.2001
▁Employment	-11.2001
▁notably	-11.2004
▁foundations	-11.2005
wi	-11.2006
▁weisen	-11.2009
▁DC	-11.2012
▁Hilfs	-11.2013
▁conventional	-11.2013
▁forum	-11.2017
▁Palästina	-11.2018
▁deswegen	-11.2018
▁Internationale	-11.2019
▁Tunisia	-11.2019
ina	-11.2023
▁Denken	-11.2027
▁kurze	-11.2032
▁Question	-11.2033
finanzierung	-11.2035
▁effiziente	-11.2037
▁keinem	-11.2042
▁stressed	-11.2048
▁victim	-11.205
▁register	-11.2051
▁erörtert	-11.2051
▁gewähren	-11.2051
▁regrettable	-11.2052
▁older	-11.2053
▁Zivil	-11.2055
▁Äußerungen	-11.2063
▁schnelle	-11.2063
▁Revision	-11.2064
▁dictatorship	-11.2067
▁Computer	-11.2068
▁grave	-11.2069
▁protests	-11.2071
▁Montenegro	-11.2071
▁Formulierung	-11.208
▁Option	-11.2082
▁false	-11.2085
▁treaties	-11.2086
▁Arzneimittel	-11.2087
▁Aufsicht	-11.209
satz	-11.2091
bra	-11.2095
▁angekündigt	-11.2097
sion	-11.21
▁article	-11.2101
dass	-11.2102
▁Versorgung	-11.2102
▁Zentrum	-11.2102
▁controversial	-11.2102
▁receiving	-11.2102
▁erhoben	-11.2102
▁hunger	-11.2104
▁bewirken	-11.2105
▁sexuelle	-11.2106
▁confident	-11.2108
▁Unternehmer	-11.2115
▁Tampere	-11.2119
▁survival	-11.2119
geben	-11.2125
sfonds	-11.2127
sausschusses	-11.2131
del	-11.2132
▁betreiben	-11.2133
▁deeper	-11.2134
▁division	-11.2135
tur	-11.2136
▁currencies	-11.2136
reichen	-11.2137
▁controlled	-11.2138
av	-11.2138
▁whereby	-11.214
▁buildings	-11.2143
▁imbalances	-11.2144
▁extending	-11.2148
mb	-11.215
pon	-11.2152
▁beobachten	-11.2153
▁Aktien	-11.2155
▁roads	-11.2156
▁neighbouring	-11.2159
▁refuse	-11.2164
▁einführen	-11.2165
▁jeweil	-11.2165
▁neun	-11.2167
▁capita	-11.2169
▁Simbabwe	-11.2171
▁verankert	-11.2171
▁bio	-11.2171
▁citizenship	-11.2171
▁bilaterale	-11.2171
▁fails	-11.2176
▁Billionen	-11.2179
▁sozial	-11.218
▁hoped	-11.2182
▁zentralen	-11.2182
▁connected	-11.2186
▁Häfen	-11.2188
▁ausüben	-11.2188
▁getragen	-11.2188
dienstleistungen	-11.2188
▁Israels	-11.219
▁Kriegs	-11.2194
▁viewed	-11.2195
▁internen	-11.2199
▁revenues	-11.22
▁manchen	-11.2205
▁rechtzeitig	-11.2205
▁Aufstieg	-11.2205
▁aufbauen	-11.2205
▁gemeinsames	-11.221
▁Städten	-11.2215
▁bewerten	-11.2219
▁Rechten	-11.2221
port	-11.2221
▁Galileo	-11.2222
▁Tempo	-11.2222
▁Verbindungen	-11.2222
▁Organization	-11.2222
▁periods	-11.2223
▁Aussichten	-11.2224
▁ersetzt	-11.2225
▁Russians	-11.223
gang	-11.2232
▁erteilen	-11.2238
▁genetic	-11.2239
▁Should	-11.2239
▁Kanada	-11.2239
▁Ro	-11.2239
dem	-11.2243
ile	-11.225
▁bedauere	-11.2256
▁GAP	-11.2257
▁concentration	-11.2261
▁Ad	-11.2262
▁teilt	-11.2263
▁match	-11.2268
▁Konsultation	-11.2269
▁verzeichnen	-11.2274
bildung	-11.2276
System	-11.2281
▁released	-11.2282
▁crops	-11.2285
▁speziellen	-11.2285
▁anschließend	-11.2288
▁Freunde	-11.2289
▁audit	-11.2291
▁Visa	-11.2291
▁Abbau	-11.2292
▁ohnehin	-11.2293
▁Instabilität	-11.2295
▁proven	-11.2297
▁Kennzeichnung	-11.23
▁geeignete	-11.2302
reaching	-11.2303
ras	-11.2303
▁raises	-11.2306
TA	-11.2308
▁heritage	-11.2308
▁israelischen	-11.2309
▁Sub	-11.231
▁ship	-11.2313
▁auseinander	-11.2316
hy	-11.2317
▁konstruktive	-11.2318
ale	-11.232
▁persönlichen	-11.2321
lie	-11.2322
▁Hoch	-11.2324
▁adverse	-11.2326
▁famous	-11.2326
▁einzelstaatlich	-11.2326
▁University	-11.2326
▁nützlich	-11.2331
▁cast	-11.2331
▁sit	-11.2334
▁generell	-11.2338
▁vernünftig	-11.2343
▁liability	-11.2343
▁vorsichtig	-11.2343
▁nobody	-11.2344
▁author	-11.2345
▁Slovakia	-11.2346
▁notice	-11.2346
▁accounting	-11.2347
lt	-11.2348
▁warm	-11.2349
▁Migranten	-11.2349
▁Gewinn	-11.2355
▁geographical	-11.2355
▁welches	-11.2357
▁valid	-11.236
▁promoted	-11.236
ausschusses	-11.236
▁angewiesen	-11.2361
▁Motor	-11.2361
ped	-11.2364
▁Wein	-11.2368
▁einzu	-11.2369
▁examined	-11.237
▁stärksten	-11.2373
äh	-11.2375
treffen	-11.2376
▁spiegelt	-11.2378
▁Gold	-11.2378
▁worry	-11.2382
▁born	-11.2385
▁Pi	-11.2389
▁soldiers	-11.2389
▁forest	-11.2391
▁Fortunately	-11.2395
▁surveillance	-11.2395
▁Begründung	-11.2396
Mitgliedsstaaten	-11.2396
▁economics	-11.2401
▁gefragt	-11.2402
gemeinschaft	-11.2406
way	-11.241
▁gegenseitige	-11.241
▁tensions	-11.2411
▁Genehmigung	-11.2413
▁Augenblick	-11.2413
sverhandlungen	-11.2414
▁untersuchen	-11.2414
▁keen	-11.2415
dge	-11.2415
▁notion	-11.2416
use	-11.2417
▁sight	-11.2419
▁Fakten	-11.2421
▁Schule	-11.2422
▁sagten	-11.243
▁External	-11.243
▁Macedonia	-11.243
▁Wahlkampf	-11.2431
our	-11.2433
▁gearbeitet	-11.2436
▁Mrd	-11.2438
▁respektieren	-11.2438
▁Erbe	-11.2438
▁Problematik	-11.2439
▁Car	-11.2439
▁compulsory	-11.2441
▁reiterate	-11.2442
▁Finanzminister	-11.2442
▁emphasised	-11.2444
▁alcohol	-11.2447
▁map	-11.2447
▁Chirac	-11.2448
▁twice	-11.2448
▁Manche	-11.2449
▁suitable	-11.2449
▁zugestimmt	-11.2451
▁Trans	-11.2452
▁Energiequellen	-11.2457
▁complaints	-11.2457
management	-11.2457
EC	-11.2458
▁withdrawal	-11.2468
right	-11.247
▁farm	-11.2473
▁Großen	-11.2474
ete	-11.2474
▁root	-11.2477
▁donors	-11.2478
▁missing	-11.2479
▁Krebs	-11.2483
▁zugänglich	-11.2483
▁Colombia	-11.2483
▁Feststellung	-11.2483
▁Flüchtlings	-11.2484
▁sichtbar	-11.2484
▁st	-11.2487
▁Werden	-11.2489
▁Meer	-11.2493
▁Kongress	-11.2496
▁öffentlicher	-11.2497
▁Arafat	-11.2501
▁Ausarbeitung	-11.2501
▁ignoriert	-11.2501
▁wake	-11.2501
▁Weißbuch	-11.2501
▁Titel	-11.2501
▁Beim	-11.2503
▁schweren	-11.2503
▁Ursache	-11.2505
▁auftreten	-11.2509
▁quota	-11.2512
▁subjects	-11.2514
▁beendet	-11.2514
▁vorgehen	-11.2515
▁festgelegten	-11.2518
weitaus	-11.2518
fang	-11.2518
cher	-11.2518
▁unerlässlich	-11.2519
▁secular	-11.2519
▁surrounding	-11.252
▁revised	-11.2521
▁Allow	-11.2522
▁Küsten	-11.2525
▁reflection	-11.2525
over	-11.2532
LT	-11.2533
▁weaken	-11.2536
▁eingerichtet	-11.2536
▁ausgedrückt	-11.2536
▁lebt	-11.2538
▁emerge	-11.2539
▁Straße	-11.2541
▁leaves	-11.2543
▁finances	-11.2546
▁Fisch	-11.2546
▁rasche	-11.2549
▁bezeichnen	-11.2553
▁stattfindet	-11.2554
▁appreciation	-11.2554
▁umfangreiche	-11.2555
▁normalerweise	-11.2556
▁offiziellen	-11.2558
▁unit	-11.2563
▁Körper	-11.2564
▁torture	-11.2566
▁Südafrika	-11.2568
▁Finanzmittel	-11.2568
▁Dingen	-11.257
▁Moldova	-11.2572
▁inevitably	-11.2572
▁Thailand	-11.2572
▁grundlegender	-11.2573
▁yield	-11.2573
▁delivered	-11.2573
▁Zielsetzungen	-11.2578
▁freely	-11.2578
▁Energiepolitik	-11.2578
ward	-11.2582
▁recognized	-11.2585
▁br	-11.259
▁Ministerrat	-11.2591
▁Minutes	-11.2591
▁halbe	-11.2596
▁consistently	-11.2601
▁unfortunate	-11.2602
▁logical	-11.2602
▁Chancellor	-11.2608
▁Democracy	-11.2608
▁Wichtigkeit	-11.2608
▁vermitteln	-11.2608
▁obtained	-11.261
grenzen	-11.2611
ktion	-11.2618
pack	-11.2619
▁mittlerweile	-11.2626
▁anwenden	-11.2626
▁intelligent	-11.2626
reich	-11.2628
ham	-11.2629
▁plays	-11.2634
▁betreffend	-11.2635
▁gegangen	-11.2636
▁chief	-11.2638
▁thorough	-11.2638
▁kurzfristig	-11.2639
▁substantially	-11.2641
rang	-11.2642
▁Erfüllung	-11.2643
▁Südkorea	-11.2643
▁Logik	-11.2644
▁REACH	-11.2644
▁Sicherung	-11.2644
▁approximately	-11.265
▁Erwägung	-11.2658
eck	-11.2659
▁Rettung	-11.2661
▁transfers	-11.2662
▁applications	-11.2663
van	-11.2664
▁reverse	-11.2667
▁unlike	-11.2675
▁backing	-11.2676
▁gold	-11.2677
▁Mehrwertsteuer	-11.2678
haft	-11.2679
▁Chechnya	-11.2679
▁Zerstörung	-11.2679
▁category	-11.2679
▁bold	-11.268
tritt	-11.2683
stelle	-11.2688
▁served	-11.2689
▁bitter	-11.2693
▁resist	-11.2694
▁miss	-11.2695
▁funded	-11.2697
▁Verfolgung	-11.2697
national	-11.2699
▁beef	-11.27
Politik	-11.2702
estatten	-11.2704
▁tritt	-11.2704
▁ursprünglich	-11.2707
▁Situationen	-11.2708
▁Acht	-11.2708
ult	-11.2709
▁hinzu	-11.2711
▁abschließend	-11.2713
▁Verlauf	-11.2715
▁verteilt	-11.2715
▁niedrigen	-11.2718
▁Exporte	-11.272
▁hour	-11.272
▁observed	-11.2721
▁enhanced	-11.2725
staat	-11.2726
▁direkten	-11.2729
▁besonderer	-11.273
▁einzugehen	-11.273
▁aircraft	-11.2734
▁GUE	-11.2734
▁vertritt	-11.2735
▁Rome	-11.2739
cing	-11.2742
tische	-11.2746
▁profound	-11.2746
Richtlinie	-11.2746
▁droht	-11.2752
▁Verhandlung	-11.2752
technologie	-11.2752
▁Michel	-11.2753
▁talked	-11.2754
▁bisherigen	-11.2756
▁undertake	-11.2759
▁Friedensprozess	-11.2768
▁Verabschiedung	-11.277
▁desirable	-11.277
▁Left	-11.2771
▁renewed	-11.2773
ika	-11.2775
▁Kunden	-11.2775
▁feature	-11.2776
▁funktionierende	-11.2777
▁religiösen	-11.2779
oni	-11.2781
▁exceptional	-11.2786
▁multinational	-11.2787
▁collaboration	-11.2788
▁tackling	-11.2788
▁utmost	-11.2788
▁forests	-11.2788
▁Dokumente	-11.279
▁nachdenken	-11.2792
▁costly	-11.2795
▁Organ	-11.2798
▁grown	-11.28
schreitenden	-11.28
▁Te	-11.2801
dauerlicherweise	-11.2801
rin	-11.2802
ifi	-11.2803
▁Nachricht	-11.2805
▁rechtfertigen	-11.2806
▁abgegeben	-11.2808
▁Regierungs	-11.2809
▁airlines	-11.2813
▁erfolgreichen	-11.2814
▁avoided	-11.2817
▁checks	-11.2819
▁zutiefst	-11.2824
▁Schul	-11.2825
▁liefern	-11.2825
▁banned	-11.2825
ified	-11.2827
▁incorporated	-11.283
▁fort	-11.283
▁Anlagen	-11.2831
▁demokratisch	-11.2832
▁sichere	-11.2832
▁Indonesien	-11.2843
▁Wirksamkeit	-11.2843
▁elderly	-11.2843
▁variety	-11.2843
▁raw	-11.2843
▁executive	-11.2848
▁Jede	-11.2852
▁Soldaten	-11.2854
▁surprising	-11.2856
ble	-11.2858
wechsel	-11.2859
▁Socialists	-11.2861
▁Ni	-11.2861
▁Bolkestein	-11.2861
▁Scotland	-11.2861
▁excuse	-11.2861
▁experiencing	-11.2861
▁ausgelöst	-11.2861
▁hierbei	-11.2863
▁directed	-11.2864
▁wächst	-11.2869
▁beruhen	-11.2872
fla	-11.2872
▁fortgesetzt	-11.2874
▁Kreml	-11.2876
▁Ausnahmen	-11.2877
▁Bewältigung	-11.2879
▁pleasure	-11.2879
▁worried	-11.2879
▁generous	-11.2879
▁recommend	-11.2881
lit	-11.2882
▁centres	-11.2883
transatlantische	-11.2883
spflicht	-11.2884
▁unbe	-11.289
▁überwiegend	-11.2892
▁Industrieländer	-11.2897
▁Aussicht	-11.2897
▁eigenes	-11.2898
▁Kinnock	-11.2898
▁senior	-11.2898
bt	-11.29
▁belong	-11.2901
ielzahl	-11.2903
▁nahm	-11.2907
▁Year	-11.2912
▁kontrolliert	-11.2914
▁ignorieren	-11.2916
▁steigt	-11.2916
▁gehandelt	-11.2916
▁entsteht	-11.2917
▁Welthandels	-11.2919
▁Lager	-11.2922
gabe	-11.2925
▁route	-11.2926
▁sending	-11.2929
haltung	-11.2933
▁Thursday	-11.2935
▁Ausgrenzung	-11.2935
▁stützen	-11.2935
▁stattgefunden	-11.2935
▁Anleger	-11.2935
▁Umweltfragen	-11.2937
▁Erhaltung	-11.2938
▁train	-11.2939
▁Marktwirtschaft	-11.2941
▁threshold	-11.2941
▁regularly	-11.2943
▁Falls	-11.2944
▁aufge	-11.2946
ort	-11.2948
▁texts	-11.2949
initiative	-11.2951
▁Ausgleich	-11.2951
▁NGL	-11.2953
▁öffnen	-11.2953
▁problematisch	-11.2953
▁ties	-11.2953
▁USD	-11.2954
▁dramatically	-11.2954
▁Still	-11.2954
▁ändert	-11.2954
▁Verkauf	-11.2954
▁Tieren	-11.2959
▁Quelle	-11.296
▁eröffnet	-11.2972
▁sorgt	-11.2972
▁Abgeordneter	-11.2972
▁solide	-11.2974
▁irische	-11.2979
äre	-11.2982
dienste	-11.2986
▁fr	-11.2988
▁Verletzung	-11.2988
▁gross	-11.299
▁reale	-11.2993
▁Menschenrechten	-11.2994
systems	-11.2996
▁thousand	-11.2997
fin	-11.2997
▁Darin	-11.2998
▁Much	-11.2998
▁demonstrates	-11.3003
ps	-11.3006
▁Xi	-11.3009
▁centuries	-11.3009
▁commodity	-11.3009
▁racism	-11.3009
▁Viertel	-11.3009
▁fundamentally	-11.3013
▁zwingen	-11.3017
governmental	-11.3018
▁zurzeit	-11.3018
▁Your	-11.3019
▁restricted	-11.3022
▁friedliche	-11.3022
▁supporters	-11.3027
▁Civil	-11.3027
▁Stück	-11.3027
▁Unterdrückung	-11.3027
▁Joint	-11.3028
▁innere	-11.3032
▁Vertretern	-11.3039
▁Service	-11.304
anlagen	-11.3044
▁Marokko	-11.3046
▁zwangsläufig	-11.3046
▁spite	-11.3046
leben	-11.3048
pri	-11.3048
ong	-11.3051
▁Verbrauchern	-11.3052
▁imposing	-11.3052
▁Somit	-11.3054
▁transform	-11.3054
▁disputes	-11.3055
▁modified	-11.3057
▁distance	-11.3064
▁Education	-11.3065
▁Hitler	-11.3065
▁beneficial	-11.3065
▁Gebäude	-11.3065
arten	-11.3066
▁regulated	-11.3072
▁Heimatland	-11.3075
▁Handlung	-11.3081
▁klarer	-11.3081
▁Beurteilung	-11.3083
▁Vielmehr	-11.3083
▁genauer	-11.3083
fallen	-11.3084
▁griechische	-11.3086
ären	-11.3087
▁joining	-11.3094
bu	-11.3095
tat	-11.3096
▁abandon	-11.3099
century	-11.3101
▁Missbrauch	-11.3102
▁nationalism	-11.3103
▁effizient	-11.3104
▁Vo	-11.3107
▁apparently	-11.311
▁geblieben	-11.311
▁Sein	-11.3111
▁constraints	-11.3118
▁Mar	-11.3119
▁gemeinsamer	-11.312
steht	-11.3121
▁Anbetracht	-11.3121
▁ratifiziert	-11.3121
▁visible	-11.3121
ny	-11.3122
▁returned	-11.3127
▁achievements	-11.3132
▁except	-11.3139
▁beschleunigen	-11.314
▁pact	-11.3141
▁Sehr	-11.3141
▁gebe	-11.3141
▁campaigns	-11.3144
▁Berufs	-11.3144
▁Partnern	-11.3144
▁Drei	-11.3144
▁declare	-11.3153
ländern	-11.3159
▁quick	-11.3159
▁dürften	-11.3165
▁drivers	-11.3166
chi	-11.3166
▁Tonnen	-11.317
▁predict	-11.3175
▁Frattini	-11.3178
▁Rechenschaft	-11.3178
▁foot	-11.3185
▁stick	-11.3189
▁herum	-11.3192
▁Derzeit	-11.3196
▁Madrid	-11.3197
▁begegnen	-11.3197
▁offenkundig	-11.3197
ARIS	-11.3197
▁gefährden	-11.3198
▁Mon	-11.3203
▁Home	-11.3204
▁ernste	-11.3205
▁Verfahrens	-11.3207
▁wars	-11.3209
uk	-11.321
▁Laeken	-11.3216
▁albeit	-11.3216
▁Abbas	-11.3216
▁expertise	-11.3216
▁claimed	-11.3219
▁einerseits	-11.3221
▁lacking	-11.3224
▁offizielle	-11.3224
entwicklung	-11.3226
▁drafted	-11.3226
▁dangers	-11.3229
▁subsequent	-11.3229
bre	-11.3231
▁heißen	-11.3231
reform	-11.3232
kauf	-11.3234
▁interne	-11.3235
▁beibehalten	-11.3235
▁ownership	-11.3235
▁überwachen	-11.3235
▁Nähe	-11.3235
▁jährlichen	-11.3237
▁erheben	-11.3239
▁begangen	-11.324
▁Importe	-11.3241
▁warmly	-11.3241
SA	-11.3247
▁WASHIN	-11.3254
▁anzuwenden	-11.3254
▁effizienter	-11.3255
ziehen	-11.3257
▁Verfasser	-11.326
▁participants	-11.3262
▁deadline	-11.3263
▁stem	-11.3266
tum	-11.3267
▁Assad	-11.3268
▁respects	-11.327
▁Universitäten	-11.3271
▁Bosnien	-11.3273
▁erörtern	-11.3273
▁Liebe	-11.3273
▁mehrfach	-11.3274
▁neo	-11.3274
▁dieselben	-11.3274
▁nehme	-11.3276
▁violation	-11.3282
▁Herkunft	-11.3283
▁publicly	-11.3283
arm	-11.3289
▁cells	-11.329
▁Peace	-11.3292
▁berufliche	-11.3292
▁Everyone	-11.3292
▁arm	-11.3292
▁opponents	-11.3292
power	-11.3293
▁acceptance	-11.3294
▁rejection	-11.3295
▁abgeben	-11.3295
▁puts	-11.3299
▁passenger	-11.3301
lau	-11.3302
▁gradual	-11.3305
einander	-11.3306
▁defeat	-11.3308
quality	-11.331
▁allmählich	-11.3311
▁leistet	-11.3311
Emissionen	-11.3312
▁supplementary	-11.3313
▁Dort	-11.3316
▁pan	-11.332
▁brachte	-11.3321
Ver	-11.3326
▁Heimat	-11.3326
▁erneuerbare	-11.3329
▁bar	-11.3329
▁Anhörung	-11.3329
▁verursachen	-11.333
▁Bureau	-11.333
▁spezifische	-11.3331
▁Chinesen	-11.3334
position	-11.3336
▁beschließen	-11.3337
hl	-11.3346
▁Ruf	-11.3349
▁anniversary	-11.3349
▁unverzichtbar	-11.3349
▁Gestaltung	-11.3351
▁advocate	-11.3353
▁Parliamentary	-11.3355
ef	-11.3357
▁component	-11.336
▁spezifischen	-11.336
▁cope	-11.3361
sebene	-11.3364
▁testing	-11.3364
▁Declaration	-11.3369
▁Google	-11.3369
▁Verwirklichung	-11.3369
▁disabled	-11.3369
▁widmen	-11.3369
▁Blut	-11.3369
▁broadly	-11.3369
▁stopped	-11.3369
▁solch	-11.3371
▁Test	-11.3372
▁passieren	-11.3373
▁quote	-11.3378
▁Kompromisse	-11.3378
▁Agenturen	-11.3383
▁ausländischen	-11.3384
▁sustain	-11.3385
schreitende	-11.3386
▁enttäuscht	-11.3388
▁Erde	-11.3388
▁Russen	-11.3388
▁kosten	-11.339
▁vorn	-11.3391
sprinzip	-11.3393
leistungen	-11.3394
richt	-11.3395
pol	-11.3397
▁investing	-11.3402
▁alongside	-11.3402
▁amend	-11.3403
▁cent	-11.3404
▁Werten	-11.3405
Jacques	-11.3407
▁necessity	-11.3407
▁versprochen	-11.3407
▁engagement	-11.3409
▁experiences	-11.3414
▁erlauben	-11.3415
lli	-11.3415
führung	-11.3415
▁marketing	-11.3416
▁Albania	-11.3417
▁Within	-11.3417
▁Kampagne	-11.3418
▁abolish	-11.3418
▁wave	-11.3419
vorschriften	-11.3421
bin	-11.3422
▁dahin	-11.3426
€	-11.3427
▁judge	-11.3428
▁Kulturen	-11.3429
▁Abov	-11.3429
▁reservations	-11.3429
▁abuses	-11.3429
▁friend	-11.343
▁Grundlagen	-11.3431
▁posed	-11.3432
treu	-11.3434
▁Leid	-11.3438
▁Vorsitzenden	-11.3442
▁Kind	-11.3445
▁Erarbeitung	-11.3446
▁Moscow	-11.3446
▁Geneva	-11.3446
▁Statt	-11.3447
▁begründet	-11.3448
Präsident	-11.3449
▁accused	-11.3449
▁na	-11.345
hal	-11.3455
▁schwach	-11.3456
▁riesige	-11.3456
▁pressing	-11.3457
▁presenting	-11.346
▁attend	-11.3464
▁Streit	-11.3466
▁Rassismus	-11.3466
mark	-11.3466
▁Stabilitäts	-11.3468
run	-11.3468
▁hence	-11.347
▁exclusively	-11.347
▁enge	-11.3475
▁traditions	-11.3477
▁slowly	-11.3478
▁Somalia	-11.3487
▁inclusive	-11.3489
▁responses	-11.3493
▁bill	-11.3495
▁Anträge	-11.3495
pan	-11.3495
▁sad	-11.3495
▁erneuerbaren	-11.3496
▁natürlichen	-11.3496
▁Anhänger	-11.3497
▁Afghan	-11.3505
▁Tschetschenien	-11.3505
▁clarification	-11.3505
▁justification	-11.3508
▁wünschenswert	-11.3509
hancengleichheit	-11.351
smitglieder	-11.3514
▁aufzu	-11.3515
▁ökologischen	-11.3518
▁confront	-11.3519
▁Beratungen	-11.3519
▁Bi	-11.3524
▁Beijing	-11.3524
▁Können	-11.3524
▁leverage	-11.3524
▁retirement	-11.3524
▁gesunde	-11.3533
▁sphere	-11.3536
▁error	-11.3536
set	-11.3537
ice	-11.3538
spiel	-11.3539
▁geopolitical	-11.3544
▁penalties	-11.3544
▁drafting	-11.3544
▁Bisher	-11.3544
▁disappointed	-11.3545
▁profitiert	-11.3545
▁Fassung	-11.3546
gas	-11.3546
▁effektiver	-11.3548
▁externen	-11.355
ves	-11.3553
smodell	-11.3554
▁größerer	-11.3554
▁protectionism	-11.3555
▁researchers	-11.356
tter	-11.3561
▁wert	-11.3562
▁disastrous	-11.3563
▁Political	-11.3563
▁Erinnerung	-11.3564
▁teuer	-11.3564
▁Errichtung	-11.3564
▁moralische	-11.3565
Vertrag	-11.3567
steuern	-11.3569
▁infolge	-11.3571
sprozesses	-11.3575
sprogramme	-11.3575
▁helps	-11.3577
▁permit	-11.3577
▁granting	-11.3581
▁command	-11.3583
▁defending	-11.3583
▁festlegen	-11.3584
▁Each	-11.3586
▁gelangt	-11.3588
▁westliche	-11.3588
▁Kalten	-11.359
▁vorhin	-11.3593
▁Beweise	-11.3599
▁Malaysia	-11.3603
▁Theorie	-11.3603
▁collection	-11.3604
▁Abe	-11.3605
teil	-11.3605
▁basiert	-11.3606
paket	-11.3606
▁suggestions	-11.3606
▁Emissions	-11.3612
▁ermutigen	-11.3613
räume	-11.3623
▁monopoly	-11.3623
▁holds	-11.3623
▁abstained	-11.3628
▁Law	-11.3631
▁Betriebe	-11.3632
▁vornehmen	-11.3633
▁delays	-11.3634
▁finish	-11.3634
▁preparations	-11.3635
▁Vorstellungen	-11.3637
ili	-11.3639
Fischereipolitik	-11.3641
▁roll	-11.3642
▁WHO	-11.3642
▁contributing	-11.3642
▁Could	-11.3642
treten	-11.3643
swachstum	-11.3645
▁perceived	-11.3645
▁kill	-11.3646
▁patient	-11.3649
▁annually	-11.3649
▁foster	-11.365
▁negativ	-11.3654
▁Services	-11.3654
▁reductions	-11.3655
▁Absichten	-11.3656
▁endeavour	-11.3656
ya	-11.3658
▁watch	-11.3661
▁consolidation	-11.3662
▁beantwortet	-11.3662
▁Among	-11.3663
▁zustande	-11.3663
▁meantime	-11.3664
▁Sogar	-11.3665
sofern	-11.3669
ziel	-11.3671
▁convince	-11.3676
▁prompt	-11.3677
▁painful	-11.368
▁commend	-11.3681
▁visited	-11.3682
▁Bewusstsein	-11.3682
▁Rußland	-11.3682
▁Though	-11.3682
▁gestaltet	-11.3682
▁smart	-11.3682
▁Spielraum	-11.3683
▁sichergestellt	-11.3683
Demokratisierung	-11.3685
▁Erkenntnisse	-11.3693
▁wise	-11.3697
▁guide	-11.3698
▁mittlere	-11.3698
▁Annan	-11.3701
fern	-11.3702
▁Folter	-11.3702
▁soweit	-11.3703
▁Funktionieren	-11.3704
ties	-11.3707
ement	-11.371
▁outcomes	-11.371
▁Stunde	-11.3713
kel	-11.3713
▁initially	-11.3715
▁covers	-11.3716
▁Osteuropa	-11.3716
▁Garantien	-11.3721
▁deflation	-11.3722
▁territories	-11.3722
▁vorliegt	-11.3722
▁Mittelmeerraum	-11.3722
▁Aufhebung	-11.3723
▁Sowohl	-11.3723
unk	-11.3723
▁basically	-11.3724
account	-11.3728
▁Einer	-11.3728
▁Wille	-11.373
▁minute	-11.373
▁relate	-11.373
▁verbreitet	-11.3731
▁forgotten	-11.3733
ausgaben	-11.3733
▁Fremdenverkehr	-11.3742
▁Vladimir	-11.3742
▁airports	-11.3742
▁Frist	-11.3744
▁outset	-11.3748
nde	-11.3751
▁enabled	-11.3753
▁listened	-11.3755
▁geeignet	-11.3757
▁niedrige	-11.3758
dra	-11.3761
▁wild	-11.3762
▁football	-11.3762
▁Autorität	-11.3762
▁Prävention	-11.3766
det	-11.3769
▁verwiesen	-11.377
losen	-11.377
▁conservative	-11.3771
▁Arbeitsgruppe	-11.3774
▁Go	-11.3775
▁escape	-11.3776
▁organise	-11.3776
▁du	-11.3777
▁gewiss	-11.3778
▁openly	-11.3778
ünde	-11.3782
▁benutzt	-11.3782
▁kümmern	-11.3782
▁silence	-11.3782
▁talent	-11.3782
▁verkauft	-11.3782
▁bewegt	-11.3783
▁efficiently	-11.3783
▁sharply	-11.3789
▁clearer	-11.3791
fälle	-11.3791
▁sex	-11.3792
ade	-11.3792
▁angemessenen	-11.3797
▁betrieben	-11.3798
▁isolation	-11.3799
sbeziehungen	-11.38
▁bedeutenden	-11.3801
▁Präsidium	-11.3802
▁Tunesien	-11.3802
▁eingeräumt	-11.3802
▁regulators	-11.3804
▁appointment	-11.3804
▁wahre	-11.3808
▁Keine	-11.3808
▁debts	-11.381
▁realistisch	-11.3814
▁Wissens	-11.3815
▁streng	-11.3815
▁emotional	-11.3817
▁solved	-11.3818
▁rechnen	-11.3819
▁Gefängnis	-11.3822
▁Would	-11.3822
▁Belastung	-11.3824
voll	-11.3824
▁Schon	-11.3825
▁Neue	-11.3827
▁arrived	-11.3828
Ebene	-11.3829
▁Barnier	-11.3843
▁Donnerstag	-11.3843
▁Finnish	-11.3843
▁minds	-11.3843
▁Chairman	-11.3843
▁permitted	-11.3843
gibt	-11.3845
▁Sri	-11.3849
▁durchsetzen	-11.3852
row	-11.3853
▁highlights	-11.3853
▁th	-11.3858
schrei	-11.386
val	-11.3862
▁acquis	-11.3863
▁rescue	-11.3863
▁confusion	-11.3863
▁fleet	-11.3865
▁bewiesen	-11.3868
▁dependence	-11.3873
▁jointly	-11.3873
▁strictly	-11.3874
▁dieselbe	-11.3875
▁Protest	-11.3877
▁israelische	-11.3878
▁observation	-11.3878
▁Standard	-11.3882
faktor	-11.3883
▁Volks	-11.3883
▁Assoziierung	-11.3883
▁autonomy	-11.3883
▁getötet	-11.3883
▁gäbe	-11.3883
▁richtet	-11.3883
▁verschaffen	-11.3884
▁heads	-11.3884
▁zer	-11.3884
▁berichtet	-11.3884
▁Technik	-11.3885
▁Erika	-11.3885
down	-11.3888
wissenschaftlich	-11.389
▁wirklichen	-11.3897
ht	-11.3903
▁Erwärmung	-11.3903
▁academic	-11.3903
▁knew	-11.3903
▁Lanka	-11.3903
▁congratulations	-11.3904
▁bedauern	-11.3904
▁verkaufen	-11.3904
▁Angela	-11.3909
struktur	-11.3911
▁Summe	-11.3911
▁muslimische	-11.3912
▁interventions	-11.3912
▁erwähnte	-11.3914
▁excess	-11.3917
cent	-11.3921
▁jährliche	-11.3922
▁deutlicher	-11.3923
▁produziert	-11.3924
▁caught	-11.3924
▁nominal	-11.3924
▁marine	-11.3924
▁beweisen	-11.3924
▁healthcare	-11.3926
▁Angriffe	-11.3931
▁Universität	-11.3937
▁elite	-11.394
▁Jahresbericht	-11.3941
hö	-11.3942
▁coast	-11.3942
zweck	-11.3943
▁Lu	-11.3944
▁creative	-11.3944
▁ideology	-11.3944
▁procurement	-11.3944
tik	-11.3945
▁bevorstehenden	-11.3946
▁Eurostat	-11.3947
▁Medikamente	-11.3948
▁Dass	-11.3948
▁Ölpreise	-11.3951
▁suit	-11.3956
▁disappear	-11.3956
▁Sitz	-11.3962
▁integrity	-11.3965
ification	-11.3968
▁socio	-11.3972
▁focusing	-11.3974
▁korrekt	-11.3975
punkte	-11.3976
▁underline	-11.3981
▁gewählten	-11.3982
▁Beitrittsländer	-11.3982
▁competences	-11.3982
▁einander	-11.3982
▁Neither	-11.3985
▁fought	-11.3985
▁hilft	-11.3985
▁Satz	-11.3985
▁Vi	-11.3986
▁Eis	-11.3987
▁leiten	-11.3991
▁einzig	-11.3995
▁denied	-11.3999
▁attract	-11.4001
zt	-11.4002
▁civilians	-11.4005
▁erläutern	-11.4006
▁reconciliation	-11.4006
▁struck	-11.4006
▁supervisor	-11.4006
▁bewahren	-11.4006
▁Tatsachen	-11.4007
▁sitzen	-11.4007
▁Hence	-11.401
▁explicitly	-11.401
▁acted	-11.4012
▁Citizens	-11.4012
gruppe	-11.4013
märkte	-11.4016
▁schließe	-11.4017
mus	-11.402
▁integrate	-11.402
▁entering	-11.4021
▁tangible	-11.4026
▁tribute	-11.4026
▁Gewerkschaften	-11.4026
▁laufenden	-11.4027
▁sites	-11.4028
▁wirtschafts	-11.4028
▁accordingly	-11.4029
▁invite	-11.4031
▁Kräften	-11.4033
sgruppen	-11.4035
ept	-11.4039
▁Vorlage	-11.4039
▁müsse	-11.4039
▁imported	-11.4041
▁Jedoch	-11.4047
▁scrutiny	-11.4047
▁Goals	-11.4047
▁Volkspartei	-11.4048
▁Zusammen	-11.4049
▁Automobil	-11.4049
▁bankers	-11.4052
▁präzise	-11.4056
▁Einzel	-11.4057
▁favourable	-11.4058
fu	-11.4059
▁Versuche	-11.4061
▁!	-11.4062
rd	-11.4067
▁Mazedonien	-11.4068
▁Infolgedessen	-11.4068
▁verhandeln	-11.4068
▁imply	-11.4068
▁überprüft	-11.4068
▁Teilnehmer	-11.4068
▁regionaler	-11.4069
▁Ideologie	-11.407
▁Ehre	-11.407
▁Tür	-11.4071
▁Ausbau	-11.4071
daten	-11.4075
▁ending	-11.4076
▁sold	-11.4079
▁Bu	-11.408
▁Wa	-11.408
▁gegenseitig	-11.408
▁Ban	-11.4084
▁demanded	-11.4084
▁white	-11.4084
▁Fach	-11.4085
▁definieren	-11.4088
▁vermieden	-11.4088
▁gebraucht	-11.4088
▁precedent	-11.4088
▁tonnes	-11.4088
▁interim	-11.4091
▁Eines	-11.4093
▁helpful	-11.4095
▁gingen	-11.4095
ants	-11.4095
▁poorer	-11.4099
▁internationally	-11.4099
▁friendly	-11.4102
▁harte	-11.4103
▁authoritarian	-11.4104
▁rare	-11.4104
▁Reaktionen	-11.4104
act	-11.4104
▁Spar	-11.4106
▁suggestion	-11.4108
▁touch	-11.4109
▁Gewährleistung	-11.4109
▁Bestimmung	-11.4112
▁chemicals	-11.4112
▁finanziell	-11.4112
▁Jugoslawien	-11.4114
falls	-11.412
▁Japans	-11.4121
▁sentence	-11.4121
ruf	-11.4122
▁fo	-11.4122
▁einfachen	-11.4124
▁bond	-11.4128
▁Verbündeten	-11.4129
▁Branche	-11.413
▁ELDR	-11.413
▁brain	-11.413
▁accessible	-11.4131
kommt	-11.4135
▁star	-11.4141
▁überraschend	-11.4141
▁billions	-11.4141
▁Bill	-11.4144
▁founded	-11.4144
▁spanische	-11.4147
▁Part	-11.4147
▁Fernsehen	-11.4147
▁pick	-11.4148
▁Jordan	-11.415
▁Übernahme	-11.415
▁Ausbeutung	-11.4151
▁Konvergenz	-11.4151
▁applicable	-11.4151
▁biodiversity	-11.4151
▁university	-11.4151
▁zwölf	-11.4151
▁Tourismus	-11.4152
▁write	-11.4153
lassen	-11.4154
▁backed	-11.4154
▁emission	-11.4154
▁Real	-11.4156
▁gewisser	-11.4156
▁derjenigen	-11.416
▁shortly	-11.4166
▁Nuklear	-11.4166
▁außergewöhnlich	-11.4168
erstattung	-11.4168
▁Rand	-11.4173
▁appeared	-11.4179
▁Tr	-11.4182
▁exceptions	-11.4183
▁Gesetzes	-11.4185
▁Spitze	-11.4185
▁aussehen	-11.4188
▁length	-11.4189
▁Verteidigungs	-11.419
▁employ	-11.419
▁super	-11.4192
▁Gebrauch	-11.4192
▁Stabilitätspakt	-11.4192
▁außenpolitische	-11.4193
smitglied	-11.4194
▁malaria	-11.4202
swert	-11.4207
▁pushing	-11.4211
▁damaging	-11.4213
▁Ausgang	-11.4215
▁warrant	-11.4217
sprogramm	-11.4219
▁beschrieben	-11.4223
▁machte	-11.4224
▁externe	-11.4228
▁Nobel	-11.4228
▁guaranteeing	-11.423
▁ähnlichen	-11.4231
▁Sha	-11.4234
▁Kürze	-11.4234
▁bekräftigt	-11.4234
▁pharmaceutical	-11.4234
▁läßt	-11.4236
▁Flüchtlingen	-11.4236
▁farms	-11.4241
▁dauern	-11.4244
▁Hafen	-11.4246
▁timely	-11.4248
▁Einwohner	-11.4249
üg	-11.4253
stellt	-11.4253
▁applicant	-11.4254
▁expanding	-11.4254
▁gekennzeichnet	-11.4255
▁prominent	-11.4255
▁zunehmenden	-11.4257
▁transnational	-11.4258
▁umgekehrt	-11.4259
tes	-11.4261
▁organisierte	-11.4261
▁fl	-11.4263
▁creditors	-11.4263
▁expressing	-11.4264
▁Zwecke	-11.4265
▁Si	-11.4266
▁Bürgerkrieg	-11.4266
▁threaten	-11.4267
▁ließ	-11.4269
▁italienische	-11.427
▁Runde	-11.427
▁arrive	-11.4271
▁ultimate	-11.4271
jährige	-11.4272
gl	-11.4273
▁gestattet	-11.4277
▁Planeten	-11.4277
▁Santer	-11.4277
▁Afrikas	-11.4292
▁Tätigkeiten	-11.4293
▁innocent	-11.4298
▁promising	-11.4298
▁remote	-11.4298
▁bereiten	-11.4298
▁aufrichtig	-11.4298
▁Gra	-11.4298
▁vereinbart	-11.4298
▁hierzu	-11.4298
▁Kapitalismus	-11.43
▁Ausführung	-11.4303
▁Kompetenz	-11.4303
▁dramatisch	-11.4304
▁normalen	-11.4306
▁sports	-11.4308
▁verbindliche	-11.4313
ski	-11.4315
▁akzeptabel	-11.4319
▁dominant	-11.4319
▁gehabt	-11.4319
▁pipeline	-11.4323
▁volume	-11.4333
▁fix	-11.4339
▁Mauer	-11.434
▁schien	-11.4345
▁einnehmen	-11.4346
▁ordnungsgemäß	-11.4346
▁Meinungen	-11.4349
▁sicherer	-11.435
▁befürworte	-11.435
▁Direkt	-11.4352
istic	-11.4354
▁cultures	-11.4355
lat	-11.436
▁returns	-11.4361
▁Street	-11.4361
▁Ri	-11.4362
▁egal	-11.4362
▁accepting	-11.4364
funktion	-11.4366
▁enger	-11.4367
▁Bri	-11.4369
▁borrowing	-11.4374
class	-11.4376
▁schwedische	-11.4377
▁advances	-11.4378
▁welcomes	-11.4379
▁Null	-11.4381
▁Palacio	-11.4383
▁Poettering	-11.4383
▁freut	-11.4383
▁gebilligt	-11.4383
▁integral	-11.4383
▁geteilt	-11.4383
▁Viertens	-11.4383
▁precautionary	-11.4383
▁repression	-11.4383
▁Datenschutz	-11.4383
▁vorsieht	-11.4385
▁lowest	-11.4387
ast	-11.439
▁Fußball	-11.4396
▁gelassen	-11.4402
▁Programmen	-11.4403
▁falschen	-11.4404
▁Konkurrenz	-11.4404
▁Fernseh	-11.4408
unwahrscheinlich	-11.4411
region	-11.4416
Ländern	-11.442
regelung	-11.442
▁Betrieb	-11.4421
▁schlimmsten	-11.4421
▁weakness	-11.4421
▁atmosphere	-11.4426
▁erinnere	-11.4426
▁Regionalpolitik	-11.4427
▁Pakt	-11.4428
bewegung	-11.4429
wie	-11.443
▁observe	-11.443
▁providers	-11.4432
▁Anlage	-11.4433
▁meaningful	-11.4436
▁Far	-11.4437
▁mix	-11.4439
lecommunications	-11.4439
▁features	-11.4441
santräge	-11.4443
kapital	-11.4445
versicherung	-11.4446
▁mother	-11.4447
▁Estonia	-11.4447
▁angeboten	-11.4447
▁Währungsfonds	-11.4448
sniveau	-11.4448
▁threatening	-11.445
▁Aussagen	-11.445
▁pain	-11.4453
▁Meeres	-11.4454
▁Import	-11.4465
▁items	-11.4465
▁strenge	-11.4465
tun	-11.4468
▁Werbung	-11.4468
▁pilot	-11.4468
▁yourself	-11.4468
▁IGC	-11.4468
▁nachhaltig	-11.4473
aw	-11.4479
▁hinein	-11.4482
▁character	-11.4489
The	-11.4489
▁workforce	-11.4492
▁geplant	-11.4493
ellen	-11.45
förderung	-11.45
▁erwähnten	-11.45
▁postal	-11.4504
▁satisfaction	-11.4512
▁erzeugt	-11.4512
▁lesen	-11.4513
▁Gläubiger	-11.4513
zugeben	-11.4513
▁momentum	-11.4517
▁Republican	-11.4518
▁zieht	-11.4521
tech	-11.4524
▁gegenseitigen	-11.4526
▁gefährlichen	-11.4531
▁soil	-11.4531
bekämpfung	-11.4533
▁Inkrafttreten	-11.4533
▁Myanmar	-11.4533
▁Slowakei	-11.4533
▁aufgebaut	-11.4533
▁comparable	-11.4534
▁Nationalismus	-11.4536
EM	-11.4536
▁Drittstaaten	-11.4538
▁Besitz	-11.454
▁Kauf	-11.4541
▁breiten	-11.4542
▁telling	-11.4545
▁Schätzungen	-11.4546
▁Genf	-11.4546
▁tiefer	-11.4549
▁incorporate	-11.4549
▁coordinate	-11.4549
▁realen	-11.4549
▁unanimous	-11.4549
llen	-11.455
▁Umstände	-11.4551
▁Statistiken	-11.4552
▁tatsächlichen	-11.4552
sum	-11.4554
▁Konzentration	-11.4555
▁electorate	-11.4555
▁tolerance	-11.4555
▁Entschädigung	-11.4555
▁Standpunkte	-11.4557
▁distributed	-11.4557
ckt	-11.4557
aff	-11.456
▁zugelassen	-11.4562
mut	-11.4562
▁Süd	-11.4563
lia	-11.4569
will	-11.4572
▁Insofern	-11.4573
▁plus	-11.4576
▁Kein	-11.4578
▁Ansätze	-11.4579
nahme	-11.4579
▁Deutschlands	-11.458
▁aufgestellt	-11.4581
brechen	-11.4581
▁Allein	-11.4583
how	-11.4585
uff	-11.4586
▁abgesehen	-11.4586
▁Konvention	-11.459
▁Cameron	-11.4598
▁Gegenwärtig	-11.4598
▁transit	-11.4599
▁Board	-11.4599
▁railway	-11.46
▁motor	-11.4602
▁wachsen	-11.4604
▁borrow	-11.4606
▁vorhandenen	-11.4607
▁klein	-11.4614
▁problematic	-11.462
▁marginal	-11.4622
gue	-11.4626
▁Prozeß	-11.4627
▁Währungen	-11.4627
▁decent	-11.463
nce	-11.4631
▁location	-11.4633
intensive	-11.4634
▁embrace	-11.4636
▁Schwäche	-11.4637
org	-11.4639
▁Please	-11.4642
▁simplification	-11.4642
▁shock	-11.4644
▁socialist	-11.4645
▁dumping	-11.4647
▁anstreben	-11.465
▁differently	-11.4654
▁Vorbild	-11.466
▁angenommenen	-11.4663
ehr	-11.4663
▁Ärzte	-11.4664
▁Kernenergie	-11.4664
▁authorisation	-11.4665
▁broken	-11.4666
▁Mehrwert	-11.4666
▁unterliegen	-11.4667
▁wirken	-11.4671
tern	-11.4674
▁section	-11.4675
▁Day	-11.4675
▁exclude	-11.468
▁killing	-11.468
▁technologische	-11.4681
▁pose	-11.4683
sy	-11.4686
▁Litauen	-11.4686
▁Vordergrund	-11.4686
▁devastating	-11.4686
▁rigid	-11.4686
▁langer	-11.4686
▁Fin	-11.469
▁Wunder	-11.4693
▁Egyptian	-11.4693
▁presentation	-11.4694
▁Vertrauens	-11.4694
▁Wäre	-11.4694
▁natürliche	-11.4702
ett	-11.4702
▁Keynes	-11.4707
▁schwerer	-11.4707
▁Kombination	-11.4708
▁dossier	-11.4708
aufrechterhalten	-11.4708
produkte	-11.4709
▁ko	-11.4721
▁uncertain	-11.473
▁coherence	-11.473
▁undermining	-11.473
▁Finanzen	-11.4731
ria	-11.4732
▁invested	-11.4732
▁enterprise	-11.4732
▁Kar	-11.4733
▁revealed	-11.4735
rank	-11.4737
sfragen	-11.4737
▁inner	-11.4741
▁blow	-11.4744
ying	-11.4744
▁schlage	-11.4745
▁vorrangig	-11.4745
schluss	-11.4747
▁Kompetenzen	-11.4749
▁streets	-11.4752
▁Chaos	-11.4753
▁Ausbruch	-11.4753
▁doctors	-11.4754
oren	-11.4754
▁Monopol	-11.476
▁Za	-11.4762
▁verschiedener	-11.4763
St	-11.4767
▁ergänzen	-11.477
werte	-11.4773
liste	-11.4774
▁Mubarak	-11.4775
▁Switzerland	-11.4775
▁champion	-11.4775
▁compatible	-11.4775
▁Übertragung	-11.4775
▁verbieten	-11.4775
▁Vorfeld	-11.4776
▁alt	-11.4778
▁Schlag	-11.4785
▁Hoffnungen	-11.4794
▁deny	-11.4795
▁declining	-11.4797
▁tremendous	-11.4797
▁defining	-11.4797
▁solar	-11.4797
▁herzustellen	-11.4798
gebiet	-11.4801
▁endgültigen	-11.4802
tage	-11.4805
sbericht	-11.4806
▁Konflikten	-11.4807
wahl	-11.4808
ient	-11.4809
▁undertakings	-11.4811
▁reporting	-11.4815
▁Start	-11.4816
sverfahrens	-11.4816
forschung	-11.4817
▁Guinea	-11.4819
▁Präsenz	-11.4819
▁genießen	-11.4819
▁kostet	-11.4819
▁Business	-11.4819
▁essence	-11.482
▁camps	-11.482
▁enlarged	-11.482
▁Team	-11.4822
▁vehicle	-11.4822
▁durchgesetzt	-11.4824
▁Diplomatie	-11.4827
▁Har	-11.4827
stände	-11.4828
▁Reich	-11.483
▁Jugendlichen	-11.4834
▁card	-11.4836
▁accurate	-11.4836
▁Führungs	-11.4837
Arabien	-11.4839
▁interessant	-11.4839
▁Ostsee	-11.4841
kultur	-11.4841
▁Moskau	-11.4841
▁zielt	-11.4842
▁bigger	-11.4843
▁love	-11.4844
▁Legislativ	-11.4844
Sch	-11.4845
▁Vertrages	-11.4849
▁Mark	-11.485
ez	-11.4851
▁Befürworter	-11.4852
lor	-11.4852
▁buying	-11.4852
▁eventuell	-11.4853
▁Aspekten	-11.4854
▁commission	-11.4855
▁ansehen	-11.4856
▁Ki	-11.4857
▁gewaltige	-11.4858
▁medicine	-11.4859
werten	-11.4862
▁corrupt	-11.4863
▁agrees	-11.4864
▁Erdöl	-11.4864
▁QE	-11.4864
kla	-11.4866
▁perform	-11.4867
▁stations	-11.4869
▁erstellt	-11.487
back	-11.4875
▁processing	-11.4879
▁interessante	-11.488
▁eigentliche	-11.4881
Gesundheitswesen	-11.4883
▁Politikern	-11.4884
▁Albanien	-11.4886
▁anywhere	-11.4886
▁consent	-11.4886
▁drastisch	-11.4886
▁Centre	-11.4887
gekommen	-11.4887
▁zeitlich	-11.4888
▁Beschwerden	-11.4889
sis	-11.489
▁IT	-11.4892
▁Sal	-11.4892
▁empfehlen	-11.4894
▁alarming	-11.4898
▁functions	-11.4899
▁Fortsetzung	-11.4903
▁rufen	-11.4908
▁erleichtert	-11.4909
▁respektiert	-11.4909
▁straight	-11.4909
▁vorzunehmen	-11.4909
▁whatsoever	-11.4909
▁zerstören	-11.4909
▁Pack	-11.4911
▁systematisch	-11.4911
▁minor	-11.4911
▁hervorragenden	-11.4918
▁compromises	-11.4919
netz	-11.4922
güter	-11.4928
▁Whether	-11.4931
▁beurteilen	-11.4931
▁measured	-11.4935
▁conviction	-11.4935
▁Proteste	-11.4936
▁schön	-11.4937
▁examination	-11.4939
▁Mao	-11.494
put	-11.4942
netze	-11.4944
▁einhalten	-11.4945
lum	-11.4946
raten	-11.4946
▁principal	-11.4948
▁geringen	-11.495
▁legacy	-11.4954
▁reputation	-11.4954
▁stattdessen	-11.4954
▁supranational	-11.4955
präsidenten	-11.4956
wand	-11.4957
▁Arm	-11.4958
▁recover	-11.4974
▁punishment	-11.4977
▁Produkten	-11.498
▁Tendenz	-11.4982
▁par	-11.4984
▁mu	-11.4988
▁Sicherheitsrat	-11.499
▁bearing	-11.4993
halt	-11.4997
▁Vertretung	-11.4999
▁categories	-11.4999
▁gelernt	-11.4999
▁besagt	-11.4999
kin	-11.5
▁contacts	-11.5002
▁Kapazitäten	-11.5003
▁Solang	-11.5004
▁Beratung	-11.5005
▁sah	-11.5006
▁subsequently	-11.5006
▁reinforced	-11.5008
ological	-11.501
▁Diktatur	-11.5012
▁assumed	-11.5012
▁globally	-11.502
▁Erdoğan	-11.5022
▁slowdown	-11.5022
▁Dafürhalten	-11.5022
wachsen	-11.5024
▁confrontation	-11.5026
▁bomb	-11.5026
▁pressures	-11.5031
▁unnötig	-11.5041
▁jurisdiction	-11.5041
risiko	-11.5043
▁Folglich	-11.5044
▁sympathy	-11.5044
▁wrote	-11.5044
▁representing	-11.505
selbe	-11.5057
US	-11.5058
▁mittel	-11.5058
▁Arbeitszeit	-11.506
▁ähnlicher	-11.5062
▁capabilities	-11.5067
▁umstritten	-11.5067
gra	-11.5069
▁argumentieren	-11.507
▁bewaffnete	-11.507
oriented	-11.5071
▁Schwächen	-11.5073
▁glaubt	-11.5073
▁praktischen	-11.5076
▁communist	-11.5077
▁newly	-11.5078
oo	-11.5078
▁Demokratische	-11.5083
▁Fehlen	-11.5085
▁Ebenen	-11.5086
▁Häuser	-11.509
▁übertrieben	-11.509
▁exit	-11.5093
▁suddenly	-11.5094
▁perspectives	-11.5098
▁steigende	-11.5099
▁Konflikts	-11.5099
▁Nazi	-11.5099
▁assured	-11.5103
▁Einzelnen	-11.5107
▁adequately	-11.5107
▁insofern	-11.5108
▁God	-11.5112
▁Ernennung	-11.5113
▁Insgesamt	-11.5113
▁epidemic	-11.5113
▁resolving	-11.5113
▁Single	-11.5113
▁names	-11.5114
▁religiöse	-11.5115
▁chapter	-11.5119
▁Eigentum	-11.5119
rig	-11.5122
öl	-11.5123
▁entrepreneurs	-11.5124
▁Mengen	-11.5124
▁Wind	-11.5128
▁appointed	-11.5129
▁erzielten	-11.5131
▁eingestellt	-11.5133
▁Zulassung	-11.5134
▁monitored	-11.5134
▁Indem	-11.5135
▁GVO	-11.5136
▁Guantánamo	-11.5136
▁Industry	-11.5136
▁Kohärenz	-11.5136
▁Protektionismus	-11.5136
▁Swoboda	-11.5136
▁Peking	-11.5136
zin	-11.5137
▁sincerely	-11.5141
lon	-11.5141
▁verhalten	-11.5142
▁übrig	-11.5145
▁Lebensstandard	-11.5148
▁niedrigere	-11.515
▁gespielt	-11.5151
▁input	-11.5154
q	-11.5156
lk	-11.5158
▁Lockerung	-11.5159
▁klären	-11.5159
▁organisieren	-11.5159
▁arising	-11.5159
▁liberalization	-11.5161
ntergovernmental	-11.5165
▁traditionelle	-11.5168
agentur	-11.5168
▁worthy	-11.517
Haushaltsdefizit	-11.5172
▁stakeholders	-11.5172
▁blieb	-11.5173
▁responded	-11.5176
▁overwhelming	-11.5178
▁Frankreichs	-11.518
▁Culture	-11.5182
▁conservation	-11.5182
▁geschafft	-11.5182
Veröffentlichung	-11.5182
▁überlegen	-11.5182
▁leidet	-11.5183
▁ungeachtet	-11.5183
▁obstacle	-11.5189
▁ausreichen	-11.5192
▁medizinische	-11.5192
▁finanzieller	-11.5196
mangel	-11.5197
▁criminals	-11.5199
ther	-11.5201
▁lend	-11.5202
▁Autos	-11.5205
▁alike	-11.5205
▁König	-11.5205
▁nowadays	-11.5205
▁perception	-11.5205
▁unanimity	-11.5205
▁Kontakte	-11.5207
▁freilich	-11.5208
gelegt	-11.5209
grund	-11.5211
▁secondary	-11.5212
▁weaknesses	-11.5212
▁acknowledged	-11.5218
▁arrested	-11.5218
eu	-11.5219
▁nationalist	-11.5219
▁Quellen	-11.522
▁engagiert	-11.5222
▁stabile	-11.5226
▁dark	-11.5226
▁catastrophe	-11.5229
▁erkennbar	-11.5229
▁pragmatic	-11.5229
▁zügig	-11.5229
▁Baroness	-11.5229
▁Inseln	-11.5229
zeiten	-11.5229
▁ständigen	-11.523
are	-11.523
▁fertig	-11.5233
▁bedeutsam	-11.5235
▁devoted	-11.5235
▁arrangement	-11.5235
▁Mutter	-11.5237
▁steigenden	-11.5238
▁Betroffenen	-11.5238
▁Sozialdemokrat	-11.5242
▁angehen	-11.5249
▁beglückwünsche	-11.525
▁regeln	-11.5251
à	-11.5252
▁congratulating	-11.5252
▁easing	-11.5252
▁steckt	-11.5252
minister	-11.5253
▁motions	-11.5254
ons	-11.5256
▁preventive	-11.5257
▁ruled	-11.5257
▁economist	-11.5259
▁wirkt	-11.5261
wettbewerbsfähig	-11.5261
▁combine	-11.5262
▁Lehre	-11.5265
▁Zahlung	-11.5269
▁Statute	-11.5269
▁Immobilien	-11.5273
▁Gut	-11.5274
▁Posselt	-11.5275
▁berichten	-11.5276
▁Juden	-11.5277
▁hot	-11.5281
dis	-11.5283
▁Trumps	-11.5284
kar	-11.5287
▁expanded	-11.5289
▁Höchst	-11.529
▁Symbol	-11.5292
▁cease	-11.5292
▁adhere	-11.5293
▁Verordnungen	-11.5297
▁stood	-11.5299
▁Jews	-11.5299
▁CIA	-11.5299
▁Sichtweise	-11.5299
▁fürchte	-11.53
▁declarations	-11.5301
gestellt	-11.5302
▁Griechenlands	-11.5302
▁offiziell	-11.5303
lan	-11.5308
▁Mas	-11.5312
zulegen	-11.5313
regelungen	-11.5314
▁Ratsvorsitzes	-11.5315
▁chair	-11.5318
▁Tri	-11.5319
▁stärkeren	-11.5322
vermögen	-11.5322
▁heutzutage	-11.5322
▁niederländische	-11.5322
mäßig	-11.5323
▁Mitbürger	-11.5323
▁beizutragen	-11.5325
▁türkische	-11.5326
▁inhabitants	-11.5328
▁geholfen	-11.5332
▁ratify	-11.5332
▁euros	-11.5333
▁onto	-11.5334
▁werte	-11.5335
▁Ernährung	-11.5335
▁faire	-11.5336
test	-11.534
▁Chef	-11.5343
▁employed	-11.5344
pla	-11.5344
▁Material	-11.5345
▁fault	-11.5345
▁prerequisite	-11.5345
▁satisfy	-11.5345
▁Cotonou	-11.5345
▁Nepal	-11.5345
▁Countries	-11.5345
▁abhängen	-11.5346
▁Bevor	-11.5348
▁schlechten	-11.535
▁starkes	-11.5351
▁fehlen	-11.5351
▁Hinweise	-11.5352
▁Optionen	-11.5353
smittel	-11.5359
▁offices	-11.5362
▁schlicht	-11.5369
▁Geschwindigkeit	-11.5369
▁Latvia	-11.5369
▁closure	-11.5369
▁wisdom	-11.5369
▁erstmals	-11.5369
▁Reichtum	-11.5369
▁Sharon	-11.5369
isse	-11.5372
Bürger	-11.5373
▁complement	-11.5373
▁rarely	-11.5375
▁Redezeit	-11.5376
In	-11.5377
▁fairer	-11.5377
▁diesbezügliche	-11.5377
▁undertaking	-11.5379
▁Akt	-11.538
▁überleben	-11.5384
▁enforce	-11.5385
▁seat	-11.5386
▁Hat	-11.5387
▁satellite	-11.5393
▁verschärfen	-11.5393
▁Überarbeitung	-11.5393
▁gewöhnlich	-11.5393
▁genetically	-11.5393
▁coastal	-11.5395
▁Tony	-11.5397
▁Wohl	-11.5398
▁dauerhafte	-11.5398
▁generated	-11.5403
▁donor	-11.5403
▁beitreten	-11.5403
▁serves	-11.5407
▁gewählte	-11.5413
▁Wesen	-11.5414
▁Solidarity	-11.5416
▁closing	-11.5416
▁strange	-11.5416
fach	-11.5419
▁Dokumenten	-11.542
▁erforderliche	-11.5422
▁kompliziert	-11.5426
fahren	-11.5426
▁III	-11.5429
▁Abstimmungen	-11.543
▁entail	-11.5431
ending	-11.5433
▁existieren	-11.5435
gebiete	-11.5435
▁split	-11.5435
itz	-11.5436
▁zulässig	-11.5437
▁Fl	-11.5437
▁Niederlande	-11.5438
▁japanischen	-11.5439
tieren	-11.544
▁Annäherung	-11.544
í	-11.544
▁steel	-11.544
Rechtsvorschrift	-11.5441
▁vary	-11.5441
▁bauen	-11.5441
▁owe	-11.5441
▁Film	-11.5442
▁Appell	-11.5444
▁earn	-11.545
▁Sahara	-11.5453
▁Lernen	-11.5458
▁Linken	-11.5458
▁western	-11.5459
▁wenigsten	-11.5459
konferenz	-11.546
szusammenarbeit	-11.5464
▁EMU	-11.5464
▁memory	-11.5464
▁unklar	-11.5464
▁weapon	-11.5467
▁erarbeiten	-11.5471
▁strengere	-11.5473
stru	-11.5473
Abkommen	-11.5479
▁harder	-11.548
cal	-11.5487
▁Gulf	-11.5487
▁journey	-11.5487
▁Big	-11.5488
▁organic	-11.5488
▁Naturally	-11.5489
policy	-11.5493
▁uses	-11.5493
▁fifth	-11.5493
▁consulted	-11.5494
▁hielt	-11.5495
ram	-11.5496
▁borne	-11.5497
▁City	-11.5499
▁film	-11.5499
▁potenziell	-11.5506
▁kon	-11.5508
▁systematic	-11.5511
▁energisch	-11.5511
▁impressive	-11.5511
▁Johannesburg	-11.5511
▁schenken	-11.5511
▁Luftfahrt	-11.5511
▁Hände	-11.5512
carbon	-11.5517
▁observations	-11.5517
▁expert	-11.5521
▁Freedom	-11.5521
ath	-11.5521
▁Cor	-11.5522
▁innovations	-11.5523
▁characteristics	-11.5524
▁shame	-11.5525
▁genaue	-11.5532
gesetz	-11.5532
▁impetus	-11.5535
▁twentieth	-11.5535
▁displaced	-11.5536
▁praise	-11.5538
▁describe	-11.5539
▁täglich	-11.5543
▁bubble	-11.5545
▁Überdi	-11.5547
▁pays	-11.5548
▁tri	-11.555
▁Ehe	-11.5551
▁Stabilisierung	-11.5553
▁ethnischen	-11.5554
▁marks	-11.5556
rechts	-11.5557
▁fiel	-11.5557
▁zwanzig	-11.5557
▁Australia	-11.5558
▁lehnen	-11.5559
▁Ukrainian	-11.5559
▁vereinfacht	-11.5559
▁Schreiben	-11.5559
▁Hinter	-11.556
▁statute	-11.556
▁inhaltlich	-11.556
▁partnerships	-11.5561
▁asiatischen	-11.5562
▁erweitert	-11.5563
fass	-11.5563
▁Finanzsektor	-11.5565
▁conventions	-11.5566
▁gesichert	-11.5568
heben	-11.5568
▁Freund	-11.5574
Strukturreformen	-11.5575
▁anhaltende	-11.5576
pre	-11.5578
▁Unserer	-11.558
▁mittels	-11.558
▁signing	-11.5582
▁ECHO	-11.5583
▁barely	-11.5583
▁assessments	-11.5584
▁kurzfristige	-11.5584
▁oberste	-11.5584
▁anbieten	-11.5588
▁Herrschaft	-11.5589
▁customers	-11.5589
▁gesetzliche	-11.559
iederherstellung	-11.5591
▁platform	-11.5593
▁forecast	-11.5594
ER	-11.5594
▁associations	-11.5596
▁glaubwürdig	-11.56
▁bewußt	-11.5604
▁Criminal	-11.5607
▁Schottland	-11.5607
▁gegründet	-11.5607
▁Konsumenten	-11.5607
▁perfekt	-11.5607
▁automatically	-11.5608
▁concessions	-11.561
▁o	-11.5613
▁vorgebracht	-11.5614
eb	-11.5619
ix	-11.562
▁toxic	-11.5621
▁Ju	-11.5621
▁potenzielle	-11.5621
lam	-11.5622
Mitglieder	-11.5628
effekt	-11.563
srahmen	-11.5631
▁Angola	-11.5632
▁Wälder	-11.5632
gebieten	-11.5632
▁Costa	-11.5632
▁Against	-11.5633
▁purchase	-11.5636
▁harmonised	-11.5636
▁typically	-11.5636
chten	-11.5637
▁Opfern	-11.5639
▁Miss	-11.5639
tz	-11.564
▁survey	-11.5642
▁accountable	-11.5642
▁stammen	-11.5647
))	-11.5648
▁producer	-11.565
▁railways	-11.5655
▁Governments	-11.5655
▁beeinträchtigt	-11.5656
▁participating	-11.5656
▁EVP	-11.5656
▁beschleunigt	-11.5656
▁Wahrung	-11.5656
Ma	-11.5657
▁bedenken	-11.5658
▁Governance	-11.5662
▁fashion	-11.5664
▁kritisch	-11.5666
▁gases	-11.5667
▁concentrated	-11.5667
▁remark	-11.5668
▁Verhältnisse	-11.5676
▁festen	-11.5676
▁Kommunikations	-11.5678
▁pursuit	-11.568
▁Übereinkunft	-11.568
▁Herbst	-11.568
▁ha	-11.568
▁stringent	-11.568
▁Brief	-11.5681
▁Fahrzeuge	-11.5685
let	-11.5686
Abstimmung	-11.5687
sführung	-11.5689
▁Verzögerung	-11.569
Haushalt	-11.5691
▁advocates	-11.5692
▁Wor	-11.5695
▁earth	-11.5696
▁Steuerung	-11.5696
▁corporations	-11.5698
pos	-11.5699
▁hohes	-11.5701
▁ausgewogenen	-11.5701
▁zukommen	-11.5702
▁nieder	-11.5704
▁Einwände	-11.5704
▁Könnte	-11.5704
▁Three	-11.5704
▁Verlängerung	-11.5704
▁bewertet	-11.5705
▁persistent	-11.5705
branche	-11.5706
▁successor	-11.571
▁Geber	-11.5712
▁überdenken	-11.5712
Krise	-11.5712
fassung	-11.5713
▁längst	-11.5715
▁Einfuhr	-11.5715
everal	-11.5715
▁indication	-11.5716
Ko	-11.5718
amt	-11.5724
▁gründlich	-11.5724
▁Anwesenheit	-11.5727
▁persuade	-11.5729
▁Prestige	-11.5729
▁realize	-11.5729
▁selling	-11.5729
▁veto	-11.5729
▁restrictive	-11.573
verschmutzung	-11.573
alter	-11.5733
▁Pfeiler	-11.5736
▁liked	-11.5737
▁invited	-11.5739
▁judges	-11.574
ran	-11.5741
▁schätzen	-11.5745
▁Traum	-11.5747
▁wertvolle	-11.5749
zugehen	-11.575
▁desired	-11.5751
▁fairen	-11.5752
▁Flughäfen	-11.5753
▁Unlike	-11.5754
ausschuß	-11.5756
▁Zeitalter	-11.5756
▁produzieren	-11.5759
▁aufgeworfen	-11.5759
▁indicates	-11.5764
▁limiting	-11.5766
srate	-11.5767
ET	-11.5769
wer	-11.5776
▁Sunni	-11.5776
▁Herz	-11.5776
▁Nachmittag	-11.5778
▁Gleichwohl	-11.5778
▁abzielen	-11.5778
▁damalige	-11.5778
▁gewachsen	-11.5779
▁listening	-11.5779
▁findings	-11.578
▁initiated	-11.5782
schau	-11.5784
Christian	-11.5786
▁Betriebs	-11.5787
▁experiment	-11.5787
▁undermined	-11.5791
▁endorsed	-11.5794
▁genetisch	-11.5801
▁Kommunismus	-11.5802
▁mandatory	-11.5802
▁verhängt	-11.5802
▁title	-11.5802
▁Parlamentarier	-11.5802
▁gemessen	-11.5802
▁geklärt	-11.5802
▁amending	-11.5803
▁sole	-11.5805
▁Change	-11.5808
debate	-11.5811
▁glücklich	-11.5813
▁channel	-11.5814
shaushalt	-11.5818
▁konstruktiven	-11.5825
alität	-11.5826
aries	-11.5827
▁convey	-11.5827
▁vague	-11.5827
▁Erdgas	-11.5827
▁verzichten	-11.5827
▁calm	-11.5827
vorschlag	-11.5828
lig	-11.5828
ilt	-11.5831
▁propaganda	-11.5834
▁staatlicher	-11.5837
▁umgehend	-11.5838
▁abandoned	-11.5838
▁intensiv	-11.5838
▁Gleiche	-11.5839
▁ökologische	-11.584
▁emergenc	-11.584
▁j	-11.5841
▁strikes	-11.5841
▁Ersatz	-11.5843
▁enjoyed	-11.5844
zubringen	-11.5845
▁safer	-11.5845
▁polls	-11.5845
▁Zuständigkeiten	-11.5846
▁organisiert	-11.5847
▁Tra	-11.5847
▁lokaler	-11.5848
▁Friday	-11.5852
▁Ausgangspunkt	-11.5852
▁Rückzug	-11.5852
▁multilateralen	-11.5852
▁isolated	-11.5854
gegangen	-11.5854
▁genocide	-11.5854
▁Ch	-11.5855
▁Vermögenswerte	-11.5856
▁Bra	-11.586
att	-11.5861
▁einzuhalten	-11.5866
ments	-11.5867
▁Jahrestag	-11.5868
▁mine	-11.587
ular	-11.5872
▁paradox	-11.5876
▁Wachstumspakt	-11.5876
▁Rechtsrahmen	-11.5879
▁Grundsätzen	-11.5881
▁Kritiker	-11.5882
▁Bildungs	-11.5883
▁Saal	-11.5885
tlich	-11.5885
▁Projekten	-11.5888
▁simplify	-11.5888
▁incident	-11.5889
▁komplexe	-11.5889
▁pattern	-11.5889
kette	-11.589
▁cheaper	-11.5897
▁Werk	-11.5898
disziplin	-11.5901
▁Castro	-11.5901
▁ausgestattet	-11.5901
▁zurückkehren	-11.5901
▁inquiry	-11.5901
▁Effektivität	-11.5901
▁Good	-11.5901
▁repressive	-11.5901
▁systemic	-11.5903
▁activists	-11.5903
▁coverage	-11.5903
▁dominated	-11.5906
verkehrs	-11.5907
▁wirksamer	-11.5908
▁friedlichen	-11.5915
▁einsetzt	-11.5917
▁potenziellen	-11.5918
▁weaker	-11.5918
▁qualifications	-11.5919
▁Erwerb	-11.5919
voller	-11.5922
▁covering	-11.5924
▁bi	-11.5925
▁Through	-11.5926
▁verschwinden	-11.5926
▁verwirklichen	-11.5926
sammenzuarbeiten	-11.5926
▁personnel	-11.5931
▁Darauf	-11.5932
▁evaluate	-11.5933
▁mixed	-11.5936
▁Einschränkungen	-11.5936
▁führten	-11.5939
▁flight	-11.594
▁uphold	-11.5942
jährigen	-11.5942
▁distinguish	-11.5943
▁Menschenhandel	-11.5946
net	-11.595
▁heran	-11.595
▁Diejenigen	-11.5951
▁voranzutreiben	-11.5951
▁Wallström	-11.5951
▁sofortige	-11.5952
▁Händen	-11.5952
▁Men	-11.5953
▁attitudes	-11.5953
▁alarm	-11.5954
▁moves	-11.5955
▁ausgearbeitet	-11.5956
▁democratically	-11.5956
▁Alkohol	-11.5957
ust	-11.5958
▁erwarte	-11.5961
▁requir	-11.5963
▁player	-11.5963
▁Beschäftigten	-11.5963
tive	-11.5966
▁Beitritts	-11.5968
▁Tourism	-11.5975
▁Netto	-11.5976
▁gesunken	-11.5976
▁Beschluß	-11.5976
▁japanische	-11.5977
vereinbarung	-11.5978
▁runs	-11.5981
▁outlined	-11.5981
▁Schweiz	-11.5986
▁sums	-11.5986
▁massiven	-11.5986
▁Gesprächen	-11.5989
▁ceiling	-11.599
▁merit	-11.599
▁Förder	-11.599
▁begreifen	-11.5991
▁Hindernis	-11.5991
▁standen	-11.5992
▁grundlegend	-11.5993
▁voneinander	-11.5997
▁erkennt	-11.5997
ziele	-11.5998
▁Next	-11.6001
▁gedacht	-11.6001
▁Birma	-11.6001
▁statistical	-11.601
▁vertrauen	-11.6011
vote	-11.6011
▁derselben	-11.6013
▁newspaper	-11.6015
▁trigger	-11.6018
▁Unfall	-11.6019
▁``	-11.6019
▁gr	-11.602
▁wall	-11.6024
▁bloße	-11.6025
▁Sustainable	-11.6026
▁switch	-11.6026
▁Finance	-11.6026
▁Zuwanderung	-11.6027
▁optimism	-11.6027
▁virus	-11.6027
▁Gesicht	-11.6027
▁EP	-11.6029
▁master	-11.6029
▁X	-11.6032
▁floods	-11.6032
▁Haushaltsjahr	-11.6034
▁Finanzsystem	-11.6049
▁Ereignis	-11.6049
▁se	-11.605
▁Rahmenprogramm	-11.6051
gewalt	-11.6051
▁Aufklärung	-11.6051
▁Professor	-11.6051
▁unterbreiten	-11.6051
▁signals	-11.6052
▁Kategorie	-11.6053
▁Kl	-11.6056
▁Gefangenen	-11.6057
▁halb	-11.6057
ani	-11.6058
▁None	-11.6059
▁town	-11.6068
▁messen	-11.6068
▁Administration	-11.6069
jahr	-11.6071
▁fatal	-11.6072
▁Kommissare	-11.6073
▁poses	-11.6075
Re	-11.6075
▁Musharraf	-11.6077
▁abolition	-11.6077
▁autumn	-11.6077
▁strive	-11.6077
▁keinesfalls	-11.6077
▁Indiens	-11.6078
▁versteht	-11.6079
▁books	-11.608
▁angeführt	-11.6081
▁fill	-11.6083
IS	-11.6087
▁Behauptung	-11.6088
▁hinder	-11.6094
sfindung	-11.6097
▁stages	-11.6099
▁Kohäsion	-11.6101
▁socially	-11.6101
▁bekämpft	-11.6102
▁earthquake	-11.6102
▁abzielt	-11.6102
▁heftig	-11.6102
▁score	-11.6102
▁Frontex	-11.6102
rung	-11.6104
sam	-11.6104
uck	-11.6106
▁gebildet	-11.6113
productive	-11.6113
▁aufhören	-11.6117
▁breach	-11.6117
▁rating	-11.6118
▁Haben	-11.612
termin	-11.6122
▁Nutzer	-11.6124
▁Derartige	-11.6126
dokument	-11.6127
▁Cambodia	-11.6127
▁rose	-11.6128
lea	-11.6128
▁hide	-11.6128
▁dargestellt	-11.6128
▁assessing	-11.613
▁radio	-11.6132
▁recorded	-11.6133
▁übermitteln	-11.6134
▁Ideal	-11.6136
▁channels	-11.614
lösung	-11.6141
▁scandal	-11.6142
▁supplement	-11.6144
▁Bedrohungen	-11.6145
▁Fünf	-11.6146
▁Ergänzung	-11.6153
▁suspicion	-11.6153
▁unabdingbar	-11.6153
▁breakthrough	-11.6153
▁Haushaltsplans	-11.6153
▁answered	-11.6153
▁mangelt	-11.6155
▁Jerusalem	-11.6161
▁Muslime	-11.6166
platz	-11.6166
▁sicheren	-11.6169
▁Vizepräsident	-11.617
▁kritische	-11.6171
load	-11.6172
▁consolidate	-11.6172
sinstrument	-11.6174
▁basieren	-11.6175
▁entwickelte	-11.6176
▁Bangladesh	-11.6178
▁Verschuldung	-11.6178
▁storage	-11.6178
▁Privatisierung	-11.6179
▁Ausrichtung	-11.618
▁Wald	-11.6184
ional	-11.6184
▁Christen	-11.6184
uß	-11.6185
▁Dienstleistung	-11.6186
▁adaptation	-11.6186
▁gets	-11.6195
▁Mord	-11.6195
▁Versicherungs	-11.6197
Naturkatastrophe	-11.62
▁Vitorino	-11.6204
▁beeinflusst	-11.6204
▁procedural	-11.6204
▁errichten	-11.6204
▁optimistic	-11.6204
▁UEN	-11.6205
▁beiträgt	-11.6206
versammlung	-11.6207
▁witnessed	-11.621
greifen	-11.6214
▁errors	-11.6214
▁sooner	-11.6217
▁Pflichten	-11.6218
teilung	-11.6219
▁Gipfels	-11.6222
placing	-11.6222
▁Skandal	-11.6223
▁Jedes	-11.6223
▁shocks	-11.6228
▁Nacht	-11.6229
▁Ära	-11.6229
▁vertraut	-11.6229
▁ausgeglichen	-11.623
▁evil	-11.623
Gleichbehandlung	-11.6231
▁Vorsicht	-11.6232
▁Sozialpolitik	-11.6233
▁Has	-11.6235
▁elites	-11.6235
▁angehören	-11.6237
▁understandable	-11.6238
▁werfen	-11.6239
ache	-11.6241
▁umfassen	-11.6244
▁exert	-11.6249
gipfel	-11.6252
AS	-11.6252
▁agieren	-11.6253
▁Treasury	-11.6255
▁abortion	-11.6255
▁auswärtige	-11.6255
▁einzubeziehen	-11.6255
▁privacy	-11.6255
arbeiter	-11.6259
▁envisaged	-11.626
▁handling	-11.626
▁tape	-11.6265
▁Auswahl	-11.6266
▁adding	-11.6267
ai	-11.6269
währung	-11.6275
legt	-11.6279
disproportionate	-11.6281
▁Special	-11.6281
▁Wohlergehen	-11.6281
▁aggregate	-11.6281
▁begleitet	-11.6281
▁erweitern	-11.6281
▁Lärm	-11.6281
▁unsustainable	-11.6281
▁Staatsschulden	-11.6281
▁Spring	-11.6282
▁tonight	-11.6282
▁Ratspräsidenten	-11.6284
ned	-11.6287
▁adjustments	-11.629
▁treiben	-11.629
▁Moral	-11.629
▁Szenario	-11.6292
buch	-11.6293
Aussprache	-11.6296
▁Verträgen	-11.6296
▁relationships	-11.6296
▁meets	-11.6297
▁originally	-11.6301
▁Effekt	-11.6303
bri	-11.6305
regulierung	-11.6306
▁OSCE	-11.6307
▁Produzenten	-11.6307
▁criterion	-11.6307
▁detention	-11.6307
▁unvermeidlich	-11.6307
▁Bananen	-11.6307
▁empty	-11.6307
▁Monday	-11.6307
▁Unterzeichnung	-11.6307
▁downturn	-11.6308
▁attempting	-11.6308
▁managers	-11.6309
▁interpret	-11.631
▁Ökonomie	-11.631
▁Rechtsetzung	-11.6314
gar	-11.6317
▁Vorbehalte	-11.6323
▁voices	-11.6326
▁vielfach	-11.6332
Glücklicherweise	-11.6333
▁Franzosen	-11.6333
▁abzulehnen	-11.6333
▁feasible	-11.6333
▁weather	-11.6333
▁Todesfälle	-11.6334
▁Milliarde	-11.6336
▁threatens	-11.6338
▁Gemäß	-11.6338
▁rid	-11.634
gesetze	-11.634
▁objections	-11.6342
▁passive	-11.6342
▁sincere	-11.6343
▁Streitkräfte	-11.6346
▁verfahren	-11.6348
):	-11.6348
schreiben	-11.635
▁ausführlich	-11.635
einkommen	-11.6351
▁Ya	-11.6351
▁Politikbereiche	-11.6354
führer	-11.6359
▁abgeschafft	-11.6359
▁registration	-11.6359
▁Prize	-11.6359
▁Wahlkreis	-11.6359
▁wofür	-11.636
▁announcement	-11.636
uc	-11.6361
anten	-11.6361
fähigkeit	-11.6366
▁Standort	-11.6367
▁tens	-11.6371
▁weitem	-11.6373
stoff	-11.6374
friendly	-11.6375
style	-11.6375
▁nützliche	-11.6376
▁organisierten	-11.6382
amerikanischen	-11.6382
▁bekommt	-11.6383
▁surge	-11.6384
▁tariffs	-11.6385
kehr	-11.6385
▁workplace	-11.6386
▁eingehend	-11.6387
▁zurückkommen	-11.6388
▁nationals	-11.6391
▁behindern	-11.6391
▁Konvents	-11.6394
▁Zusagen	-11.6395
▁formula	-11.6396
▁exchanges	-11.6399
parlamentarische	-11.64
▁Verzögerungen	-11.6401
baren	-11.6403
eten	-11.6407
▁label	-11.6408
▁Ali	-11.6409
▁formally	-11.641
▁Nuclear	-11.6411
▁convincing	-11.6411
▁Niedergang	-11.6411
▁TV	-11.6411
▁anfangen	-11.6411
▁Handlungen	-11.6413
sinn	-11.6413
▁beteiligten	-11.6413
▁Verletzungen	-11.6414
▁ständige	-11.6416
▁verpflichten	-11.6418
▁begrenzen	-11.6419
lauf	-11.642
zahlen	-11.6427
▁flu	-11.6429
▁Endes	-11.6429
▁Durchschnitt	-11.643
▁fahren	-11.6431
owned	-11.6432
produkt	-11.6434
▁benefited	-11.6435
▁Spitzen	-11.6436
▁angepasst	-11.6437
▁folglich	-11.6437
▁securities	-11.6437
▁chaos	-11.6437
▁scheinbar	-11.6437
▁immunity	-11.6437
▁intense	-11.6437
▁wherever	-11.6439
▁gratuliere	-11.6441
▁ausgeführt	-11.6443
▁GMOs	-11.6449
▁Konservativen	-11.6449
▁guard	-11.6449
▁weakened	-11.6449
▁grüne	-11.645
schuld	-11.6451
▁Times	-11.6455
▁father	-11.6456
▁explicit	-11.6458
▁shortage	-11.6461
bit	-11.6462
▁indispensable	-11.6463
▁verbinden	-11.6463
▁überwacht	-11.6463
▁übermittelt	-11.6463
▁MEDA	-11.6463
▁trap	-11.6464
▁Operation	-11.6466
▁unten	-11.6466
▁begrenzte	-11.6472
sort	-11.6477
▁vernünftigen	-11.6479
▁Ke	-11.6479
▁Kunst	-11.648
▁exclusive	-11.6484
▁failures	-11.6487
▁Cancún	-11.649
▁erstaunlich	-11.649
▁eröffnen	-11.649
▁freight	-11.649
▁solving	-11.649
▁scene	-11.649
▁erzeugen	-11.649
▁cooperative	-11.649
▁Verstöße	-11.649
▁Transfer	-11.649
▁Zivilisation	-11.649
Rechtssicherheit	-11.6495
▁respective	-11.6496
▁pr	-11.6496
ui	-11.6497
▁optimistisch	-11.65
behörden	-11.6504
▁doors	-11.6504
▁bedingt	-11.6505
trade	-11.6508
roll	-11.651
▁Zusatz	-11.651
▁critics	-11.6512
▁diplomatischen	-11.6514
Sozialdemokraten	-11.6515
▁ausgeübt	-11.6516
▁auszuüben	-11.6516
▁repair	-11.6516
▁Lamy	-11.6516
▁Begrenzung	-11.6516
▁beantragt	-11.6516
▁risky	-11.6516
▁islands	-11.6517
▁bloß	-11.6517
▁organized	-11.6519
▁geringere	-11.6519
▁flood	-11.6523
▁suspended	-11.6523
▁eco	-11.6531
märkten	-11.6532
spir	-11.6535
▁Kompromiß	-11.6542
▁Tschechische	-11.6542
ied	-11.6544
▁roots	-11.6551
▁präsentiert	-11.6553
▁transparenter	-11.6554
▁bombing	-11.6558
▁erhielt	-11.656
bro	-11.6561
first	-11.6561
▁seats	-11.6561
▁Aufforderung	-11.6561
▁Rio	-11.6562
▁textile	-11.6564
▁arabische	-11.6564
▁sowjetische	-11.6565
▁inwie	-11.6567
▁dänischen	-11.6568
▁Atmosphäre	-11.6569
▁bestraft	-11.6569
▁speculation	-11.6569
▁Kenya	-11.6569
▁neighbourhood	-11.6569
▁anfällig	-11.6569
▁gegebenenfalls	-11.6569
▁haushalts	-11.657
wachstum	-11.6575
▁realities	-11.6575
▁Darlehen	-11.6575
▁reisen	-11.6583
▁wirft	-11.6584
▁Sc	-11.6585
liberal	-11.659
▁normale	-11.6593
▁Y	-11.6594
▁acute	-11.6596
▁verhandelt	-11.6596
▁guilty	-11.6596
skraft	-11.6606
▁weitreichende	-11.661
züge	-11.6612
▁lacks	-11.6613
▁schwache	-11.6614
▁bid	-11.6616
füll	-11.662
▁Juncker	-11.6622
▁Kolumbien	-11.6622
▁Medizin	-11.6622
▁facility	-11.6622
▁nachzudenken	-11.6622
▁Rahmenbedingung	-11.6623
▁wiederhole	-11.6625
▁Ersparnisse	-11.6627
▁governed	-11.663
▁Schlacht	-11.6631
▁frühere	-11.6633
▁grundsätzliche	-11.6634
▁Lob	-11.6636
wind	-11.6639
▁saubere	-11.6641
probleme	-11.6644
▁beider	-11.6645
bindung	-11.6645
▁station	-11.6647
fisch	-11.6647
▁Geburt	-11.6649
▁coup	-11.6649
▁Fatah	-11.6649
▁anzupassen	-11.6649
▁enthusiasm	-11.6649
▁herbeizuführen	-11.6649
▁marriage	-11.6649
▁venture	-11.6649
▁Mühe	-11.6649
▁peak	-11.6649
▁vergeben	-11.6651
▁großartige	-11.6655
▁Leitung	-11.6655
▁depth	-11.6658
▁Befürchtungen	-11.6662
tischen	-11.6663
interessen	-11.667
▁Jewish	-11.6676
▁constituency	-11.6676
▁linguistic	-11.6676
▁smoking	-11.6676
▁Gleichheit	-11.6676
▁Vater	-11.6676
▁verglichen	-11.6676
▁Mikro	-11.6677
▁denselben	-11.6679
▁einiges	-11.6684
bedingungen	-11.6693
sektors	-11.6697
generation	-11.6698
▁Lebensmitteln	-11.6699
fuel	-11.6699
▁Regarding	-11.6703
▁invasion	-11.6703
▁preferred	-11.6703
lichkeiten	-11.6704
frist	-11.6707
▁Red	-11.6708
▁components	-11.6715
▁severely	-11.6717
▁Organen	-11.6718
▁Montag	-11.6721
▁Islamist	-11.6721
▁Danke	-11.6722
kurs	-11.6725
tel	-11.6726
▁Beamte	-11.6726
▁Reden	-11.6726
sausschuß	-11.6726
▁Bestrebungen	-11.673
▁Ethiopia	-11.673
▁benchmark	-11.673
▁enemy	-11.673
▁gesenkt	-11.673
▁refusal	-11.673
▁Ängste	-11.673
▁besseres	-11.673
leid	-11.6731
▁Basel	-11.6732
▁Hass	-11.6734
▁complexity	-11.6734
bericht	-11.6736
▁Einigkeit	-11.6736
▁containing	-11.6737
anteil	-11.6738
▁software	-11.674
trag	-11.6744
erei	-11.6746
▁offset	-11.6746
▁makroökonomisch	-11.6748
ock	-11.6749
mar	-11.6751
▁schaden	-11.6752
lla	-11.6752
▁fließen	-11.6752
▁tiefe	-11.6753
▁Gemeinden	-11.6754
▁qualitativ	-11.6755
▁äußerster	-11.6755
о	-11.6757
▁Cohesion	-11.6757
▁safeguards	-11.6758
▁Unless	-11.676
▁Online	-11.6761
▁gewünscht	-11.6762
▁ehrgeizige	-11.6764
▁Bay	-11.6765
uri	-11.6771
▁delivering	-11.6775
▁sinken	-11.6781
▁Erzeugung	-11.6784
▁phrase	-11.6784
▁Nichtregierungs	-11.6784
▁philosophy	-11.6784
▁harsh	-11.6784
▁Version	-11.6786
iff	-11.6786
▁unver	-11.6788
▁dual	-11.679
▁investigations	-11.68
▁Elite	-11.6801
▁del	-11.6805
▁sale	-11.6808
gehalten	-11.6809
risiken	-11.6811
sorgniserregend	-11.6811
▁Nehmen	-11.6811
▁plenty	-11.6811
▁stories	-11.6811
▁biological	-11.6811
▁absorb	-11.6813
▁befürchten	-11.6813
institutionen	-11.6815
▁residents	-11.6816
bedingte	-11.6818
streit	-11.6819
▁Fundament	-11.6819
▁Lasten	-11.682
▁passing	-11.6822
▁Textil	-11.6824
schein	-11.6826
▁ausgeben	-11.6826
▁male	-11.6835
▁geleitet	-11.6837
Meinungsäußerung	-11.6838
▁systematically	-11.6838
scha	-11.684
▁practically	-11.6843
▁insecurity	-11.6843
▁Kriege	-11.6843
hob	-11.6843
▁successes	-11.6849
▁Ku	-11.685
post	-11.6854
schaftswahlen	-11.6854
▁transportation	-11.6856
zone	-11.6859
▁investigate	-11.6859
▁Fern	-11.686
▁affair	-11.6861
▁liberalen	-11.6862
▁died	-11.6864
▁Provinz	-11.6865
▁appalling	-11.6865
▁stagnation	-11.6865
▁Holz	-11.6865
▁nutzt	-11.6865
▁triumph	-11.6865
▁recycling	-11.6866
▁liefert	-11.6866
▁Black	-11.6866
▁beachten	-11.6866
▁verbesserte	-11.6866
seite	-11.6867
▁Ausschüsse	-11.6872
cho	-11.6876
standing	-11.6877
▁ends	-11.6877
▁elect	-11.6877
▁fifteen	-11.6879
▁publication	-11.688
▁brand	-11.688
laden	-11.6882
▁Shi	-11.6884
▁display	-11.6885
▁Detail	-11.6889
▁Germans	-11.689
ino	-11.6891
▁Ten	-11.6893
▁Bemühen	-11.6893
▁drought	-11.6893
▁unterscheidet	-11.6893
▁conscience	-11.6893
▁Stufe	-11.6893
▁Auslegung	-11.6894
▁aspirations	-11.6895
▁Obergrenze	-11.6897
▁Vorgänger	-11.69
▁burdens	-11.6906
▁incidents	-11.6906
etz	-11.6906
feld	-11.6907
▁reine	-11.6911
ott	-11.6912
▁konkreter	-11.6913
▁accelerate	-11.6914
▁Übersetzung	-11.6917
lässlich	-11.692
▁Einzelheiten	-11.692
▁Wladimir	-11.692
▁suicide	-11.692
▁lehnt	-11.692
▁behave	-11.692
▁Koordination	-11.692
▁stecken	-11.692
▁symbolic	-11.6923
liegen	-11.6923
ermost	-11.6923
▁Statut	-11.6923
pra	-11.6926
▁horizontal	-11.6928
ash	-11.6931
▁delivery	-11.6931
iti	-11.6933
▁Beruf	-11.6937
▁Vorsitzende	-11.6939
▁Autonomie	-11.6941
▁bases	-11.6941
▁Vermögen	-11.6943
▁nachhaltiger	-11.6945
▁Guatemala	-11.6948
▁Rubrik	-11.6948
▁preliminary	-11.6948
▁stammt	-11.6948
▁grew	-11.6948
▁schweigen	-11.6948
behörde	-11.6948
▁seekers	-11.6949
▁südlichen	-11.6951
▁Umstellung	-11.6952
▁fulfilled	-11.6953
▁Linke	-11.6958
▁Indikatoren	-11.6965
lle	-11.6969
Y	-11.697
operation	-11.697
▁gaining	-11.6971
▁greifen	-11.6973
▁Beihilfe	-11.6975
▁Singapore	-11.6975
▁anzuerkennen	-11.6975
▁spürbar	-11.6975
▁errichtet	-11.6975
▁Anschluss	-11.6977
▁profitable	-11.6977
▁Forscher	-11.6978
▁klarstellen	-11.6979
▁Tor	-11.6979
▁kritisieren	-11.698
▁whenever	-11.698
▁discovered	-11.6981
▁accord	-11.6982
▁publish	-11.6982
maß	-11.699
unter	-11.6991
leistung	-11.6992
▁assessed	-11.6995
▁fires	-11.6996
gänge	-11.6999
American	-11.6999
lagen	-11.7
▁Griff	-11.7003
▁Mütter	-11.7003
▁beunruhigt	-11.7003
▁composition	-11.7003
eres	-11.7003
▁Randlage	-11.7004
▁scheduled	-11.7007
▁aufrecht	-11.701
▁vorzugehen	-11.7012
▁Vorsitzender	-11.7014
▁tatsächliche	-11.7016
pul	-11.7018
▁Force	-11.7019
▁Flugzeug	-11.7024
▁grants	-11.7027
▁bloc	-11.7028
▁elektronischen	-11.7029
▁Liikanen	-11.7031
▁geeinigt	-11.7031
▁premature	-11.7031
stück	-11.7031
▁Besser	-11.7031
▁tendency	-11.7031
▁prosperous	-11.7031
▁persecution	-11.7031
▁shipping	-11.7031
▁await	-11.7031
oli	-11.7032
▁Versagen	-11.7032
▁translation	-11.7032
▁Interventionen	-11.7033
▁everyday	-11.7034
▁tight	-11.7036
▁Rindfleisch	-11.7037
▁chose	-11.7038
▁übermäßige	-11.7038
▁gesch	-11.7038
▁translate	-11.7041
▁polnischen	-11.7046
▁wirksamen	-11.7047
splan	-11.7048
▁career	-11.705
▁norms	-11.7051
losigkeit	-11.7053
▁Anschein	-11.7054
▁Reagan	-11.7059
▁cautious	-11.7059
▁einzurichten	-11.7059
▁inequalities	-11.7059
▁securing	-11.7059
▁Bereits	-11.7059
▁beseitigt	-11.7059
▁simultaneously	-11.706
▁Kyi	-11.7061
▁focuses	-11.7061
rad	-11.7063
▁prize	-11.7063
▁prevail	-11.7063
▁adjust	-11.7065
äl	-11.7065
bl	-11.7068
▁Schutzes	-11.7069
▁owners	-11.7072
▁Einschränkung	-11.7075
▁elektronische	-11.7078
▁arises	-11.708
rechtzuerhalten	-11.7087
▁Aufschwung	-11.7087
▁psychological	-11.7087
▁erschwert	-11.7087
▁beinhalten	-11.7087
anforderungen	-11.7087
▁Congo	-11.7088
▁underway	-11.7091
▁Minute	-11.7092
▁Tierschutz	-11.7095
zy	-11.7098
▁definitive	-11.7101
lot	-11.7104
▁Nichts	-11.7105
▁Preisen	-11.7107
▁Traditionen	-11.7112
▁Christians	-11.7113
ologie	-11.7114
▁inappropriate	-11.7115
▁Schröder	-11.7115
▁erfreulich	-11.7115
▁judiciary	-11.7115
▁residence	-11.7115
▁Certainly	-11.7117
▁Code	-11.7118
▁Laden	-11.7123
gesetzt	-11.7123
▁österreichische	-11.7124
▁Fi	-11.7124
▁Aktionsprogramm	-11.7127
ify	-11.713
can	-11.7132
▁responding	-11.7135
icht	-11.7137
▁Transit	-11.7137
▁Air	-11.7138
▁assumption	-11.7141
▁ad	-11.7142
▁Kurdish	-11.7143
▁hinnehmbar	-11.7143
▁struggling	-11.7143
▁Yemen	-11.7143
▁Muster	-11.7144
▁Fast	-11.7144
▁consequently	-11.7144
▁Mitwirkung	-11.7144
▁Zugangs	-11.7146
▁Nordic	-11.7146
▁Ste	-11.7146
projekte	-11.7148
▁anzugehen	-11.7149
▁stricter	-11.715
▁controlling	-11.7151
machen	-11.7151
▁Ti	-11.7151
▁streben	-11.7152
▁flights	-11.7156
ecken	-11.7156
blut	-11.7158
▁prohibit	-11.7159
▁Raums	-11.716
gier	-11.7163
▁patents	-11.7164
▁Kontinents	-11.7164
gezogen	-11.7168
▁schließt	-11.717
▁Mi	-11.717
▁zunehmen	-11.717
▁Mercosur	-11.7171
▁unterstreicht	-11.7171
▁verstoßen	-11.7171
▁Rhetorik	-11.7171
▁pride	-11.7171
int	-11.7172
▁fat	-11.7174
minded	-11.7175
▁einbringen	-11.7177
▁junger	-11.7177
folge	-11.7177
▁Che	-11.718
▁margin	-11.7181
▁occupied	-11.7181
uring	-11.7182
staatliche	-11.7182
▁Büro	-11.7185
▁erstellen	-11.7189
▁embargo	-11.7189
▁Natura	-11.719
Wachstum	-11.7199
▁integriert	-11.7199
▁Einmischung	-11.7199
▁ermutigt	-11.7199
▁unclear	-11.7199
▁consistency	-11.7199
▁einzuleiten	-11.7199
▁DNA	-11.72
plo	-11.7201
verhältnismäßig	-11.7201
▁Vorwand	-11.7201
▁SIS	-11.7201
▁transferred	-11.7203
▁Kongo	-11.7204
▁Kol	-11.7205
▁exceed	-11.7205
▁Pflanzen	-11.7205
▁technologischen	-11.7213
▁Marine	-11.7214
▁Schw	-11.7215
▁wenigstens	-11.7217
▁boosting	-11.7218
▁abstain	-11.7219
▁mini	-11.7221
▁Prognosen	-11.7224
OS	-11.7224
tier	-11.7225
▁completion	-11.7228
▁pursuan	-11.7228
▁spüren	-11.7228
▁irgendwann	-11.7228
▁geldpolitische	-11.7228
▁transmission	-11.7228
▁Arbeitsprogramm	-11.7229
▁recognises	-11.7234
rent	-11.7234
beihilfen	-11.724
▁recommended	-11.724
▁nötigen	-11.724
▁zwingend	-11.7244
▁Denk	-11.7246
▁beträchtlich	-11.7247
▁govern	-11.7248
▁Klaren	-11.7248
▁Bord	-11.7249
▁Große	-11.7249
▁Pat	-11.7251
gegeben	-11.7252
▁shareholders	-11.7252
▁komplexen	-11.7255
▁Rentner	-11.7256
▁OSZE	-11.7256
▁distress	-11.7256
▁Zusammensetzung	-11.7256
▁camp	-11.7257
▁Gender	-11.7258
▁Briten	-11.7258
▁articles	-11.7258
erung	-11.7259
▁zweitens	-11.7259
▁Fourthly	-11.726
sagen	-11.7263
▁vorrangige	-11.7265
prozess	-11.7265
▁interference	-11.7266
▁Zug	-11.7275
▁saved	-11.7276
tar	-11.7278
▁emphasize	-11.7278
▁hospital	-11.7284
flo	-11.7284
▁Catholic	-11.7284
▁Deflation	-11.7284
▁Evaluierung	-11.7284
▁Facebook	-11.7284
▁dioxide	-11.7284
▁verknüpft	-11.7284
▁Small	-11.7284
▁airport	-11.7285
▁ältere	-11.7285
▁Zwischenzeit	-11.7286
▁ruin	-11.7286
▁panel	-11.7286
europäischen	-11.7289
▁übernimmt	-11.729
fähig	-11.7293
zustellen	-11.7294
gebracht	-11.7294
▁pillars	-11.7294
PA	-11.7295
▁klares	-11.7295
part	-11.7296
▁newspapers	-11.7297
ates	-11.7299
af	-11.7301
lock	-11.7302
makers	-11.7302
▁entails	-11.7302
griff	-11.7304
sphase	-11.7307
▁Entschließungen	-11.7308
▁Gerichtshofs	-11.7309
▁geplanten	-11.731
▁teachers	-11.7311
▁integrierten	-11.7312
würdig	-11.7312
▁Olympic	-11.7313
▁striking	-11.7313
▁Enttäuschung	-11.7313
▁eliminating	-11.7313
▁recital	-11.7313
▁bekräftigen	-11.7313
▁pretext	-11.7313
matic	-11.7316
▁Ganzes	-11.732
ali	-11.732
fügen	-11.732
▁Algeria	-11.7321
▁thoroughly	-11.7322
▁verheerende	-11.7322
▁towns	-11.7325
▁betragen	-11.7325
▁Rechtsstaat	-11.7328
▁Trends	-11.7329
▁Binnenmarkts	-11.7329
▁diesmal	-11.7329
▁Stein	-11.733
▁erweiterten	-11.7334
▁km	-11.7334
▁Hunderte	-11.7334
▁geschrieben	-11.7335
jo	-11.7335
▁Staatsanleihen	-11.7335
▁indirekt	-11.7337
▁Dritten	-11.7338
▁Non	-11.7339
▁Eurojust	-11.7342
▁Interpretation	-11.7342
▁Watson	-11.7342
▁delicate	-11.7342
▁removal	-11.7342
▁vergleichen	-11.7342
▁lists	-11.7344
▁shut	-11.7345
▁Straf	-11.7347
▁Rom	-11.735
▁Erkenntnis	-11.7355
▁Gesichtspunkt	-11.736
angebot	-11.7361
▁wonderful	-11.7365
▁schwachen	-11.7366
cat	-11.7367
▁respecting	-11.7368
modell	-11.7369
▁Romanian	-11.737
▁Andernfalls	-11.737
▁altogether	-11.737
▁deciding	-11.737
▁demografische	-11.737
▁korrigieren	-11.737
▁street	-11.737
bb	-11.7371
▁Lebensqualität	-11.7371
▁infringement	-11.7371
▁adult	-11.7371
▁festhalten	-11.7372
▁hinnehmen	-11.7372
▁CE	-11.7373
▁ökonomische	-11.7377
▁sparen	-11.7378
regionen	-11.738
▁Nachteil	-11.7383
▁Ernährungs	-11.7383
▁sacrifice	-11.7386
▁demonstrations	-11.7387
▁tariff	-11.7393
▁Wählern	-11.7395
▁secondly	-11.7395
rufen	-11.7399
▁Foundation	-11.7399
▁Konsolidierung	-11.7399
▁Misstrauen	-11.7399
▁Nordirland	-11.7399
▁Stagnation	-11.7399
▁Verurteilung	-11.7399
▁crowd	-11.7399
▁irgendwelche	-11.7399
▁hochrangige	-11.7399
▁auferlegt	-11.7399
▁Immunität	-11.7399
▁wahrnehmen	-11.74
▁Water	-11.74
▁galt	-11.74
▁gründet	-11.7401
gy	-11.7402
▁civilisation	-11.7403
▁ineffective	-11.7404
▁überarbeitet	-11.7405
▁kurzen	-11.7406
▁cap	-11.7407
▁Gebühren	-11.7407
▁diplomatische	-11.7407
▁counterparts	-11.7409
Saharan	-11.7412
▁Zentral	-11.7412
sprobleme	-11.7415
▁supposedly	-11.7415
▁purchases	-11.7416
▁messages	-11.7417
▁Fehl	-11.7418
▁attain	-11.742
▁Netzwerk	-11.742
▁protectionist	-11.7421
▁rechtlich	-11.7424
▁heat	-11.7427
▁Jarzembowski	-11.7428
▁Freitag	-11.7429
▁Gemeinsam	-11.7429
▁Sozialisten	-11.7429
▁Westens	-11.7432
▁ökonomischen	-11.7432
niveau	-11.7434
▁bat	-11.7434
▁dauerhaften	-11.7436
▁Gedanke	-11.7437
▁outline	-11.7438
equi	-11.7438
palästinensische	-11.7446
▁evolution	-11.7451
▁adapted	-11.7452
▁gefährlicher	-11.7453
tragen	-11.7454
▁inspections	-11.7455
bereit	-11.7455
▁indirect	-11.7456
▁regain	-11.7457
▁vereinfachen	-11.7457
▁volatility	-11.7457
▁Republikaner	-11.7457
▁Whatever	-11.7459
▁zeigte	-11.7462
leitung	-11.7462
▁koordinierte	-11.7466
▁gebunden	-11.7467
▁Bürgerrechte	-11.7467
▁reminded	-11.7471
suing	-11.7471
wir	-11.7472
▁professionals	-11.7473
▁consultations	-11.7473
▁Schwarz	-11.7479
▁notes	-11.7482
▁Gott	-11.7483
heim	-11.7484
▁Erdbeben	-11.7486
▁Integrität	-11.7486
▁bedaure	-11.7486
▁chronic	-11.7486
▁substitute	-11.7486
▁Estland	-11.7486
▁erlangen	-11.7486
▁breast	-11.7486
▁stoppen	-11.7486
▁persist	-11.7487
▁deregulation	-11.7487
▁officially	-11.749
licher	-11.749
▁Youth	-11.7498
größter	-11.7498
▁Tests	-11.75
▁Arbeitslosen	-11.75
▁correspond	-11.7502
▁En	-11.7504
▁Weitere	-11.7507
▁Super	-11.7508
pass	-11.751
▁Doppel	-11.7511
kreis	-11.7513
▁Chávez	-11.7515
▁Objective	-11.7515
▁Schließung	-11.7515
▁challenging	-11.7515
▁engagieren	-11.7515
▁erläutert	-11.7515
▁examining	-11.7515
▁repercussions	-11.7515
▁Zivilisten	-11.7516
▁outbreak	-11.7518
▁affordable	-11.7518
▁lived	-11.7519
▁Lehrer	-11.752
▁hopefully	-11.752
geld	-11.7525
▁warned	-11.7527
lager	-11.7527
▁attach	-11.7528
▁surpluses	-11.7531
▁kritischen	-11.7531
▁fanden	-11.7531
fahrt	-11.7532
qualität	-11.7535
▁Gib	-11.7535
instrumente	-11.7536
einandersetzung	-11.7539
▁gerechte	-11.754
▁liquid	-11.754
pping	-11.7542
▁Übergangs	-11.7542
thirds	-11.7542
smechanismus	-11.7544
▁Kohlendioxid	-11.7545
▁Streben	-11.7545
▁erfasst	-11.7545
▁availability	-11.7545
▁illusion	-11.7545
▁cold	-11.7545
▁assurance	-11.7546
▁mortgage	-11.7546
▁misleading	-11.7547
▁Haftung	-11.7547
▁unmittelbare	-11.7549
point	-11.755
▁Ursprung	-11.7551
not	-11.7552
▁handle	-11.7552
▁meint	-11.7552
▁portfolio	-11.7553
▁hazardous	-11.7555
▁Branchen	-11.7555
▁Abu	-11.7557
▁verursachten	-11.7558
▁eingereichten	-11.7562
▁capitalist	-11.7567
▁compensate	-11.7568
organ	-11.7571
▁compare	-11.7571
kommunistischen	-11.7573
kämpfe	-11.7573
▁liberale	-11.7573
schneiden	-11.7574
▁Caucasus	-11.7574
▁Toleranz	-11.7574
▁refrain	-11.7574
▁stützt	-11.7574
▁vermittelt	-11.7574
▁neoliberal	-11.7574
▁wholeheartedly	-11.7575
▁Anhang	-11.7575
▁normally	-11.7576
ica	-11.7578
▁Pakistani	-11.7578
▁breit	-11.7579
▁Fo	-11.7579
▁enforced	-11.7581
▁Gute	-11.7582
▁allgemeiner	-11.7582
▁tested	-11.7583
ory	-11.7585
▁Partnerschaften	-11.7588
▁geschätzt	-11.7588
▁Sozialpartner	-11.7588
sprachen	-11.7592
▁zukünftig	-11.7593
▁nukleare	-11.7593
▁Wechselkurse	-11.7594
grad	-11.7595
▁verbindlich	-11.7595
▁cure	-11.7596
▁zugesagt	-11.7598
▁optimal	-11.7599
▁Luftverkehrs	-11.7599
händler	-11.7599
▁lawyers	-11.7599
▁devote	-11.76
▁clauses	-11.7601
▁extremists	-11.7601
▁League	-11.7603
▁Wahrnehmung	-11.7603
▁irresponsible	-11.7603
▁verteidigt	-11.7603
▁Hague	-11.7604
▁Völkermord	-11.7604
▁addresses	-11.7606
▁Vorbereitungen	-11.7606
ala	-11.7609
▁Arbeitsweise	-11.761
bestand	-11.7614
▁blockiert	-11.7617
senkung	-11.7623
▁zones	-11.7623
▁eat	-11.7625
wende	-11.7628
▁ensured	-11.7629
ressourcen	-11.763
▁Dossier	-11.7633
▁Holocaust	-11.7633
▁Propaganda	-11.7633
▁hinzuweisen	-11.7633
▁Gesetzgeber	-11.7633
▁multiple	-11.7633
▁Fragestunde	-11.7635
▁Jugendliche	-11.7636
▁ließen	-11.7637
▁consult	-11.764
▁jüngst	-11.764
möglichkeiten	-11.7641
▁Unrecht	-11.7645
▁liegenden	-11.7646
▁corresponding	-11.7646
transport	-11.7646
▁proliferation	-11.765
▁billiger	-11.7655
▁tackled	-11.7656
▁Beend	-11.7657
ufrechterhaltung	-11.7662
▁Australien	-11.7662
▁Erneuerung	-11.7662
▁cyber	-11.7662
derherzustellen	-11.7662
▁schwächen	-11.7663
▁delayed	-11.7663
▁distort	-11.7663
▁übersehen	-11.7664
▁inspection	-11.7665
bur	-11.7666
▁officers	-11.7666
▁paragraphs	-11.767
stein	-11.7671
▁Sitzungen	-11.7673
▁eingebunden	-11.7674
ati	-11.7674
▁topics	-11.7676
su	-11.768
kra	-11.768
▁afrikanische	-11.7684
▁doppelt	-11.7686
▁typical	-11.7687
▁suspect	-11.7687
▁ausgewogen	-11.7692
▁Territorium	-11.7692
▁disarmament	-11.7692
▁removing	-11.7692
▁disappointment	-11.7692
▁walk	-11.7692
▁Feuer	-11.7693
▁disappointing	-11.7695
▁schuldig	-11.7695
▁unified	-11.7695
▁politician	-11.7695
▁cell	-11.7696
unt	-11.7696
▁Gerichte	-11.7697
▁tension	-11.7697
Kopf	-11.7697
▁kurzfristigen	-11.7698
sgrundlage	-11.7699
fo	-11.7701
▁Projekts	-11.7702
▁Eliten	-11.7703
▁Eigen	-11.7704
▁verbundene	-11.771
▁gaps	-11.7713
▁effektiven	-11.7714
▁Gespräch	-11.7714
▁bridge	-11.7716
▁Orientierung	-11.7722
▁renminbi	-11.7722
▁verwirklicht	-11.7722
▁Byrne	-11.7722
ban	-11.7725
▁Sachen	-11.7726
▁explanations	-11.7727
▁Wünsche	-11.7733
▁Abfälle	-11.7734
▁indischen	-11.7734
teilen	-11.7736
▁innenpolitische	-11.774
▁schnellen	-11.774
sstandards	-11.7741
fully	-11.7741
▁kommunistische	-11.7746
▁geistigen	-11.7747
▁billigen	-11.7748
▁Kranken	-11.7752
▁veranlasst	-11.7752
▁verweigert	-11.7752
▁gefangen	-11.7752
▁Damals	-11.7752
▁Weiterhin	-11.7752
▁Maßstab	-11.7752
▁anpassen	-11.7752
▁wahrgenommen	-11.7752
▁grand	-11.7752
▁Geschäfte	-11.7753
▁motivated	-11.7754
▁vorschlägt	-11.7755
building	-11.7755
▁contradiction	-11.7756
▁weitergehen	-11.7757
▁engine	-11.7758
▁contributes	-11.7761
▁trials	-11.7764
▁Democrat	-11.7765
▁missed	-11.7765
▁Nachteile	-11.7766
▁strain	-11.7766
▁consists	-11.7767
▁delegations	-11.7768
▁Behinderungen	-11.7773
ströme	-11.7774
ily	-11.778
▁erfolgte	-11.7782
▁Chemikalien	-11.7782
▁Harbour	-11.7782
▁aufweisen	-11.7782
▁Niederlage	-11.7782
▁echo	-11.7782
ered	-11.7785
Kandidatenländer	-11.7788
▁ersuchen	-11.779
▁älteren	-11.7791
▁Nachfolger	-11.7795
▁Deutschen	-11.7797
▁getrennt	-11.7801
gene	-11.7801
▁qua	-11.7803
leiten	-11.7804
work	-11.7804
▁Leistungsbilanz	-11.7805
▁Nazis	-11.7807
▁Republicans	-11.7811
▁assembly	-11.7812
▁ergänzt	-11.7812
▁ägyptische	-11.7812
▁Cohn	-11.7812
▁selber	-11.7812
▁Norway	-11.7812
▁Dienststellen	-11.7812
▁sentiment	-11.7816
sarbeit	-11.7817
▁bekanntlich	-11.7817
▁collect	-11.7819
▁produces	-11.7819
verwaltung	-11.7819
Wirtschaft	-11.7821
well	-11.7822
schulden	-11.7822
▁Hollande	-11.7828
▁Gene	-11.7828
▁aufgeben	-11.7831
▁nuklearen	-11.7832
▁Prozesse	-11.7832
▁suspend	-11.7834
▁ungerecht	-11.7841
▁Befreiung	-11.7842
▁Whilst	-11.7842
▁depression	-11.7842
▁gültig	-11.7842
▁subsidy	-11.7842
▁exposure	-11.7842
▁geschwächt	-11.7842
▁Thanks	-11.7844
▁benutzen	-11.7849
▁anhaltenden	-11.7853
▁zugenommen	-11.7854
▁visas	-11.7855
▁aufgeführt	-11.7862
▁zivile	-11.7862
▁koordiniert	-11.7863
▁settle	-11.7865
▁Qualitäts	-11.7869
▁Multi	-11.7869
▁begrüßenswert	-11.787
▁macro	-11.7872
▁Hezbollah	-11.7872
▁Optimismus	-11.7872
▁fünfzehn	-11.7872
▁namentlich	-11.7872
▁protein	-11.7872
▁unterstrichen	-11.7872
▁crash	-11.7872
▁geschah	-11.7872
▁agents	-11.7874
▁preference	-11.7877
verteilung	-11.7877
▁Inland	-11.7879
Mediterranean	-11.7879
▁cow	-11.7881
▁Zeitung	-11.7882
▁anscheinend	-11.7882
▁Ambitionen	-11.7883
rod	-11.7884
▁vergleichbar	-11.7885
skräfte	-11.7887
▁mainstream	-11.789
▁gesetzlich	-11.7894
▁Gelegenheiten	-11.7897
▁desperate	-11.7897
▁exact	-11.7898
zahlungen	-11.79
artiger	-11.79
▁bewirkt	-11.7902
▁silent	-11.7902
▁destination	-11.7902
▁einbeziehen	-11.7902
kal	-11.7905
▁King	-11.7906
NA	-11.7907
▁disruption	-11.7907
▁loan	-11.7907
▁MEP	-11.7908
▁Königreichs	-11.7908
▁pull	-11.7911
▁attempted	-11.7911
▁interpreted	-11.7912
▁sonstige	-11.7912
▁poll	-11.7914
▁moralischen	-11.7914
▁educated	-11.7914
▁turns	-11.7917
frei	-11.7917
▁selection	-11.7918
▁assert	-11.7919
▁Bedürfnissen	-11.7922
aktiv	-11.7922
ssystems	-11.7923
pec	-11.7926
drew	-11.7926
welt	-11.7928
▁Ereignissen	-11.7932
▁kennt	-11.7933
▁Bühne	-11.7933
▁prejudice	-11.7933
▁scheitern	-11.7933
▁Sometimes	-11.7933
▁quantity	-11.7933
▁Sozialmodell	-11.7933
▁east	-11.7933
▁arme	-11.7937
▁Roth	-11.7938
▁Suu	-11.7938
▁gelang	-11.794
win	-11.7945
▁Ms	-11.7945
▁abolished	-11.7946
▁Up	-11.7947
ante	-11.795
▁Lo	-11.7951
ox	-11.7952
▁Anmerkung	-11.7955
▁multilaterale	-11.7957
▁artificial	-11.7958
▁Zielsetzung	-11.7959
▁urged	-11.7963
▁dilemma	-11.7963
▁empfohlen	-11.7963
▁gewidmet	-11.7963
▁reluctant	-11.7963
▁True	-11.7963
▁boundaries	-11.7963
bereitschaft	-11.7963
▁exempt	-11.7964
▁Jong	-11.7964
▁alive	-11.7965
▁belgischen	-11.7965
▁enshrined	-11.7966
▁eigentlichen	-11.7966
▁Tibetan	-11.7967
▁frequent	-11.7968
▁circle	-11.797
▁betrug	-11.7972
▁aufgehoben	-11.7973
▁unmittelbaren	-11.7974
▁zentraler	-11.7975
▁bemerkenswerte	-11.7977
▁auto	-11.7979
▁Others	-11.7981
▁Sam	-11.7983
▁toll	-11.7984
▁Feind	-11.7985
schul	-11.7986
▁kleinere	-11.799
▁hundert	-11.799
▁Diesen	-11.7992
▁Schreyer	-11.7994
▁beeinträchtigen	-11.7994
▁einräumen	-11.7994
▁livestock	-11.7994
▁programming	-11.7994
▁Bestände	-11.7995
▁Ganze	-11.7996
▁Ganzen	-11.8
▁verliehen	-11.8
▁gemeint	-11.8003
▁Kindes	-11.8004
glücklicherweise	-11.8007
▁competitors	-11.8009
▁financially	-11.801
▁übermäßig	-11.801
▁zurückzu	-11.8013
▁virtue	-11.8013
AC	-11.8013
atur	-11.8014
▁manifest	-11.8016
hafte	-11.8018
▁Akzeptanz	-11.8024
▁gestrichen	-11.8024
▁kostspielig	-11.8024
▁rush	-11.8024
▁Corbett	-11.8024
▁Außengrenzen	-11.8025
▁ease	-11.8025
▁einstellen	-11.8026
▁invitation	-11.8026
bor	-11.8027
▁abgehalten	-11.8028
▁Haushaltsmittel	-11.8028
vier	-11.8033
▁risen	-11.8033
▁appelliere	-11.8035
saustausch	-11.8038
than	-11.8038
technologien	-11.8039
▁Aufruf	-11.8041
▁forecasts	-11.8042
▁gleicher	-11.8043
spolitiken	-11.8043
▁Perspektiven	-11.8049
hei	-11.8049
▁Generalsekretär	-11.805
▁vereinbar	-11.8052
banken	-11.8054
▁cod	-11.8055
▁Schlußfolgerung	-11.8055
▁empire	-11.8055
▁unannehmbar	-11.8055
freiheit	-11.8055
▁Aufstockung	-11.8055
▁Richard	-11.8055
▁quasi	-11.8055
▁curb	-11.8055
▁Energieträger	-11.8056
▁irre	-11.8056
▁endgültig	-11.8057
▁divisions	-11.8057
▁abzugeben	-11.8059
▁günstig	-11.8063
mail	-11.8063
Administration	-11.8064
▁ausmachen	-11.8065
▁Versorgungs	-11.8065
▁capture	-11.8066
▁vorgestellt	-11.8066
swachstums	-11.8069
▁postpone	-11.8069
▁wealthy	-11.8069
aging	-11.8076
▁weakening	-11.8078
▁mess	-11.8079
▁Peter	-11.8081
▁attached	-11.8084
▁trip	-11.8084
▁poorly	-11.8085
▁Konfrontation	-11.8086
▁aftermath	-11.8086
▁genehmigt	-11.8086
▁irrelevant	-11.8086
▁teilzunehmen	-11.8086
▁gedenkt	-11.8086
▁Pri	-11.8087
Strafgerichtshof	-11.8087
▁flexibler	-11.8088
▁engineering	-11.809
▁Modelle	-11.8091
▁humans	-11.8092
die	-11.8094
▁geboren	-11.8096
▁Han	-11.8106
lesen	-11.8107
▁Gewissen	-11.8107
pflicht	-11.8109
▁acquire	-11.8111
▁Recent	-11.8113
zeichen	-11.8116
▁Bernanke	-11.8117
▁Inzwischen	-11.8117
▁simplified	-11.8117
▁verliert	-11.8117
▁grasp	-11.8117
▁eingetreten	-11.8117
▁Anpassungen	-11.8117
▁Moldau	-11.8117
▁integrierte	-11.8119
▁deemed	-11.812
▁Anbau	-11.8121
▁postponed	-11.8126
fache	-11.8127
▁häufiger	-11.8127
stätigkeit	-11.8128
▁Liquidität	-11.8128
kommission	-11.8128
▁mountain	-11.8131
▁Feld	-11.8136
▁Frühjahr	-11.8139
▁vierte	-11.8144
sminister	-11.8145
▁ring	-11.8145
▁Beyond	-11.8148
▁Erleichterung	-11.8148
▁Gremium	-11.8148
▁Manchmal	-11.8148
▁liberty	-11.8148
▁ungewöhnlich	-11.8148
▁purchasing	-11.8148
▁formed	-11.8148
determining	-11.8148
▁Bezeichnung	-11.8149
▁Bestand	-11.8152
▁Leiden	-11.8152
▁vaccines	-11.8157
▁profile	-11.8159
▁blocked	-11.8163
▁biofuels	-11.8165
▁presents	-11.817
▁neglect	-11.8171
orientierte	-11.8171
▁üblichen	-11.8171
bald	-11.8172
▁ehrgeizigen	-11.8172
▁ansteigen	-11.8173
bruch	-11.8174
▁Besatzung	-11.8174
pot	-11.8175
▁Nicola	-11.8179
▁Einstimmigkeit	-11.8179
▁lebenslange	-11.8179
▁communism	-11.8179
▁Sierra	-11.8179
▁novel	-11.818
▁gelesen	-11.818
▁Großbritanniens	-11.818
▁reviewed	-11.8181
▁Zahlungs	-11.8184
▁qualifizierte	-11.8185
▁acquired	-11.8185
▁remit	-11.8186
ließ	-11.819
interest	-11.819
▁feels	-11.8192
Meinungsfreiheit	-11.8193
iterentwicklung	-11.8194
▁erreichte	-11.8197
▁offensive	-11.8201
SL	-11.8204
▁Cha	-11.8204
▁panic	-11.8205
▁criticise	-11.8205
▁Unruhen	-11.8205
▁distinct	-11.8207
brüche	-11.8211
▁Gazprom	-11.8211
▁Verschiebung	-11.8211
▁enemies	-11.8211
▁spur	-11.8211
▁guidance	-11.8211
▁gefällt	-11.8211
▁gründliche	-11.8216
▁Spiele	-11.8217
▁Hilfen	-11.822
▁Lin	-11.8221
Mitgliedschaft	-11.8222
wal	-11.8223
▁digitale	-11.8227
▁Reserven	-11.8227
▁ethnische	-11.8227
▁ausgewogene	-11.8228
setzt	-11.8229
▁Brennstoffe	-11.8233
▁ursprüngliche	-11.8234
▁Asiens	-11.8235
▁posts	-11.8236
▁cat	-11.8239
▁Ecofin	-11.8242
▁Göteborg	-11.8242
▁maintenance	-11.8242
▁Grundfreiheiten	-11.8242
▁Paragraph	-11.8242
▁Parallel	-11.8242
▁gewinnt	-11.8242
hersteller	-11.8242
▁Wann	-11.8242
▁caution	-11.8244
exporte	-11.8248
▁Conservative	-11.825
▁gesunden	-11.8251
crisis	-11.8254
Ausnahmeregelung	-11.8255
▁Stellungnahmen	-11.8256
▁ermutigend	-11.8258
▁Mess	-11.8259
lav	-11.826
[...]
