, 2331145
▁the 1677246
. 1512297
▁die 940645
▁in 930274
▁of 855277
▁der 840726
▁to 804828
▁, 774126
▁and 694096
▁und 683768
▁ 634938
▁. 536403
s 477059
▁a 432660
▁that 409439
▁is 392417
▁zu 346344
- 333791
0 327619
n 318632
▁den 299714
▁for 264425
en 259810
▁von 243592
▁ist 229490
▁für 227380
▁be 222701
▁I 221751
▁on 220416
▁dass 203330
▁das 194976
▁des 186949
▁this 186463
▁auf 185385
▁nicht 184884
2 183406
▁an 181675
1 179170
▁are 176679
▁we 175936
▁eine 174312
▁it 166088
▁have 162512
▁not 159231
▁as 159118
▁wir 155154
▁with 152319
▁werden 151813
e 148820
▁im 146040
▁mit 146026
▁es 144653
▁The 134027
▁which 132269
▁sich 131081
▁by 129215
▁will 129038
▁ein 124409
▁- 123274
▁dem 123117
▁auch 121658
▁European 117518
▁has 116293
▁– 112072
▁ich 109717
▁Die 109079
9 105064
▁wird 104237
▁sind 100999
▁Union 100595
▁haben 96726
▁' 96299
▁was 95991
▁als 95536
▁s 93071
▁um 91865
▁hat 90996
▁so 90403
▁sie 89554
▁In 88921
▁( 86483
▁’ 86152
▁wie 85397
▁also 84008
er 83406
▁über 83010
▁Ich 81940
▁would 80848
▁from 79994
▁EU 79926
▁at 79218
5 77181
▁all 76861
▁Europäische 76247
▁einer 75415
▁Mr 73587
▁zur 73221
ing 72145
▁should 69472
r 68447
▁Kommission 68011
▁Commission 67572
▁but 66940
▁more 63976
▁diese 63050
3 63042
▁been 62839
▁must 62723
▁bei 62597
▁einen 62057
▁its 62032
▁We 61748
▁their 61269
▁or 60104
▁our 60011
▁President 59990
: 58157
▁can 58055
▁Wir 57785
▁aus 57644
▁Herr 56519
▁vor 54115
▁Sie 54016
▁dieser 53238
▁uns 52946
▁müssen 52915
) 51996
▁oder 51865
4 51796
▁It 51745
▁they 51331
▁noch 51322
; 50589
▁nach 50237
▁durch 49657
▁nur 49096
▁countries 48788
▁am 47911
8 47835
▁können 47810
▁Das 47247
▁daß 46965
? 46753
▁do 46635
7 46518
▁Es 46347
▁Europe 46332
▁sein 45882
▁there 45870
▁wenn 45852
ed 45840
▁Parliament 45777
▁kann 45410
▁aber 45323
6 45262
▁“ 45221
▁% 45133
▁you 45133
▁one 44933
▁like 44678
▁States 44031
▁muss 43889
▁zum 43318
▁This 43144
▁these 42995
▁möchte 42875
▁einem 41906
▁who 41879
▁Member 41618
▁diesem 41477
▁Präsident 41008
▁report 40930
▁Council 40449
▁other 40205
▁about 40157
t 39532
m 38789
▁very 38666
▁Bericht 38080
▁only 38042
▁new 37871
▁what 37408
▁Der 37122
▁war 37042
d 37026
▁people 36988
▁ihre 36643
▁no 36212
▁sehr 35776
▁Parlament 35376
▁mehr 35196
! 34971
▁if 34900
es 34621
▁than 34587
▁er 34526
▁need 34475
▁wurde 33915
▁man 33678
▁policy 33192
▁time 33187
▁Europa 32892
▁such 32661
▁Mitgliedstaaten 32333
▁us 32318
▁because 32073
▁now 32042
▁out 31698
▁important 31555
▁up 31082
▁dieses 30934
ly 30673
▁my 29615
▁into 29303
▁eines 29231
▁economic 29156
▁political 28999
▁zwischen 28945
▁" 28881
▁) 28723
▁Entwicklung 28586
▁when 28529
▁alle 28290
▁were 28222
▁/ 27964
▁between 27656
▁some 27492
▁those 27484
▁support 27457
▁keine 27289
▁gegen 26977
▁unter 26970
▁make 26813
▁dies 26520
▁But 26499
▁US 26480
▁them 26390
▁Frau 26372
▁A 26235
▁: 26036
▁Menschen 25898
▁Rat 25863
▁world 25718
▁many 25642
▁China 25175
▁„ 24943
▁work 24812
▁any 24809
▁diesen 24543
▁gibt 24535
▁take 24469
▁being 23900
▁” 23883
▁years 23732
▁damit 23723
▁way 23549
▁europäischen 23477
▁anderen 23475
▁could 23310
▁sondern 23279
▁even 23277
▁hier 22920
ung 22904
▁most 22884
▁rights 22761
▁made 22564
▁country 22445
▁Frage 22330
▁against 22114
▁immer 21954
▁jedoch 21894
▁first 21812
▁sollte 21728
▁habe 21655
▁his 21488
▁over 21233
▁had 21224
▁sollten 21210
▁well 21207
▁therefore 21182
▁unsere 21000
▁heute 20964
▁As 20872
▁& 20687
▁just 20601
▁market 20525
▁public 20498
▁fact 20494
▁two 20401
▁financial 20375
▁wurden 20343
▁social 20326
▁Maßnahmen 20292
▁da 20135
▁believe 20085
▁würde 20034
▁Länder 19951
▁Welt 19902
▁dann 19860
▁ihrer 19841
▁much 19780
▁mich 19744
▁sowie 19707
▁say 19581
▁weil 19473
▁bereits 19316
▁development 19241
▁seine 19112
▁That 19041
▁Jahr 19031
▁vom 18885
in 18857
▁he 18833
▁future 18729
▁ganz 18712
▁Regierung 18622
▁does 18612
▁Recht 18606
▁denen 18487
▁Commissioner 18470
▁human 18435
▁right 18377
▁year 18345
▁Wenn 18312
▁international 18301
▁Jahren 18215
▁same 18114
▁selbst 18113
y 18032
▁dazu 17998
▁order 17967
▁darauf 17900
▁proposal 17867
▁may 17773
▁too 17766
▁national 17756
▁issue 17740
▁Zeit 17544
▁Land 17522
▁cannot 17514
▁Herrn 17508
▁how 17468
▁point 17325
▁today 17323
▁where 17313
▁dafür 17289
▁both 17128
▁denn 17100
▁think 17083
▁part 17051
▁bis 17021
▁So 17013
▁still 16948
▁andere 16811
▁system 16717
▁Diese 16695
▁Bürger 16582
▁question 16570
▁under 16570
▁USA 16535
▁Committee 16441
▁neuen 16348
▁long 16332
▁jetzt 16316
▁own 16313
▁possible 16310
▁geht 16305
▁clear 16294
▁good 16292
▁already 16281
▁neue 16274
▁want 16213
▁Arbeit 16193
▁citizens 16165
▁government 16057
▁Im 16000
▁debate 15984
▁Sicherheit 15937
▁unserer 15814
▁measures 15790
▁situation 15788
▁There 15688
▁Ländern 15676
▁Parlaments 15673
▁last 15529
▁use 15467
▁bin 15462
▁within 15458
▁course 15439
▁ohne 15299
▁? 15274
▁said 15203
▁me 15199
▁könnte 15175
▁example 15080
▁Vorschlag 15037
▁wäre 15020
▁ob 14961
▁here 14938
▁global 14931
▁agreement 14874
▁viele 14863
al 14749
▁United 14689
▁meine 14673
▁If 14670
▁sagen 14660
▁insbesondere 14659
▁doch 14621
▁common 14582
▁machen 14544
▁Aber 14533
▁far 14512
▁politischen 14510
▁Unterstützung 14408
▁know 14387
▁Und 14348
▁B 14334
▁growth 14290
▁Wirtschaft 14282
▁energy 14202
▁ihren 14195
▁allem 14102
▁Dies 14098
▁zwei 14032
▁Politik 13990
▁case 13988
▁; 13940
▁without 13878
▁view 13877
▁through 13873
▁problem 13821
▁H 13763
▁process 13763
▁mir 13731
▁Unternehmen 13723
▁wieder 13711
▁see 13664
▁able 13623
▁wo 13611
▁einige 13603
▁viel 13595
▁level 13593
▁wollen 13548
▁Ein 13502
▁ab 13446
▁particular 13427
▁why 13418
▁hope 13408
▁un 13326
▁Kollegen 13325
▁end 13324
▁Bereich 13317
▁For 13243
▁ensure 13236
▁Problem 13211
▁means 13183
▁taken 13155
den 13117
▁crisis 13112
▁Staaten 13102
▁seiner 13071
▁Rahmen 13038
▁trade 13013
▁allen 12951
▁Wie 12945
▁cooperation 12945
▁number 12940
▁however 12933
▁tun 12909
▁put 12866
▁Mrs 12853
▁before 12758
▁Zusammenarbeit 12756
▁economy 12742
▁problems 12691
▁Euro 12603
g 12550
▁letzten 12532
▁security 12532
▁wissen 12532
▁schon 12508
▁However 12448
▁nun 12398
▁Kommissar 12386
k 12370
▁your 12363
▁Gemeinschaft 12360
▁information 12350
▁Community 12341
▁Fall 12258
▁since 12220
▁action 12172
▁wichtig 12146
▁besteht 12104
▁after 12089
▁place 12019
▁Jahre 11986
▁area 11948
▁Ziel 11906
▁legal 11895
▁change 11885
▁einmal 11881
de 11854
▁Ihnen 11817
▁great 11810
▁issues 11777
▁budget 11764
▁law 11755
▁während 11750
▁particularly 11744
▁vote 11654
▁waren 11650
▁power 11616
▁given 11536
▁whether 11534
▁ver 11514
▁women 11492
▁Richtlinie 11486
▁etwas 11482
▁Frauen 11460
▁Zukunft 11413
▁health 11403
▁re 11396
▁ihr 11357
▁politische 11321
▁better 11306
▁state 11285
▁role 11282
▁Bedeutung 11237
▁Lage 11228
▁Probleme 11211
▁G 11202
▁help 11181
▁soll 11163
ä 11155
▁House 11094
▁areas 11072
▁Mittel 11048
▁Was 11041
▁necessary 11025
▁Rolle 11018
te 11005
▁give 10986
▁set 10952
▁gegenüber 10933
▁And 10926
▁high 10909
▁position 10894
▁Doch 10888
▁Da 10865
▁zwar 10840
se 10836
▁further 10832
▁weiter 10822
▁geben 10803
▁europäische 10727
▁rapporteur 10727
▁sector 10724
▁Fragen 10716
▁directive 10716
▁darüber 10706
▁worden 10696
▁come 10694
▁Thema 10656
▁again 10640
▁Grund 10637
▁gentlemen 10617
▁become 10608
▁Meinung 10549
A 10535
▁current 10535
▁meiner 10523
▁real 10523
▁Eine 10510
▁services 10505
▁davon 10489
▁seit 10486
▁terms 10481
▁respect 10450
▁next 10445
▁Teil 10443
▁needs 10442
▁decision 10440
▁institutions 10426
▁different 10422
▁große 10388
▁S 10386
▁matter 10379
▁result 10363
▁Russia 10353
h 10330
▁while 10316
▁policies 10268
▁including 10227
▁C 10223
▁unterstützen 10217
▁protection 10216
▁daher 10208
▁three 10143
apos 10137
▁Aus 10133
▁rules 10096
ten 10075
▁Weise 10052
▁drei 10021
▁regard 10017
▁did 10000
▁wirklich 9990
▁less 9961
▁Namen 9952
▁dabei 9915
▁What 9912
▁few 9903
▁aid 9891
▁continue 9795
be 9786
re 9780
▁progress 9720
▁done 9702
an 9636
▁Er 9594
▁kein 9502
▁lassen 9498
ü 9497
▁Weg 9487
▁million 9487
▁weniger 9481
▁Situation 9480
▁führen 9475
▁certain 9464
▁approach 9461
▁ihnen 9445
▁Millionen 9436
▁basis 9430
▁Treaty 9400
▁resolution 9398
▁deren 9376
▁möglich 9339
▁down 9333
▁Europas 9324
▁Rates 9288
wirtschaftlichen 9279
▁Minister 9252
▁Madam 9247
▁amendments 9246
▁Zusammenhang 9242
quot 9217
▁another 9211
a 9201
ge 9167
▁natürlich 9155
▁large 9152
st 9145
▁increase 9145
▁Schutz 9134
▁Members 9110
▁proposals 9106
▁Art 9100
▁Entscheidung 9087
▁stellen 9077
▁They 9072
▁Fraktion 9070
▁rather 9046
▁Demokratie 9042
▁würden 9036
▁nämlich 9030
▁stehen 9009
▁ladies 8994
ation 8993
▁thank 8992
▁großen 8988
▁Group 8981
▁least 8976
▁Auch 8973
l 8948
▁her 8940
▁major 8933
▁An 8930
▁resources 8929
▁gut 8925
c 8902
▁Iran 8892
▁especially 8881
f 8833
▁internationalen 8830
▁daran 8820
▁Umwelt 8816
▁go 8806
▁legislation 8806
▁steht 8797
▁second 8784
▁At 8782
▁during 8752
▁interest 8747
▁framework 8736
▁positive 8732
▁Deshalb 8716
▁provide 8703
▁recent 8699
▁darin 8693
▁bringen 8691
Berichterstatter 8684
▁group 8680
▁gesagt 8661
spolitik 8657
▁Beispiel 8655
o 8651
▁Mit 8638
▁Präsidentin 8629
▁agree 8624
▁present 8608
▁programme 8592
▁used 8577
▁Lösung 8572
▁favour 8549
▁democracy 8533
▁adopted 8520
▁behalf 8506
▁every 8499
▁Ver 8493
▁aller 8484
▁liegt 8481
▁ask 8474
▁könnten 8470
▁Wettbewerb 8469
▁itself 8469
▁Israel 8442
▁Entschließung 8421
▁opinion 8406
▁risk 8404
▁working 8403
▁something 8378
▁unseren 8363
▁sowohl 8360
▁Ende 8359
▁nationalen 8359
▁On 8356
▁back 8352
▁money 8335
▁To 8334
▁Auf 8332
Änderungsanträge 8324
▁conditions 8324
▁State 8307
▁greater 8278
▁de 8273
▁Verbraucher 8264
▁forward 8264
▁kommen 8253
▁might 8252
z 8244
▁together 8243
▁These 8234
▁Vereinigte 8230
▁Energie 8173
▁small 8156
▁UN 8134
▁research 8129
▁going 8122
▁hatte 8096
▁innerhalb 8088
▁find 8082
▁whole 8048
▁often 8032
▁opportunity 8023
▁strategy 8016
▁governments 8011
▁fundamental 8004
▁glaube 7987
▁E 7986
▁sogar 7966
▁weiterhin 7965
▁welche 7928
▁seinen 7916
▁Menschenrechte 7913
▁Möglichkeit 7906
▁betrifft 7885
▁Bank 7875
▁concerned 7869
▁principle 7858
▁towards 7858
▁wish 7857
▁serious 7854
▁indem 7832
▁free 7830
▁Vor 7825
▁difficult 7824
▁access 7805
▁markets 7795
▁ersten 7790
▁beiden 7785
▁society 7778
▁reform 7772
▁employment 7762
▁once 7759
▁really 7754
▁deutlich 7741
▁proposed 7722
▁Bevölkerung 7713
▁klar 7710
▁besonders 7699
▁Kosten 7690
▁Regierungen 7686
▁America 7683
▁reason 7679
▁Nach 7675
▁Debatte 7662
▁general 7662
▁Bezug 7655
▁each 7647
▁etwa 7630
▁ja 7629
▁best 7618
ig 7617
▁yet 7608
▁Ansicht 7607
▁industry 7602
▁states 7602
▁interests 7601
▁account 7595
▁Punkt 7585
▁authorities 7576
ic 7567
▁efforts 7559
▁subject 7556
▁region 7521
▁Russland 7519
▁companies 7517
▁always 7506
▁democratic 7506
▁making 7506
▁get 7505
▁deal 7500
▁third 7489
▁effective 7483
▁Rechte 7477
▁brauchen 7465
it 7459
▁erreichen 7451
▁environmental 7449
▁erhalten 7443
▁life 7443
▁specific 7432
▁Auswirkungen 7418
▁darf 7406
▁welcome 7405
▁weitere 7392
▁hand 7381
el 7369
▁Artikel 7361
▁eigenen 7355
▁private 7354
▁Japan 7353
or 7352
▁allerdings 7335
▁hinaus 7321
ers 7317
▁importance 7307
▁beispielsweise 7300
▁based 7286
▁Umsetzung 7282
▁Ebene 7281
▁control 7251
▁Hilfe 7250
▁Region 7244
▁Ziele 7239
▁negotiations 7239
▁finden 7228
▁responsibility 7228
▁Institutionen 7221
▁safety 7219
em 7216
▁sei 7215
▁peace 7199
▁Als 7182
sten 7180
▁No 7178
▁Markt 7176
▁clearly 7175
▁foreign 7172
▁regulation 7167
▁Ihre 7162
▁Leben 7157
▁vielen 7133
b 7109
▁tax 7104
▁gemeinsamen 7099
▁Verantwortung 7097
▁beim 7087
▁hoffe 7083
▁aufgrund 7079
▁developing 7071
▁transport 7071
▁investment 7056
▁shall 7054
▁achieve 7044
▁einigen 7042
▁ago 7038
▁sozialen 7038
▁schaffen 7021
▁products 7016
▁call 7000
▁children 7000
▁hätte 6984
▁alles 6961
▁things 6956
▁Krise 6935
▁Wachstum 6930
▁Vorschläge 6927
▁dessen 6926
▁nichts 6922
▁non 6897
▁quite 6887
ver 6884
▁Presidency 6883
▁freedom 6880
il 6870
▁solche 6857
▁Bei 6856
▁regions 6844
▁wichtige 6835
▁gemacht 6829
▁military 6829
▁past 6815
▁taking 6814
▁System 6810
▁environment 6804
▁Ausschuss 6799
▁vielleicht 6798
▁nuclear 6797
▁dürfen 6794
ischen 6793
▁Macht 6790
▁climate 6781
▁Geld 6770
▁full 6765
▁meisten 6763
▁attention 6759
▁öffentlichen 6757
▁sollen 6753
▁Grundlage 6749
▁Gesundheit 6747
▁workers 6743
▁needed 6735
▁gerade 6725
▁voted 6725
▁Tatsache 6720
▁EUR 6718
▁einfach 6701
inblick 6685
▁Strategie 6684
▁deshalb 6682
der 6654
▁D 6648
▁Änderungsantrag 6640
▁simply 6634
▁Abgeordneten 6631
▁Be 6625
▁handelt 6618
▁Um 6615
▁force 6606
▁kommt 6599
▁Herren 6596
▁ge 6592
▁genau 6591
▁Forschung 6583
▁internal 6576
▁keinen 6572
▁gemeinsame 6560
▁essential 6557
▁wirtschaftliche 6540
▁Beschäftigung 6538
▁Verhandlungen 6526
▁among 6519
term 6517
▁others 6514
▁education 6501
▁gilt 6491
▁besser 6467
▁Landes 6462
▁members 6461
▁funds 6452
▁words 6432
▁bedeutet 6431
▁zusammen 6430
▁open 6422
▁single 6422
ul 6412
▁food 6404
▁stellt 6401
▁Daher 6383
▁regional 6371
p 6365
▁create 6356
▁key 6354
▁allow 6336
ch 6326
▁Beziehungen 6312
ar 6309
▁little 6308
▁form 6305
▁Kinder 6302
▁costs 6302
▁having 6301
▁euro 6295
▁look 6294
▁majority 6282
▁competition 6273
▁Turkey 6263
▁Kolleginnen 6251
▁pro 6239
▁Regionen 6235
▁gehen 6235
sch 6228
▁Herausforderung 6224
▁Damen 6210
▁Abkommen 6209
▁Verfahren 6209
▁longer 6208
▁start 6186
▁various 6175
▁Erweiterung 6167
▁Türkei 6160
B 6159
▁nehmen 6153
▁points 6146
▁concerns 6142
▁hin 6140
▁consider 6136
▁capital 6135
▁notwendig 6132
▁Interesse 6131
▁Abstimmung 6127
▁ebenfalls 6127
▁All 6107
▁With 6103
▁themselves 6097
▁bring 6083
▁danken 6082
▁impact 6082
▁production 6078
▁solution 6071
▁ihrem 6069
▁weit 6069
▁groups 6062
▁nächsten 6061
▁Man 6060
▁Germany 6057
▁Interessen 6051
th 6048
▁short 6032
▁step 6031
▁Vertrag 6028
▁though 6023
▁Ausdruck 6021
▁sehen 6019
▁implementation 6016
▁Für 6001
▁enough 6000
▁standards 5974
▁dort 5973
▁certainly 5962
▁Ausschusses 5961
▁sprechen 5950
▁main 5948
▁Finanz 5938
▁Aussprache 5937
▁unterstützt 5928
▁billion 5919
▁strong 5917
▁leaders 5916
▁Gesellschaft 5913
▁period 5911
▁halten 5897
▁Verfassung 5880
▁decisions 5865
▁zurück 5865
▁Informationen 5856
▁Verordnung 5856
▁improve 5854
▁relations 5851
▁Zugang 5850
▁debt 5850
▁Förderung 5844
▁Reform 5834
▁Investitionen 5828
▁remain 5816
▁werde 5815
▁fully 5791
▁darum 5788
▁involved 5785
▁rate 5782
▁Zu 5779
▁jobs 5769
▁d 5766
▁unser 5758
▁American 5744
to 5741
▁Schritt 5737
▁around 5731
▁bleiben 5717
▁systems 5717
▁accept 5706
ern 5705
▁quality 5700
▁parties 5688
▁Form 5684
▁denke 5669
▁local 5667
▁committee 5665
w 5652
▁demand 5638
▁business 5618
▁actually 5617
▁concern 5617
▁following 5617
▁ihm 5611
▁Internet 5607
▁fight 5603
▁Dieser 5598
▁P 5598
▁objectives 5588
▁Richtung 5583
▁Antwort 5579
▁Anwendung 5579
▁fast 5578
▁Ukraine 5576
▁Kontrolle 5573
▁France 5571
▁erforderlich 5555
▁hinsichtlich 5554
▁Behörden 5551
▁One 5550
▁Bedingungen 5549
▁September 5548
ieren 5534
▁indeed 5530
▁procedure 5530
▁Jahres 5529
▁population 5528
▁Erfolg 5523
▁Mehrheit 5522
▁Affairs 5511
▁prices 5506
▁lead 5505
▁months 5501
▁Re 5494
▁ebenso 5490
▁He 5489
▁Notwendigkeit 5487
▁internationale 5486
▁verschiedenen 5485
▁agreements 5455
▁doing 5454
▁data 5451
ity 5449
▁sicher 5446
▁ihn 5441
▁wenig 5433
▁Schaffung 5427
▁anti 5414
▁Gewalt 5405
▁Finanzierung 5402
▁meeting 5391
▁Indeed 5388
▁Government 5385
▁erreicht 5384
▁Un 5377
▁Ab 5372
ste 5369
▁dar 5362
▁lack 5362
▁day 5350
▁Ergebnis 5345
et 5343
▁Fortschritte 5341
▁tatsächlich 5340
▁cases 5338
zu 5336
▁When 5335
▁enlargement 5329
▁oil 5325
▁hatten 5322
lich 5315
▁available 5315
able 5305
▁results 5299
▁erst 5294
▁seems 5293
▁Gebiet 5283
i 5280
▁hard 5279
▁Reihe 5276
▁share 5276
▁plan 5271
▁reduce 5271
▁never 5270
▁Haushalt 5264
▁Handel 5260
▁per 5253
▁erste 5246
▁let 5245
▁true 5244
um 5243
▁Industrie 5243
▁extremely 5239
▁young 5225
▁kind 5224
▁currently 5222
▁Africa 5220
▁cost 5219
▁context 5218
▁Wirtschafts 5216
▁significant 5212
▁gute 5208
▁idea 5203
▁agricultural 5201
▁dialogue 5197
▁prevent 5195
▁gestimmt 5194
S 5192
▁individual 5182
▁Obama 5179
▁aware 5178
▁him 5178
▁initiative 5178
▁Verbesserung 5177
▁seinem 5174
gesichts 5161
▁Staat 5159
▁Aufgabe 5152
▁central 5152
▁programmes 5152
ist 5148
▁Folgen 5148
▁World 5147
▁Bekämpfung 5143
▁understand 5143
▁rates 5140
▁management 5139
$ 5138
▁K 5129
▁weiß 5128
▁Finally 5127
▁Milliarden 5124
▁Z 5115
▁Court 5100
▁questions 5089
▁bereit 5087
▁t 5081
▁WTO 5080
▁Kampf 5073
▁jeder 5073
P 5072
▁Beitrag 5071
▁objective 5065
us 5058
▁Meine 5041
▁Bereichen 5034
▁wohl 5032
▁soziale 5028
▁Dollar 5025
▁pay 5016
▁appropriate 5008
▁amendment 4998
▁civil 4997
▁reasons 4995
▁act 4989
▁Kosovo 4987
▁banks 4985
▁perhaps 4982
▁Haus 4981
▁East 4976
▁heißt 4968
▁F 4967
▁responsible 4966
▁fördern 4960
▁Bildung 4955
▁Lissabon 4955
▁Lisbon 4951
▁Bush 4948
▁sense 4942
▁derzeit 4940
▁Putin 4935
▁Deutschland 4934
▁nothing 4931
▁völlig 4924
▁matters 4919
▁M 4917
▁agenda 4915
iert 4914
▁field 4913
▁off 4911
▁poverty 4909
▁lange 4907
▁wichtigen 4892
▁bleibt 4889
▁low 4885
▁seen 4883
▁Landwirtschaft 4881
▁Programm 4873
▁V 4872
▁meinen 4866
▁obwohl 4866
▁face 4864
▁Präsidenten 4863
ab 4860
▁economies 4859
▁effect 4858
▁scheint 4857
▁text 4856
▁commitment 4851
▁thing 4851
ische 4847
▁stability 4847
▁consumers 4843
▁Mitglieder 4842
▁land 4834
▁lediglich 4830
▁makes 4825
▁sustainable 4822
▁almost 4817
ro 4810
G 4807
▁Initiative 4807
▁Article 4805
▁Let 4804
▁principles 4798
▁Erachtens 4792
▁gehört 4787
▁feel 4784
▁several 4782
▁sure 4774
▁French 4772
▁value 4768
▁play 4761
le 4760
▁projects 4760
▁thus 4754
▁move 4751
▁NATO 4747
▁mean 4746
▁moment 4745
▁Gefahr 4728
▁gemeinsam 4724
▁line 4724
▁response 4721
▁reforms 4714
▁rule 4708
▁gleichzeitig 4706
▁Bemühungen 4705
up 4704
▁Standpunkt 4704
▁price 4698
▁Nationen 4693
▁comes 4680
▁gestellt 4677
▁Iraq 4672
▁T 4669
▁final 4669
▁changes 4668
▁Kommissarin 4664
▁increased 4660
▁success 4657
▁Haushalts 4653
ö 4652
▁special 4651
▁Integration 4650
▁mentioned 4647
▁integration 4643
▁verbessern 4643
▁gesamten 4641
▁Entscheidungen 4640
▁potential 4637
▁remains 4634
on 4628
▁Seite 4624
▁Programme 4620
▁funding 4619
▁concerning 4617
▁benefit 4608
ne 4598
▁You 4598
▁geführt 4596
▁times 4583
▁recently 4581
▁conflict 4578
▁include 4574
▁vergangenen 4574
ism 4572
▁balance 4571
▁angenommen 4570
▁values 4569
im 4564
▁project 4562
ment 4561
▁Afghanistan 4554
sfähigkeit 4551
▁Gelegenheit 4551
▁Möglichkeiten 4548
▁öffentliche 4548
▁gegeben 4545
▁compromise 4540
▁Ansatz 4538
▁Convention 4537
at 4530
▁until 4530
▁promote 4529
▁globalen 4527
▁elections 4526
▁Terrorismus 4519
▁Frieden 4517
▁activities 4517
▁macht 4516
▁Selbst 4513
▁Außerdem 4512
▁oft 4511
▁Fischerei 4506
▁violence 4496
▁community 4495
▁likely 4495
▁terrorism 4492
▁Party 4491
▁Armut 4490
▁Frankreich 4489
▁setzen 4487
▁above 4484
ia 4482
▁Verfügung 4476
▁Arbeitnehmer 4475
▁Daten 4465
▁Erklärung 4464
▁called 4463
▁fest 4458
▁Partei 4457
▁protect 4453
▁My 4449
▁due 4448
▁Wahl 4439
▁hohe 4434
▁priority 4433
▁higher 4429
▁achieved 4427
▁äußerst 4427
▁Irak 4423
▁einzelnen 4423
▁bisher 4422
▁left 4422
▁Reformen 4421
▁Geschichte 4415
▁Krieg 4415
▁provided 4412
▁gebracht 4408
▁Mal 4399
▁across 4397
▁ever 4397
▁nutzen 4388
▁Freiheit 4384
▁soon 4374
▁although 4371
▁Moreover 4370
▁W 4369
▁Präsidentschaft 4368
▁meines 4365
▁bestehen 4360
ol 4355
▁fiscal 4353
▁L 4351
▁levels 4350
▁wobei 4342
▁consequences 4339
▁reports 4331
▁keep 4324
▁hätten 4319
▁International 4310
▁close 4292
▁Wort 4291
M 4283
▁poor 4272
▁Rights 4271
▁Zahl 4268
▁term 4267
▁gewährleisten 4261
▁Diskussion 4257
▁regime 4257
▁November 4256
▁upon 4256
▁benefits 4251
▁agreed 4250
▁Unter 4248
▁Druck 4247
▁rise 4247
▁Einführung 4246
igen 4245
▁five 4244
▁draft 4240
▁increasing 4238
▁Grenzen 4234
svorschriften 4230
▁address 4230
▁legislative 4226
▁richtig 4224
▁Chinese 4218
▁challenges 4214
▁beitragen 4213
▁führt 4210
▁halte 4210
▁job 4210
ungen 4209
u 4207
▁answer 4206
ierung 4203
▁R 4203
▁held 4202
gen 4194
▁basic 4194
▁focus 4193
▁actions 4177
▁British 4173
▁fünf 4173
▁half 4172
▁consumer 4163
▁Ergebnisse 4158
▁Dank 4156
▁helfen 4152
▁Transparenz 4149
▁Auffassung 4147
▁gar 4147
▁water 4138
▁develop 4135
▁Prozess 4130
▁meinem 4127
▁Über 4119
▁pressure 4118
▁jeden 4112
▁verhindern 4109
▁regards 4107
▁she 4107
▁mind 4104
▁India 4102
C 4101
▁show 4101
▁leisten 4098
▁Personen 4097
▁either 4095
▁guarantee 4092
▁Berichts 4087
▁avoid 4087
D 4086
▁arbeiten 4083
▁‘ 4082
▁Öffentlichkeit 4081
▁Dialog 4078
Fraktion 4076
▁stark 4072
▁effort 4068
▁aim 4064
▁external 4059
▁everyone 4058
▁GDP 4051
▁Of 4048
F 4046
▁Hinsicht 4044
▁sorgen 4042
▁Viele 4039
▁Zweitens 4038
▁Our 4035
▁schnell 4023
▁addition 4022
▁Kultur 4016
verständlich 4013
▁Tagesordnung 4013
▁Banken 4008
▁service 4008
▁zweite 4008
▁New 4007
▁existing 4006
▁stand 4006
▁begrüße 4003
▁unemployment 4003
▁leben 3995
▁practice 3992
▁Solidarität 3982
▁model 3981
▁transparency 3977
▁Ressourcen 3976
▁großer 3974
▁Änderung 3974
▁four 3972
▁europäischer 3969
▁hoch 3969
▁creation 3962
▁crucial 3962
▁allein 3957
▁solidarity 3953
▁weiteren 3938
id 3936
▁Fund 3936
▁gab 3936
▁adopt 3933
▁excellent 3928
▁opportunities 3927
▁zeigt 3927
▁forces 3924
▁assistance 3923
▁old 3921
ive 3916
▁Handels 3916
▁Wahlen 3915
▁ermöglichen 3915
ion 3909
▁Regeln 3909
▁enthalten 3908
bei 3899
▁Hier 3899
▁Bürgern 3898
▁monetary 3898
▁Zeitpunkt 3897
▁wichtiger 3897
ent 3895
▁Parteien 3895
▁inter 3894
politik 3893
▁stärker 3893
▁vier 3888
▁zunächst 3884
▁history 3883
▁turn 3882
▁größten 3870
DE 3869
▁cultural 3864
▁increasingly 3864
▁Vertrauen 3863
▁joint 3861
▁Natürlich 3858
▁cause 3854
▁Themen 3851
▁technical 3849
▁effects 3844
▁Aufmerksamkeit 3842
▁apply 3841
▁required 3841
▁getan 3840
▁experience 3839
▁despite 3837
▁Lebensmittel 3834
ter 3832
▁congratulate 3832
▁meet 3829
▁Dieses 3826
▁Greece 3826
▁West 3823
▁fair 3810
▁Erstens 3809
▁South 3808
▁Trump 3798
▁Stabilität 3797
▁aspects 3796
▁regarding 3790
▁solchen 3790
▁care 3789
▁speak 3788
▁former 3786
▁zumindest 3786
▁technology 3767
▁labour 3765
▁Darüber 3763
▁tragen 3763
bzw 3762
▁Tat 3757
▁Pakistan 3756
▁away 3756
▁using 3753
▁anderer 3752
▁Development 3750
▁total 3750
▁zeigen 3750
▁discussion 3746
▁co 3745
▁Beitritt 3744
▁Vorschriften 3743
▁post 3739
▁Amendment 3738
▁developed 3737
▁nature 3735
▁Dinge 3734
▁equal 3732
▁powers 3731
▁unserem 3728
T 3725
▁enable 3724
▁exchange 3723
▁income 3719
▁contribution 3717
▁konnte 3716
▁fordern 3710
ci 3708
▁After 3707
▁self 3707
▁behind 3705
▁Nations 3704
▁negative 3699
sverfahren 3697
▁throughout 3694
▁home 3691
▁asked 3689
▁risks 3689
▁entwickeln 3685
▁found 3684
▁live 3683
▁media 3681
▁liegen 3680
▁emissions 3679
▁Arbeitsplätze 3678
▁Ausgaben 3677
▁Rechts 3675
▁Politiker 3673
▁communication 3672
▁Annahme 3671
▁challenge 3671
▁stage 3671
▁farmers 3662
▁early 3658
▁Directive 3655
▁Nicht 3655
▁Binnenmarkt 3654
▁reality 3653
▁structural 3653
▁unterschiedlich 3648
▁schließlich 3646
▁Tag 3642
▁weltweit 3636
as 3631
ness 3626
▁Russian 3623
▁sagte 3623
▁Opfer 3619
▁movement 3618
▁Central 3617
▁warum 3616
▁De 3614
▁wahrscheinlich 3614
▁Text 3613
▁Preis 3610
▁erster 3610
▁zehn 3609
▁natural 3606
▁lässt 3604
▁huge 3597
▁schriftlich 3595
▁took 3595
▁quickly 3593
▁training 3592
▁BIP 3591
▁bekannt 3590
▁coming 3590
▁regulations 3587
▁einzige 3585
▁Le 3584
▁member 3581
▁illegal 3573
▁established 3572
▁everything 3572
▁ziehen 3572
▁week 3571
Dienstleistungen 3565
▁living 3564
ur 3563
▁accession 3563
sicherheit 3560
▁Tatsächlich 3559
fe 3557
▁reach 3552
▁ourselves 3550
▁growing 3546
▁currency 3544
▁spielen 3541
▁demokratischen 3539
▁relation 3539
▁Durch 3536
▁Qualität 3536
▁eindeutig 3536
▁bestimmte 3534
▁Obwohl 3531
▁Risiko 3530
▁lower 3529
▁direction 3527
Office 3525
▁Bestimmungen 3525
▁Damit 3525
▁express 3525
▁Gründen 3524
▁capacity 3524
▁By 3523
▁reached 3523
land 3522
▁spending 3522
▁dringend 3519
▁versuchen 3519
▁voll 3518
▁similar 3517
▁Prozent 3516
▁Angelegenheit 3512
isch 3506
▁nor 3505
▁eigentlich 3503
▁party 3503
▁Angelegenheiten 3502
▁Even 3502
▁led 3500
▁German 3499
▁Verwaltung 3498
▁p 3497
▁carried 3496
▁organisations 3494
▁return 3494
▁supply 3492
erstatterin 3486
▁provisions 3486
▁saying 3485
▁First 3482
▁implement 3482
▁created 3481
▁amount 3476
▁National 3475
▁direct 3473
▁Sache 3470
▁tell 3470
▁diejenigen 3469
▁domestic 3469
▁borders 3468
▁Portugal 3467
▁doubt 3466
▁Vereinte 3464
▁May 3462
▁outside 3462
▁überhaupt 3462
▁criteria 3461
▁vorgeschlagen 3459
▁men 3458
▁trotz 3456
▁stimmen 3454
O 3453
und 3453
▁procedures 3452
▁unseres 3452
▁colleagues 3450
▁Schwierigkeiten 3448
▁Vergangenheit 3447
▁Angesicht 3444
▁brought 3442
▁geworden 3441
▁geschaffen 3440
▁initiatives 3438
▁rest 3437
ut 3436
R 3432
▁task 3432
▁Asia 3427
▁ihres 3426
▁nie 3426
▁election 3423
▁Kapital 3421
▁genommen 3418
▁light 3415
▁dadurch 3414
▁Secondly 3413
▁goods 3410
▁statement 3410
▁voting 3408
▁eher 3407
▁North 3406
▁vertreten 3404
▁wegen 3404
▁establish 3401
▁Bürgerinnen 3399
▁Organisation 3397
▁Wert 3396
▁gewesen 3395
▁Während 3394
▁verbunden 3394
▁businesses 3393
▁Kraft 3392
▁Position 3386
▁weder 3385
▁presented 3383
▁neuer 3382
▁requirements 3382
▁wären 3380
▁Seiten 3379
▁wichtigsten 3378
▁z 3376
▁draw 3375
▁möglicherweise 3374
▁pre 3371
▁Produktion 3370
▁Information 3368
▁vital 3367
▁Middle 3364
▁Steuer 3364
▁raised 3364
ta 3359
▁stop 3358
▁Zum 3357
▁Anstrengungen 3353
▁Instrument 3352
▁Monaten 3352
▁industrial 3352
▁previous 3352
▁e 3351
▁Medien 3349
▁Punkte 3349
▁einschließlich 3347
▁Werte 3345
▁erneut 3344
▁Haltung 3343
▁instruments 3343
▁Sektor 3342
▁darstellt 3342
▁bekommen 3340
▁inflation 3339
▁road 3339
▁Verpflichtungen 3336
▁administration 3336
▁along 3336
▁russische 3335
▁threat 3334
▁additional 3325
▁Some 3324
▁Sicht 3321
▁Öl 3316
▁Therefore 3315
▁confidence 3314
▁Today 3313
▁größere 3312
▁decided 3311
▁days 3310
▁writing 3310
co 3307
▁Italy 3307
▁lives 3307
▁prepared 3307
▁statt 3305
▁namely 3302
▁require 3298
▁pleased 3297
▁requires 3297
▁ways 3295
▁jene 3294
▁Anfang 3292
▁Not 3292
é 3291
▁fishing 3290
▁Eurozone 3288
▁ergreifen 3286
▁sectors 3286
▁später 3286
▁bewusst 3284
▁review 3284
FR 3283
▁relevant 3279
▁Woche 3278
▁infrastructure 3278
▁offer 3274
▁schützen 3274
▁h 3273
▁Hand 3272
▁creating 3272
▁Zunächst 3271
ren 3269
▁Western 3269
▁partners 3267
▁bessere 3263
▁Haupt 3262
▁beyond 3262
▁Wasser 3261
▁immigration 3261
▁mention 3259
▁berücksichtigt 3258
▁Kompromiss 3255
N 3253
▁kleinen 3251
▁side 3251
▁knowledge 3245
▁Vertreter 3244
un 3242
▁Osten 3238
▁Yet 3238
▁behandelt 3238
▁gleichen 3238
▁justice 3238
iv 3236
▁nationale 3235
I 3231
▁Agenda 3230
▁cohesion 3227
▁try 3225
di 3223
▁Globalisierung 3223
▁Now 3220
▁tabled 3220
▁treatment 3220
▁War 3219
▁events 3219
▁implemented 3219
▁Folge 3218
▁hinter 3217
▁priorities 3216
is 3215
▁status 3215
▁Economic 3214
▁Ge 3214
▁alone 3214
▁Indien 3212
▁ten 3212
▁expressed 3211
▁gesamte 3211
▁amerikanischen 3208
▁schwer 3207
▁O 3201
▁kaum 3198
▁leider 3196
▁Änderungen 3192
▁Chinas 3188
▁follow 3181
▁kurz 3181
▁Allerdings 3179
▁Fällen 3178
▁begin 3177
▁gleich 3177
▁CO 3175
▁air 3172
ko 3171
mp 3168
▁Verteidigung 3165
▁While 3165
▁Großbritannien 3161
▁häufig 3161
▁run 3160
▁Plan 3159
▁vorgelegt 3159
▁family 3158
▁erinnern 3155
▁Schließlich 3153
▁institutional 3149
▁request 3149
▁Am 3145
▁strengthen 3145
▁politics 3144
▁UK 3142
▁budgetary 3142
▁versucht 3138
▁jedes 3137
▁globale 3136
▁extent 3135
▁konnten 3134
▁seem 3134
▁genug 3132
▁six 3128
▁reduction 3123
▁victims 3123
▁big 3122
▁Aspekte 3120
▁supported 3114
▁alternative 3113
▁credit 3112
▁Einsatz 3111
ling 3109
schutz 3108
▁Führung 3107
▁innovation 3105
ige 3104
▁April 3103
▁heutigen 3102
ph 3101
▁waste 3099
▁Einfluss 3097
▁medium 3097
▁talk 3097
▁annual 3096
▁strategic 3096
▁Ireland 3095
▁verstehen 3094
▁Ja 3092
▁zweiten 3090
and 3088
tra 3087
▁Schulden 3082
▁Einigung 3081
▁independent 3080
▁opposition 3080
▁Republik 3079
▁General 3077
▁begrüßen 3077
▁kommende 3074
mo 3073
▁application 3073
▁heraus 3071
▁successful 3071
▁Security 3069
industrie 3067
▁December 3065
▁Sinne 3064
▁relating 3062
pp 3061
▁beginning 3058
▁crime 3058
▁wrong 3058
ir 3056
▁fall 3055
▁giving 3054
▁massive 3054
▁neu 3054
▁ermöglicht 3051
▁included 3049
▁jedem 3049
▁Behandlung 3048
▁Griechenland 3048
▁akzeptieren 3047
▁erwarten 3047
▁mere 3047
▁Dezember 3046
bar 3040
▁finanziellen 3038
▁death 3037
▁received 3034
ant 3031
▁hold 3031
▁Sch 3029
▁Staats 3028
▁hohen 3025
▁influence 3020
H 3019
▁personal 3019
▁Republic 3018
▁expect 3018
▁Währung 3016
▁genannten 3015
▁Anerkennung 3012
▁Ausbildung 3012
▁glauben 3011
▁list 3006
▁takes 3004
▁finally 3001
▁angesprochen 2998
▁solutions 2998
▁insgesamt 2996
ti 2995
▁competitiveness 2994
Arbeitslosigkeit 2993
ner 2993
▁effectively 2991
▁monitoring 2990
▁highly 2985
▁instead 2984
▁talking 2984
▁later 2982
▁Volkswirtschaft 2981
▁fellow 2980
▁jede 2980
▁summit 2980
▁gas 2979
▁possibility 2979
▁eurozone 2978
▁ändern 2977
he 2976
▁completely 2976
▁bitte 2975
▁ent 2973
▁treffen 2973
age 2971
▁guten 2971
▁bieten 2970
man 2967
▁berücksichtigen 2967
▁Mitglied 2965
▁Conference 2964
▁Heute 2963
▁according 2963
▁bevor 2963
▁Organisationen 2962
▁stress 2962
E 2961
▁Europeans 2961
▁Anteil 2957
▁betrachtet 2955
▁Mitteilung 2954
▁agriculture 2954
▁reading 2953
▁conclusion 2952
▁instrument 2952
▁fisheries 2947
▁Stelle 2945
▁endlich 2945
▁wider 2945
▁bezüglich 2940
▁Korea 2938
▁presidency 2936
▁culture 2935
EN 2933
▁encourage 2932
▁trying 2932
▁enorme 2928
▁Afrika 2927
▁Linie 2926
▁package 2925
▁finanzielle 2924
▁Abschließend 2923
▁limited 2922
▁verantwortlich 2921
▁allowed 2920
▁möchten 2920
▁cross 2918
▁Mitgliedstaat 2917
▁politischer 2915
▁sieht 2914
▁How 2906
▁lot 2902
▁aufgenommen 2900
▁tomorrow 2898
▁People 2897
▁bestimmten 2897
▁Palestinian 2895
▁leading 2894
▁lösen 2893
▁umgesetzt 2893
▁fear 2892
▁vergessen 2890
▁committed 2889
▁Höhe 2887
▁Unsere 2886
ität 2883
ri 2883
me 2880
▁je 2880
▁late 2880
▁hinweisen 2879
▁Beginn 2878
▁precisely 2878
ck 2877
▁providing 2874
▁Überwachung 2874
▁besten 2873
ismus 2872
▁failure 2872
▁jüngsten 2872
▁produce 2868
▁aimed 2867
▁recht 2863
ert 2860
▁bietet 2859
▁ensuring 2859
▁Transport 2858
▁applied 2855
▁finance 2854
heit 2853
▁Sozial 2850
▁decades 2848
▁Forderung 2847
▁Konferenz 2846
▁gefordert 2845
▁sechs 2842
▁offen 2841
▁entire 2840
▁durchaus 2837
▁message 2837
▁II 2836
▁heard 2836
▁Prime 2835
▁damage 2835
kt 2833
▁Innovation 2833
▁criminal 2833
▁practical 2832
▁Durchführung 2831
▁mein 2830
▁Although 2829
▁parliamentary 2828
▁eben 2826
▁shown 2825
▁thanks 2821
▁konkrete 2819
▁verfügen 2819
▁Abgeordnete 2818
▁Amsterdam 2817
▁Schengen 2816
▁Risiken 2815
▁Chance 2812
▁Many 2811
▁erklärt 2810
▁outcome 2809
▁außerdem 2806
▁Spain 2804
▁bilateral 2804
▁century 2804
▁Lösungen 2803
▁Mai 2796
▁Von 2796
▁dis 2794
▁Gesundheits 2793
▁add 2793
▁überzeugt 2790
ein 2789
▁considered 2789
▁financing 2789
▁probably 2789
▁getroffen 2786
▁scientific 2786
▁Since 2785
▁Initiativen 2784
▁known 2784
▁Italien 2783
▁erhöhen 2783
▁provides 2782
▁morgen 2781
▁ehemalige 2779
▁Human 2777
▁Infrastruktur 2773
▁braucht 2773
▁entscheiden 2773
▁erzielt 2773
▁eingesetzt 2772
▁fallen 2772
▁gehören 2772
▁representatives 2772
sektor 2771
▁lost 2771
▁eigene 2769
▁circumstances 2767
▁coordination 2767
▁offensichtlich 2767
▁note 2766
▁derartige 2764
▁Furthermore 2763
▁Such 2763
▁carry 2763
▁speech 2763
▁Einwanderung 2762
▁gezeigt 2761
▁failed 2759
▁discuss 2756
▁stärken 2755
▁overall 2754
▁Veränderungen 2752
▁Fortschritt 2751
▁administrative 2751
▁scope 2750
▁unbedingt 2750
▁Regelung 2747
▁absolutely 2747
▁directly 2745
▁geleistet 2745
▁reducing 2745
▁Familien 2744
▁modern 2744
▁weapons 2744
W 2742
▁calls 2741
▁Lassen 2739
▁danke 2738
ra 2736
▁hoffen 2733
▁affected 2731
vi 2729
▁Sorge 2729
▁build 2724
▁maintain 2724
▁efficiency 2723
▁Zustimmung 2722
▁item 2722
▁entwickelt 2721
ger 2719
▁June 2717
▁contribute 2717
▁Verwendung 2714
ho 2713
▁erkennen 2712
▁Europäer 2708
▁Rede 2707
▁improving 2706
called 2705
▁Kriterien 2705
▁Policy 2705
▁Vereinbarung 2704
▁leave 2704
▁beide 2703
▁konzentrieren 2703
▁sicherzustellen 2703
▁views 2703
▁Vertrags 2702
ated 2701
▁caused 2699
▁document 2699
▁evidence 2699
▁police 2699
▁beschlossen 2698
▁plans 2698
▁somit 2697
▁Democrats 2695
▁combat 2695
▁emerging 2692
ke 2691
▁Amerika 2691
keit 2689
▁discussions 2688
▁Volk 2686
▁Al 2685
▁authority 2685
ft 2684
▁Agreement 2684
▁Zweifel 2684
ken 2683
▁Liberalisierung 2683
▁demands 2681
▁Gesetzgebung 2680
▁zunehmend 2680
▁schwierig 2679
▁humanitarian 2678
▁folgt 2674
▁Juni 2673
▁erzielen 2673
▁steps 2670
▁assessment 2669
▁Augen 2668
▁Waffen 2666
▁rural 2663
rat 2662
▁Falle 2662
▁respond 2662
ate 2661
ug 2661
▁discrimination 2661
▁candidate 2660
▁befinden 2657
▁Stärkung 2656
▁Prioritäten 2653
▁forms 2652
▁Einige 2650
▁besondere 2648
▁campaign 2648
▁participation 2648
▁border 2646
▁verpflichtet 2645
▁erfüllen 2644
▁Regulierung 2642
▁becoming 2640
▁Social 2637
▁bestehenden 2634
▁considerable 2634
▁transparent 2634
V 2633
▁goes 2633
▁sch 2632
▁age 2630
▁übernehmen 2630
▁asylum 2629
▁happen 2628
▁Partnerschaft 2627
▁richtige 2625
cht 2624
▁Dennoch 2624
▁dealing 2623
▁Gesamt 2621
▁Kingdom 2621
▁Belarus 2619
▁wesentlich 2619
▁dangerous 2615
▁dagegen 2613
▁größte 2611
▁Märkte 2607
▁union 2605
▁Aktivitäten 2602
▁Seit 2601
▁allgemeinen 2600
▁verstärkt 2596
▁Diskriminierung 2595
▁Nutzung 2595
▁adoption 2594
▁receive 2594
▁Fed 2593
▁purpose 2593
▁competitive 2591
men 2590
▁Verbindung 2587
▁came 2586
ry 2585
▁betonen 2585
▁gegenwärtig 2583
li 2582
▁festgelegt 2579
▁britischen 2578
▁entschieden 2578
▁Gesetze 2576
▁Inflation 2576
▁paid 2575
▁politicians 2574
▁vermeiden 2573
ien 2572
est 2571
▁stimme 2571
unternehmen 2570
▁discussed 2570
▁fund 2570
▁refugees 2570
▁gesprochen 2569
▁verfolgen 2567
▁study 2565
▁activity 2564
▁seriously 2564
▁Hoffnung 2562
▁ban 2562
▁handeln 2562
▁building 2559
▁f 2559
▁Stellungnahme 2557
▁anything 2557
▁gelten 2557
▁Informations 2555
▁active 2555
▁sanctions 2555
▁commitments 2554
▁official 2554
▁shows 2554
▁raise 2550
▁Justice 2547
▁Nutzen 2545
▁letzte 2542
▁produced 2541
▁unacceptable 2540
▁date 2539
▁simple 2538
▁proper 2535
▁Schritte 2533
▁verwendet 2532
▁whom 2532
▁Arab 2530
▁Gipfel 2529
▁Roma 2528
▁parts 2525
▁Ausschuß 2524
▁Lesung 2524
▁Produkte 2524
▁gemäß 2523
▁met 2523
ized 2521
▁Bereiche 2521
▁Nun 2521
▁Raum 2521
▁nächste 2521
▁Konflikt 2518
▁thought 2517
▁Vorteile 2514
▁sicherlich 2513
▁intervention 2512
▁trust 2512
▁Grundsatz 2510
▁beginnen 2510
▁difficulties 2509
ous 2508
sländern 2506
▁Praxis 2506
▁laws 2506
▁ganze 2505
▁sometimes 2504
▁Reaktion 2503
▁partnership 2503
▁critical 2502
▁relationship 2501
▁Unfortunately 2500
▁Fehler 2498
▁governance 2498
chen 2497
▁Fonds 2494
▁darstellen 2494
ce 2493
▁Nahen 2492
▁bringt 2491
▁eingehen 2491
▁connection 2490
▁press 2490
▁enthält 2489
▁erwähnt 2488
▁Gemeinsamen 2487
▁Instrumente 2484
▁consumption 2483
▁content 2483
▁sub 2483
▁Antrag 2481
▁accepted 2481
▁klare 2481
▁Aufgaben 2480
▁entsprechenden 2479
▁gesetzt 2478
▁guidelines 2477
▁Koordinierung 2476
K 2474
▁Klima 2474
▁bad 2474
▁exist 2473
▁Klimawandel 2468
▁reference 2467
▁zudem 2467
▁Dazu 2466
aus 2464
▁außerhalb 2464
▁normal 2464
▁Aufnahme 2463
▁complete 2463
▁erfolgreich 2463
▁Einkommen 2462
▁Priorität 2461
pe 2460
▁average 2460
▁Meiner 2458
▁mag 2458
durch 2457
▁La 2457
▁frei 2457
▁gekommen 2456
▁promoting 2455
erweise 2453
pa 2453
▁Gruppen 2452
▁Verpflichtung 2451
▁Do 2449
▁Zudem 2449
▁sufficient 2447
▁top 2445
am 2444
▁efficient 2443
▁broad 2442
▁approved 2441
▁path 2441
▁Berichte 2440
▁Ihrer 2440
▁thinking 2440
▁leadership 2439
▁reduced 2439
▁". 2437
▁durchgeführt 2436
▁provision 2436
▁Regulation 2435
▁Sanktionen 2435
▁gesehen 2435
▁improved 2435
▁motion 2435
▁ability 2432
▁cut 2431
▁join 2431
▁Abschluss 2428
▁entsprechend 2428
▁prüfen 2428
▁seines 2428
▁Firstly 2427
▁allgemeine 2427
▁measure 2427
▁Grundrechte 2426
▁Nur 2426
▁limit 2425
▁Idee 2424
▁gegenwärtigen 2424
PL 2423
▁Spanien 2423
▁ground 2423
▁Wochen 2422
ik 2421
▁Forderungen 2421
▁sämtliche 2420
▁außer 2419
▁bitten 2419
▁freue 2419
sp 2418
▁Gruppe 2418
▁setting 2418
smaßnahmen 2416
▁Zentralbank 2416
sländer 2415
▁vorgesehen 2412
▁Revolution 2411
▁wants 2411
▁minimum 2409
▁closely 2408
▁event 2408
▁goal 2408
▁Engagement 2407
▁Kenntnis 2407
▁Sicherheits 2405
▁consensus 2405
▁honourable 2405
ie 2403
▁Projekt 2403
▁Projekte 2402
▁ideas 2401
▁Ort 2400
▁defence 2400
▁seek 2399
L 2397
rate 2397
▁African 2397
▁company 2396
▁implementing 2396
▁enterprises 2394
▁k 2394
▁Anzahl 2393
▁Brussels 2393
▁supporting 2392
santrag 2390
▁bank 2390
▁findet 2389
▁b 2387
▁Brüssel 2385
▁bald 2382
▁diskutieren 2382
ber 2378
▁wanted 2378
liche 2377
▁type 2377
▁Gebieten 2375
▁complex 2375
▁easy 2373
▁January 2371
▁March 2371
▁demokratische 2371
▁officials 2371
▁name 2370
▁facing 2369
▁happened 2367
ze 2366
▁person 2366
▁animal 2364
▁Summit 2362
▁conclusions 2362
▁propose 2361
▁Neu 2359
▁intended 2359
▁Zeitraum 2358
▁verloren 2358
▁Denn 2357
▁sources 2356
com 2354
▁decide 2354
▁chance 2353
▁export 2352
ad 2351
▁Unabhängigkeit 2351
nt 2350
▁aktuellen 2350
▁disease 2347
▁technologies 2346
▁weeks 2346
▁Beihilfen 2344
▁worse 2343
▁Greek 2342
▁earlier 2342
▁urgent 2342
ating 2341
▁Aspekt 2340
▁N 2340
▁feststellen 2340
▁expected 2339
▁contrary 2338
▁direkt 2338
ma 2336
▁Achtung 2336
▁freien 2335
▁referred 2335
▁Militär 2334
io 2332
▁commercial 2331
▁labor 2331
▁Constitution 2330
ac 2328
▁Mediterranean 2324
▁Kern 2323
making 2322
▁Barroso 2322
▁Januar 2322
ell 2321
▁comprehensive 2321
▁verbessert 2321
▁forced 2320
▁rightly 2320
▁gewisse 2319
▁remind 2319
▁Prodi 2317
är 2316
▁mehrere 2316
ster 2315
▁Königreich 2315
▁recovery 2312
▁unterstütze 2312
ine 2311
▁Beteiligung 2311
▁geschehen 2310
▁notwendigen 2310
▁chinesischen 2309
▁equality 2309
▁folgen 2309
▁targets 2309
▁Trade 2306
▁ahead 2305
▁else 2302
▁Charter 2301
▁choice 2301
▁establishing 2301
▁stated 2298
▁Bewertung 2297
▁Hamas 2297
▁eingeführt 2297
▁Wege 2296
▁verfolgt 2294
▁rapid 2293
▁Stimme 2291
▁Maße 2290
▁Worte 2290
ach 2289
bi 2289
▁hingewiesen 2287
▁darunter 2286
▁erklären 2284
▁Minderheiten 2283
▁represent 2283
▁Realität 2278
ka 2276
ring 2275
▁traditional 2275
▁product 2269
▁Gleichzeitig 2268
▁diskutiert 2267
▁sort 2267
▁verehrte 2267
▁deficit 2265
▁specifically 2265
▁Entwurf 2264
ß 2261
▁Sitzung 2261
▁anders 2261
▁con 2261
▁language 2260
ve 2259
▁Prinzip 2258
▁achieving 2257
▁analysis 2257
▁entirely 2257
zeit 2256
▁politisch 2256
▁consideration 2255
▁Gegenteil 2254
▁genuine 2252
▁impossible 2252
▁Basis 2251
▁burden 2250
▁Gründe 2249
ier 2248
ven 2247
▁anderem 2247
▁nachdem 2245
▁Konzept 2244
▁establishment 2244
schw 2243
▁Ebenso 2240
▁differences 2240
▁Vergleich 2239
▁developments 2239
▁rich 2239
lo 2238
▁Irland 2238
▁accordance 2236
▁body 2236
▁Technologien 2235
▁dienen 2235
▁höhere 2234
▁lang 2234
isation 2233
▁toward 2233
▁Italian 2232
▁Leider 2232
▁März 2232
mi 2231
stand 2231
▁Partner 2231
▁Justiz 2230
▁Natur 2229
▁religious 2229
▁länger 2228
▁stets 2225
mit 2220
rlei 2220
stellung 2220
ian 2218
▁expenditure 2218
▁grenzüber 2218
▁attacks 2216
▁betrachten 2216
▁spirit 2216
▁angeht 2214
▁vorgeschlagenen 2213
▁Erhöhung 2211
▁introduce 2211
▁unternehmen 2211
▁Modell 2210
▁gerecht 2209
▁Finanzkrise 2206
▁calling 2206
▁fragen 2206
▁kleine 2206
▁closer 2205
gemeinschaftlich 2203
▁Foreign 2203
▁mandate 2203
▁Britain 2202
▁elected 2202
Geschäftsordnung 2201
▁producers 2201
▁useful 2201
ow 2200
▁Erfahrungen 2200
led 2199
▁Bau 2199
▁Rechnung 2199
iz 2196
▁gefunden 2194
▁nationaler 2192
▁understanding 2192
▁zusätzliche 2192
▁standard 2191
▁strengthening 2190
▁independence 2188
▁read 2188
▁gives 2187
▁thousands 2187
▁Nachfrage 2182
▁einsetzen 2182
go 2181
▁enormous 2181
▁leicht 2181
▁month 2181
▁UNO 2180
▁Lebens 2179
lichkeit 2178
ting 2176
▁Umfang 2175
▁duty 2175
▁positiv 2175
▁fuel 2174
▁practices 2174
auf 2173
▁nachhaltige 2173
▁Verkehrs 2171
▁entspricht 2171
Schlussfolgerung 2170
▁Ka 2170
▁concept 2168
▁Arbeitsmarkt 2167
▁PPE 2167
▁ambitious 2167
▁Botschaft 2166
▁Health 2166
▁betroffen 2166
▁represents 2166
▁conference 2165
▁regionalen 2164
▁remember 2164
▁weltweiten 2164
▁erfordert 2163
▁bodies 2162
based 2160
▁Regelungen 2160
▁manner 2160
▁Den 2157
▁Pro 2157
nstatt 2154
tro 2154
ov 2153
▁Kyoto 2152
ary 2151
amp 2150
▁privaten 2150
▁entsprechende 2147
▁networks 2147
▁Regime 2146
▁Versuch 2146
▁Wunsch 2146
▁ausreichend 2146
▁IMF 2145
▁Ratspräsident 2145
▁Worten 2145
tion 2144
os 2143
▁Spiel 2143
▁attempt 2143
▁Einhaltung 2142
▁staff 2141
▁starke 2140
)) 2138
▁office 2138
▁word 2138
▁vorliegenden 2137
▁Westen 2131
▁agencies 2131
▁unfortunately 2131
▁Poland 2130
▁kam 2130
▁president 2130
ance 2128
▁regret 2128
▁secure 2128
▁verfügt 2128
▁bear 2126
▁erfüllt 2126
▁Amt 2125
▁conclude 2125
▁nimmt 2125
▁sound 2125
▁Einrichtung 2124
▁Spanish 2124
▁französischen 2124
▁obvious 2124
▁unternommen 2124
po 2123
▁perspective 2123
rs 2122
▁Saudi 2122
▁continues 2122
▁Wachstums 2120
op 2119
▁Anpassung 2119
▁looking 2119
zen 2115
▁unable 2115
▁Gas 2114
▁Korruption 2114
▁Problemen 2114
▁extreme 2114
▁says 2112
tschaftswachstum 2109
▁zahlreiche 2109
▁aspect 2107
▁opening 2107
▁urge 2106
sprozess 2105
zi 2105
▁Monetary 2104
▁investments 2104
igkeit 2103
▁properly 2103
innen 2102
▁London 2101
▁child 2101
▁Entwicklungen 2100
▁Verbot 2100
▁animals 2100
▁J 2099
▁letztlich 2098
ure 2097
▁substantial 2097
▁Fraktionen 2096
▁speaking 2096
▁followed 2095
▁convinced 2094
▁recognition 2094
▁ausdrücklich 2092
▁festgestellt 2092
▁taxes 2092
▁Verbrechen 2091
▁Wohlstand 2091
▁Ordnung 2089
▁comments 2089
▁network 2088
▁safe 2088
▁Mitteln 2086
▁St 2086
▁gleiche 2086
▁membership 2086
ler 2085
per 2085
▁Absatz 2085
▁Unterschiede 2085
▁managed 2082
▁desire 2080
▁hear 2080
▁talks 2080
▁kürzlich 2079
▁Alle 2078
nd 2076
▁According 2074
▁Tätigkeit 2074
▁einiger 2074
gt 2073
▁Bedenken 2073
▁relativ 2073
▁source 2073
▁ex 2072
▁introduction 2072
ging 2071
markt 2070
▁EZB 2070
▁Untersuchung 2070
▁Arbeits 2069
▁IWF 2069
▁sea 2069
▁Warum 2068
▁shared 2068
ag 2066
wa 2066
los 2065
▁introduced 2065
da 2063
▁elements 2062
sbereich 2061
▁Ihr 2061
▁entgegen 2061
▁colleague 2060
▁investors 2060
ot 2059
▁Status 2059
▁verschiedene 2058
▁institution 2056
▁spent 2056
▁communities 2055
▁größeren 2055
na 2054
▁addressed 2053
▁myself 2053
▁erforderlichen 2052
▁powerful 2052
▁seiten 2052
U 2050
less 2049
system 2048
▁Sprache 2048
▁largely 2048
▁Überprüfung 2045
▁amerikanische 2043
▁appears 2043
▁rising 2043
▁teilweise 2043
▁Konsens 2042
▁defend 2042
▁permanent 2041
▁derzeitigen 2040
▁Dokument 2039
▁flexibility 2039
▁largest 2039
▁Bedrohung 2038
▁added 2038
her 2037
organisationen 2037
wirtschaftlicher 2037
▁advantage 2036
▁millions 2036
▁method 2035
▁news 2035
sabkommen 2034
sized 2034
▁sides 2034
responsibilities 2033
▁Dem 2032
▁führende 2031
▁legen 2031
▁balanced 2029
▁Instead 2028
▁attack 2028
▁refer 2028
▁Nevertheless 2027
▁Strategien 2027
vo 2026
▁acceptable 2026
con 2025
▁Ist 2025
▁thereby 2025
▁verringern 2025
▁Grunde 2024
▁internationaler 2024
ization 2023
▁zustimmen 2022
▁betroffenen 2021
▁Polen 2020
▁mainly 2019
▁Gesetz 2017
▁correct 2017
▁worked 2016
▁structure 2015
▁firms 2014
▁Jetzt 2012
▁Sinn 2012
▁disaster 2012
▁gern 2012
▁Technologie 2011
border 2010
▁Verkehr 2010
versorgung 2009
▁appear 2009
lichen 2008
▁falls 2008
▁counter 2006
▁exercise 2006
▁Kooperation 2005
▁Moment 2005
▁weiterer 2005
▁Latin 2004
▁aufmerksam 2004
▁betont 2003
▁formal 2003
the 2002
▁immediate 2002
▁vollständig 2002
▁wollte 2002
▁pointed 2001
▁decade 2000
▁comment 1999
▁Given 1998
▁Nr 1997
▁bedarf 1996
▁exactly 1996
▁corruption 1995
PT 1994
ru 1993
▁immediately 1993
skonferenz 1992
▁Ereignisse 1992
▁Völker 1990
▁profitieren 1990
▁target 1990
▁Preise 1989
▁round 1989
▁Islam 1988
▁ergriffen 1988
▁heart 1986
▁told 1985
▁Hälfte 1984
▁Willen 1984
▁reagieren 1984
▁Inhalt 1983
▁More 1983
▁alten 1983
▁Israeli 1982
▁methods 1982
▁Irish 1981
▁putting 1981
▁vision 1981
▁Soviet 1980
▁concrete 1980
▁October 1979
▁positions 1979
▁scale 1978
▁worth 1975
▁nennen 1974
pf 1973
▁liebe 1972
▁manage 1972
▁Juli 1971
▁Kindern 1971
▁serve 1971
▁subsidies 1971
▁ECB 1969
▁Gegensatz 1969
▁seeking 1969
▁relative 1968
▁Oktober 1967
▁obviously 1967
▁flexible 1966
▁vielmehr 1966
▁Americans 1965
▁Gaza 1965
▁ländlichen 1965
▁Charta 1964
▁Erfahrung 1963
▁Krisen 1963
▁continent 1963
▁Angriff 1962
▁origin 1962
▁Paris 1959
▁beteiligt 1958
▁zufolge 1958
▁aktiv 1956
▁controls 1956
▁discussing 1956
▁send 1956
▁verlieren 1956
▁factors 1955
▁wichtigste 1955
▁Kritik 1954
▁Gebiete 1953
▁mechanism 1953
▁range 1953
▁greatest 1949
▁seien 1948
▁übrigen 1948
▁prevention 1947
о 1944
▁integrated 1944
IT 1943
▁lose 1941
▁absolut 1940
▁gewährleistet 1940
▁Why 1939
▁continued 1939
▁geändert 1939
▁aims 1938
▁documents 1938
▁Kollege 1937
▁Wer 1937
▁designed 1937
▁anderes 1936
▁sensible 1936
▁wealth 1936
▁liberalisation 1935
▁exports 1934
▁link 1934
▁table 1934
▁terrorist 1934
▁degree 1932
au 1931
▁Angst 1931
▁Ent 1930
▁Internationalen 1930
▁Last 1930
▁Monate 1928
▁Treffen 1927
▁staatlichen 1927
▁cover 1926
▁includes 1926
▁ausschließlich 1924
▁bilden 1923
▁Anspruch 1922
▁ging 1921
ities 1920
▁NEW 1920
▁advanced 1920
▁umfassende 1920
▁besseren 1919
▁goals 1918
▁miteinander 1918
▁emphasise 1917
▁nations 1916
▁neither 1916
▁Agency 1915
▁Verringerung 1915
▁Verständnis 1915
▁stattfinden 1915
▁Flexibilität 1914
▁britische 1913
ou 1912
▁ones 1912
kommen 1911
▁Zweck 1911
▁families 1911
▁arms 1909
▁wünschen 1908
v 1907
▁Only 1907
▁changed 1907
▁constitution 1906
▁drawn 1906
▁expression 1906
▁Trotz 1905
▁dennoch 1905
▁resolve 1905
▁mechanisms 1904
▁solcher 1904
▁Strukturfonds 1903
▁außerordentlich 1903
▁definition 1903
▁ernst 1903
▁Überzeugung 1903
▁York 1901
▁affairs 1901
▁payments 1901
ang 1900
ill 1900
▁continuing 1900
▁strongly 1900
▁Krankheiten 1899
▁figures 1899
institutionellen 1896
▁Global 1895
▁Turkish 1895
▁getting 1895
▁künftig 1895
▁Empfehlungen 1894
ba 1891
▁Fähigkeit 1891
organisation 1890
▁Amerikas 1890
▁Wahrheit 1889
▁daraus 1888
▁mutual 1888
ud 1887
▁BSE 1887
▁akzeptiert 1887
▁Jahrhundert 1886
▁Syria 1885
ors 1882
▁Dimension 1882
▁Financial 1882
▁Liste 1882
▁Wähler 1882
▁Blick 1880
ally 1879
▁Schluss 1879
▁signed 1879
▁Einklang 1877
maßnahmen 1876
▁neues 1876
▁grundlegende 1875
ical 1874
no 1874
▁Ra 1874
▁bekämpfen 1874
▁causes 1873
▁grundlegenden 1873
▁yesterday 1873
▁territory 1872
▁dollar 1871
▁improvement 1870
▁decline 1869
▁inzwischen 1868
ES 1867
▁truly 1867
▁Drogen 1866
▁Maßnahme 1866
▁befassen 1866
ür 1865
ies 1864
▁danger 1864
▁lines 1864
▁Vielleicht 1863
▁mass 1863
▁From 1862
ör 1861
▁Export 1861
▁Green 1861
▁individuals 1861
hilfe 1859
▁Außenpolitik 1859
▁drugs 1859
▁rasch 1859
▁debates 1858
▁related 1858
espite 1857
▁Niveau 1857
▁genutzt 1857
▁Fälle 1856
▁constitutional 1856
▁intention 1856
▁recognise 1856
▁wer 1856
sa 1855
▁asking 1854
▁board 1854
▁migration 1854
▁Syrien 1853
▁became 1852
▁obligations 1852
▁fail 1851
▁limits 1851
▁Environment 1849
▁fish 1849
▁Grundsätze 1847
▁Leitlinien 1847
▁Richtlinien 1847
▁leiden 1847
▁sagt 1847
schaft 1846
▁Phase 1846
▁faced 1846
▁groß 1846
▁leader 1846
▁wesentlichen 1846
▁Anfrage 1845
▁Vielfalt 1845
▁andererseits 1845
▁lies 1845
▁appeal 1844
▁gender 1840
▁regulatory 1840
▁sign 1840
▁willing 1840
gesellschaftlich 1839
pro 1839
▁bedeuten 1839
▁Stadt 1838
▁innovative 1837
▁Na 1836
▁niemand 1835
▁Systems 1834
▁näher 1834
▁Regional 1833
▁firstly 1833
▁moral 1833
▁laid 1832
ha 1830
▁Delegation 1830
▁Opposition 1830
▁Eindruck 1829
▁Struktur 1828
▁paar 1825
▁denken 1824
▁fordert 1824
vor 1823
▁welfare 1823
ap 1822
ium 1822
▁Tagen 1822
▁bringing 1820
▁konkreten 1820
▁Hause 1819
▁July 1819
▁Institution 1818
▁Zeiten 1818
▁Verträge 1817
▁obtain 1817
▁Russlands 1816
▁positiven 1816
▁Pa 1814
▁delegation 1813
fer 1812
▁car 1812
▁forget 1811
▁treaty 1811
▁zug 1811
▁zweifellos 1811
▁Ministers 1810
▁gerne 1809
▁started 1809
▁zugleich 1809
shilfe 1808
year 1808
▁geschieht 1808
sh 1807
▁explain 1807
▁actual 1806
▁möglichst 1806
▁near 1806
▁Standards 1805
▁erhebliche 1805
▁trägt 1805
▁adequate 1804
▁immigrants 1804
wei 1802
▁deep 1801
▁langfristige 1801
▁Barcelona 1800
▁gefördert 1800
▁setzt 1799
▁stock 1799
▁Aufbau 1797
▁Steuern 1797
▁sicherstellen 1797
▁Aktionen 1796
▁loss 1796
▁Anstieg 1795
▁opposed 1793
▁Eastern 1792
▁volle 1792
▁überall 1792
▁Dann 1790
▁Beweis 1789
▁Public 1789
▁See 1789
ah 1788
▁elsewhere 1786
ere 1785
▁regionale 1785
▁umzusetzen 1785
tic 1784
▁factor 1784
▁rejected 1783
ton 1781
▁mindesten 1781
▁Diskussionen 1779
▁gelungen 1779
▁record 1779
▁suffering 1779
▁damals 1778
▁combating 1777
▁diseases 1777
▁dimension 1775
j 1773
▁applies 1773
▁falsch 1773
▁Platz 1772
▁sensitive 1772
▁Landwirte 1770
▁push 1770
▁Li 1769
▁Paper 1769
▁truth 1769
▁began 1768
▁erfolgen 1768
▁nation 1768
▁funktioniert 1767
▁ready 1767
▁Premierminister 1766
ts 1765
▁Drittens 1765
▁erhöht 1765
▁abhängig 1764
▁anyone 1764
▁informed 1764
▁Verhalten 1763
▁Nahrungsmittel 1762
▁Teilen 1762
▁Weltwirtschaft 1762
▁Wirkung 1762
▁i 1762
ib 1760
▁Romania 1760
▁hält 1760
fi 1759
ize 1759
▁organisation 1758
▁reflect 1758
▁Sport 1757
des 1756
▁Festlegung 1756
▁abgelehnt 1756
▁dealt 1756
▁Harmonisierung 1755
▁dürfte 1755
▁paragraph 1755
▁Mann 1754
▁constructive 1753
▁Männer 1752
▁enter 1752
▁Plenum 1751
▁Polizei 1751
▁guarantees 1751
▁votes 1751
ial 1750
▁Absicht 1750
▁rapporteurs 1750
▁recommendations 1750
▁verurteilt 1750
ak 1748
▁credibility 1748
▁renewable 1748
▁sage 1748
▁Rules 1747
▁reichen 1747
▁staatliche 1746
nearly 1745
▁Amerikaner 1745
▁Hauses 1745
▁spielt 1745
▁travel 1745
▁Those 1744
▁Kon 1743
▁starting 1742
▁Islamic 1741
▁directives 1741
▁echte 1741
▁nahe 1741
▁Waren 1740
▁banking 1740
▁Asien 1739
▁Schaden 1739
▁peoples 1739
▁prosperity 1739
▁technischen 1739
▁wide 1739
▁generally 1738
ben 1737
▁Flüchtlinge 1737
▁gewinnen 1737
▁insurance 1737
▁safeguard 1737
▁Hintergrund 1736
▁technological 1736
▁affect 1735
▁beglückwünschen 1735
mer 1734
unsten 1734
▁Arbeitsplätzen 1733
▁Vorgehen 1733
▁involving 1733
stra 1732
res 1731
▁succeed 1731
recht 1730
▁AIDS 1730
▁Protokoll 1730
spräsidentschaft 1729
▁abgeschlossen 1729
▁happy 1729
mal 1727
▁jegliche 1727
▁nochmals 1727
▁Verhältnis 1726
▁anerkannt 1726
▁transition 1726
que 1725
▁base 1725
▁Außen 1724
▁Pflicht 1724
▁Ratsvorsitz 1724
▁geäußert 1724
▁freie 1723
▁jeweiligen 1723
do 1722
▁einig 1722
▁zufrieden 1722
ex 1721
▁repeat 1721
▁abge 1720
relatively 1719
▁ultimately 1719
▁Effizienz 1718
▁Ausmaß 1717
▁difference 1717
unterschiedliche 1716
▁Erklärungen 1716
▁van 1715
▁extend 1714
▁parliaments 1714
▁morning 1713
EL 1712
▁Washington 1712
▁gain 1712
▁neben 1712
▁bestätigt 1711
▁jährlich 1710
lu 1709
▁claim 1709
▁Dienstleistungs 1708
▁operation 1708
▁ought 1708
▁presence 1708
▁statements 1708
▁Vorschlägen 1707
▁benötigen 1707
▁Gemeinschafts 1706
▁Po 1706
▁militärische 1704
▁assets 1703
▁minority 1703
▁betreffen 1702
▁original 1702
▁school 1702
▁Anliegen 1701
▁structures 1700
▁fighting 1699
▁Mo 1698
▁al 1697
▁Regierungschefs 1696
▁Rezession 1696
▁Vorbereitung 1696
▁Zahlen 1696
▁High 1695
▁chinesische 1694
▁industries 1694
▁wenige 1694
▁Anforderungen 1693
▁Freiheiten 1693
▁linked 1692
▁planning 1692
▁Friedens 1691
▁zuvor 1691
▁cities 1690
▁otherwise 1690
▁Umständen 1689
▁ausgesetzt 1689
▁fraud 1689
▁unabhängig 1688
ty 1687
▁Empfehlung 1687
▁easier 1687
▁absolute 1686
▁möglichen 1684
▁sinnvoll 1684
▁firm 1683
politischen 1682
▁Pact 1682
▁ständig 1682
▁entscheidende 1681
▁ethnic 1681
▁pollution 1681
▁Ex 1680
fr 1679
▁nachhaltigen 1679
▁suggest 1679
▁Sweden 1678
▁Voraussetzungen 1678
▁entwickelten 1678
▁rein 1678
▁schließen 1678
▁Familie 1677
▁helped 1677
▁protecting 1677
▁operations 1676
▁referendum 1676
▁verstärken 1674
▁vollkommen 1674
▁Problems 1673
▁künftigen 1673
▁Gedanken 1672
▁beschränkt 1672
▁Federal 1670
▁gezwungen 1670
▁Agentur 1669
▁Agrarpolitik 1668
▁acts 1667
▁productivity 1667
▁Tagung 1666
▁attitude 1665
▁gave 1665
▁helping 1664
ende 1663
▁Gleichgewicht 1663
▁option 1663
▁Kredit 1662
▁consultation 1662
▁speed 1662
▁unfair 1662
▁verlassen 1662
▁experts 1661
ence 1659
▁Prüfung 1659
▁moving 1659
▁starken 1659
▁Schweden 1658
▁befindet 1658
▁beste 1658
▁organised 1657
▁submitted 1657
▁supports 1657
▁MEPs 1655
▁Welche 1655
▁partner 1654
so 1653
▁discharge 1653
isten 1652
▁Thank 1652
▁politically 1652
▁stronger 1651
▁Great 1650
▁reply 1650
▁Sorgen 1649
▁stimmt 1649
▁vulnerable 1648
bo 1645
▁Monat 1645
Berücksichtigung 1644
NL 1644
▁fordere 1644
▁gestern 1644
▁promotion 1644
▁zuletzt 1643
▁Besorgnis 1642
▁adopting 1642
▁bewegen 1642
▁contains 1642
▁Kräfte 1641
▁amtierende 1641
▁Chamber 1640
la 1639
▁bestimmt 1639
▁imposed 1639
▁hervor 1638
▁pursue 1638
▁trading 1637
▁science 1636
▁verabschiedet 1636
elt 1635
▁Staates 1635
▁tackle 1635
wirtschaft 1634
▁Glaubwürdigkeit 1634
▁Jahrhunderts 1634
▁criticism 1634
▁entscheidender 1634
▁jungen 1632
▁Übereinkommen 1632
▁spread 1631
▁Mangel 1630
▁Migration 1629
▁behandeln 1629
▁Faktoren 1628
▁Mitgliedern 1628
▁gratulieren 1628
▁liberal 1628
za 1627
European 1626
RK 1626
▁Zuständigkeit 1626
▁societies 1626
▁folgende 1625
▁happening 1625
▁hören 1625
▁signal 1625
akt 1623
▁Muslim 1623
▁Sea 1623
▁lautet 1623
▁unmöglich 1623
▁Research 1622
▁collective 1622
▁Amendments 1621
▁Erwartungen 1621
▁minorities 1621
▁Ohne 1620
▁Prinzipien 1620
▁Sonder 1620
▁imports 1620
▁Egypt 1619
▁tried 1619
▁Gefühl 1618
▁construction 1618
▁entstehen 1618
▁test 1618
▁Perhaps 1616
▁head 1616
▁highlight 1616
▁invest 1616
▁series 1615
▁gelangen 1614
▁granted 1613
▁legitimate 1613
▁Rechtsgrundlage 1612
▁persönlich 1611
▁praktisch 1611
▁treten 1611
и 1610
▁Drittländern 1610
▁property 1610
▁finde 1609
▁schwierigen 1609
end 1608
▁herzlich 1608
▁Also 1607
▁situations 1607
▁technische 1607
wing 1606
▁Europol 1606
▁Rück 1606
▁reasonable 1606
▁meetings 1604
▁Ferner 1603
▁Because 1602
▁involvement 1602
war 1601
▁Ladies 1601
▁conflicts 1601
▁diesbezüglich 1601
▁worldwide 1601
▁Strategy 1600
▁compared 1600
▁August 1599
▁traffic 1599
▁Analyse 1598
▁Reserve 1598
▁Another 1597
▁impose 1597
out 1596
▁hervorheben 1596
▁recession 1595
▁wichtiges 1595
▁wiederum 1595
▁Clinton 1594
▁Programms 1594
▁uneingeschränkt 1594
▁Cyprus 1593
▁Gericht 1593
▁boost 1593
▁erwartet 1593
▁hauptsächlich 1593
▁keiner 1593
▁universal 1593
▁crimes 1592
▁zahlreichen 1592
▁angemessene 1591
▁carbon 1591
▁diversity 1591
▁Berlin 1590
▁Führer 1590
▁allgemein 1590
▁trafficking 1590
▁arrangements 1588
▁fällt 1588
▁learn 1588
▁mobility 1588
ists 1587
ivilgesellschaft 1587
ise 1585
▁erlebt 1584
▁Ausnahme 1583
▁Einbeziehung 1583
▁transfer 1581
form 1580
▁Dur 1580
▁abzu 1580
▁Widerstand 1579
▁professional 1578
▁Leute 1577
▁conduct 1577
▁contrast 1577
▁pension 1577
▁lokalen 1576
▁totally 1576
schaftlichen 1575
ssystem 1575
▁Chancen 1575
▁Einheit 1575
▁einzigen 1575
▁excessive 1575
▁intend 1575
▁multilateral 1575
▁Energy 1574
▁Gerichtshof 1574
▁Most 1574
▁Patienten 1574
▁bezeichnet 1574
▁kurzem 1574
▁scheinen 1574
▁shift 1574
bau 1573
isierung 1573
▁Gleichstellung 1573
eren 1572
▁distribution 1572
ator 1571
▁allowing 1571
min 1570
▁AKP 1570
▁Saddam 1570
▁Wirklichkeit 1569
▁Stellung 1568
▁hands 1568
▁larger 1568
▁separate 1567
▁Des 1566
▁expectations 1566
▁reden 1566
▁sent 1566
▁voice 1566
▁aktuelle 1565
▁gestalten 1565
▁plant 1565
▁eng 1564
▁reject 1564
▁carefully 1563
▁popular 1563
▁urban 1563
▁wiederholt 1563
▁Normen 1562
▁cuts 1562
▁stable 1562
▁einverstanden 1560
▁Übergang 1560
▁ECU 1559
▁Studie 1559
lä 1558
▁entschlossen 1557
▁genannt 1557
▁annehmen 1556
▁minister 1556
▁Produkt 1555
▁Wissen 1555
▁mehreren 1555
qui 1554
▁Voraussetzung 1554
▁westlichen 1554
ja 1553
▁Stability 1553
▁initial 1553
▁performance 1553
▁kulturellen 1552
▁Me 1551
▁Politiken 1551
▁Straßen 1551
▁Mut 1550
▁deliver 1550
▁vorlegen 1550
▁accounts 1549
▁weak 1549
produktion 1548
▁Budget 1548
▁Jahrzehnten 1548
▁notwendige 1548
▁peaceful 1548
▁Anti 1547
▁Sektoren 1547
▁Vermittlung 1547
▁ausgesprochen 1547
▁investieren 1547
om 1546
▁Boden 1546
▁associated 1546
▁instance 1546
▁HIV 1545
▁Schlüssel 1545
▁entscheidend 1545
▁richtigen 1545
▁Beschluss 1544
▁Definition 1544
ious 1543
steuer 1543
▁begonnen 1543
▁erscheint 1543
▁unmittelbar 1543
igung 1542
▁Produktivität 1542
▁hours 1542
▁früh 1541
▁restrictions 1541
▁rund 1541
▁Vorschlags 1540
▁bemüht 1540
▁deficits 1540
▁works 1540
▁generation 1539
all 1538
kl 1538
▁Inter 1538
▁latest 1538
▁space 1538
▁Jugend 1537
▁erfahren 1537
▁führte 1537
▁solve 1537
gel 1536
▁Stand 1536
▁aufgefordert 1536
▁court 1536
▁highest 1536
▁nötig 1536
▁suchen 1536
▁unless 1536
▁verhindert 1535
▁gelöst 1534
▁Bis 1533
▁Gesellschaften 1533
▁crises 1533
▁involve 1533
▁weshalb 1533
wert 1532
enden 1531
ful 1531
▁delay 1531
▁Balkans 1530
▁Begriff 1530
▁employees 1530
▁umfassenden 1530
▁unterzeichnet 1530
▁EC 1528
▁prove 1528
▁verlangt 1528
▁Kontinent 1527
▁Zeichen 1527
▁approval 1527
▁deutschen 1527
▁material 1527
▁voters 1527
▁Market 1526
▁Tage 1526
▁Krankheit 1525
▁amounts 1525
▁emphasis 1525
▁participate 1525
▁Dienste 1524
▁drug 1524
▁sitting 1524
▁Ideen 1523
▁weiteres 1523
ca 1522
▁Gespräche 1522
▁Katastrophe 1522
▁junge 1522
▁Handeln 1521
▁EG 1520
▁facilitate 1520
▁fehlt 1520
▁wishes 1520
▁Con 1519
▁defined 1519
▁g 1518
▁visit 1518
▁Menschenrecht 1517
▁Unternehmens 1517
arbeit 1516
ierte 1516
▁jenen 1516
▁Personal 1515
▁primary 1515
▁KMU 1514
len 1513
weg 1513
▁Bestandteil 1513
▁Brazil 1513
▁element 1513
▁Netherlands 1512
▁played 1512
▁äußern 1512
off 1511
▁argument 1510
▁binding 1510
▁öffentlich 1510
preise 1509
▁multi 1509
▁Formen 1508
▁grounds 1508
▁tut 1508
▁Ausführungen 1507
▁Identität 1507
▁rapidly 1507
▁seven 1507
▁schlecht 1506
▁Nizza 1505
▁monitor 1505
▁palästinensisch 1505
▁persons 1505
▁sehe 1505
richtlinie 1504
▁demonstrated 1504
stellen 1503
▁encouraging 1503
▁interesting 1503
isieren 1502
▁Charakter 1502
▁Gefahren 1502
▁entfernt 1502
▁significantly 1502
▁wesentliche 1502
▁Österreich 1502
▁George 1501
▁beigetragen 1501
▁beruht 1501
▁usw 1501
▁Hohen 1500
▁angemessen 1500
▁Swedish 1499
tri 1498
▁Mobilität 1498
▁Nice 1498
▁gehalten 1498
▁overcome 1498
▁Wandel 1497
▁grateful 1497
▁Sp 1495
▁revolution 1495
bereich 1494
ON 1492
▁Arten 1492
▁Ihren 1492
▁Leistung 1492
▁manchmal 1491
▁Procedure 1490
▁Secretary 1490
▁announced 1490
▁konfrontiert 1490
▁kämpfen 1490
ising 1488
▁Verhandlungs 1488
▁fossil 1488
▁geraten 1488
▁Barack 1487
▁bestehende 1487
▁program 1487
sbedingungen 1486
▁behaupten 1486
▁Merkel 1485
▁Taiwan 1485
▁built 1485
▁genauso 1484
▁verlangen 1483
che 1482
las 1482
log 1482
▁Agrar 1482
▁YO 1482
▁equally 1482
е 1481
▁kennen 1481
▁El 1479
▁aussprechen 1479
▁contributions 1479
▁Entlastung 1478
▁besonderen 1478
▁manche 1478
▁Funds 1477
▁Luft 1477
▁ergeben 1477
▁erheblich 1477
▁Stimmen 1476
▁improvements 1476
▁places 1476
tu 1475
▁Konflikte 1475
▁taxation 1475
▁Asian 1474
▁core 1474
▁jüngste 1474
▁verdient 1474
▁Investoren 1473
▁capable 1473
▁Mindest 1472
▁knows 1472
iger 1471
▁Brasilien 1470
▁aufzunehmen 1470
▁niemals 1470
▁gap 1469
▁suffer 1469
▁übertragen 1469
▁resolutions 1468
▁Potenzial 1467
▁consistent 1467
▁detailed 1467
▁früher 1467
▁sexual 1467
▁Religion 1466
▁increases 1466
▁size 1466
▁Maß 1465
▁Will 1465
▁Wissenschaft 1465
▁globalisation 1465
▁Befugnisse 1464
▁begrüßt 1464
▁covered 1464
▁Fischer 1463
▁Resolution 1463
▁entweder 1462
▁französische 1462
▁identity 1461
▁via 1461
▁substances 1458
▁Mio 1456
lung 1455
▁Subsidiarität 1455
▁menschlichen 1455
▁Then 1454
▁Zur 1454
▁electricity 1454
▁erfolgt 1454
▁speakers 1453
▁warten 1453
▁Abkommens 1452
▁ausländische 1451
▁gezogen 1451
▁himself 1451
▁stärkere 1451
▁temporary 1450
▁Nachbarn 1449
▁inform 1449
▁Angebot 1448
▁sovereign 1448
▁struggle 1448
▁Vorausschau 1447
▁Vorteil 1447
▁recommendation 1447
▁Verbesserungen 1446
▁Nos 1445
▁Wo 1444
▁becomes 1444
▁declaration 1444
▁judicial 1444
▁sichern 1444
▁Stellen 1443
▁wenigen 1443
▁whatever 1443
▁wonach 1443
▁recognised 1442
▁Ablehnung 1441
▁Structural 1441
▁Systeme 1441
▁collapse 1440
▁evaluation 1440
▁Maastricht 1439
▁ministers 1439
fall 1438
▁Vorsitz 1438
▁sovereignty 1438
kosten 1437
▁Rumänien 1436
▁Wiederaufbau 1436
▁langfristigen 1436
▁weitgehend 1436
▁übernommen 1436
ish 1435
▁vast 1435
▁maritime 1434
▁menschliche 1434
hen 1433
▁höher 1433
▁John 1432
▁mission 1432
ng 1431
▁compensation 1431
ei 1430
gu 1430
▁Erholung 1430
▁Legal 1430
▁choose 1430
▁dritte 1430
▁plenary 1430
ative 1429
▁Bereitschaft 1429
▁Vorhaben 1429
▁naturally 1429
▁medical 1428
▁Balkan 1427
▁Nord 1427
▁presidential 1427
RO 1426
Strategie 1426
▁negotiating 1426
rt 1425
▁SMEs 1424
▁closed 1424
▁partly 1423
lage 1422
▁Anreize 1422
▁Vorstellung 1422
▁geschützt 1422
▁subsidiarity 1422
▁Bemerkungen 1421
▁savings 1421
▁Doha 1420
▁müsste 1420
▁abgestimmt 1419
▁höheren 1419
▁spend 1419
▁großes 1418
▁schafft 1418
▁Einstellung 1417
▁Nigeria 1417
▁Bedarf 1416
▁Elemente 1415
▁Kontroll 1415
▁gewährt 1415
▁slow 1414
▁wonder 1414
▁laut 1413
▁easily 1411
▁representative 1411
▁zuständigen 1411
▁Can 1409
▁strategies 1409
▁Menge 1408
▁früheren 1408
▁incentives 1408
▁mussten 1408
▁musste 1407
▁verfügbar 1407
▁wirksam 1406
ierten 1405
▁citizen 1405
▁Übereinstimmung 1405
▁competence 1404
▁harm 1404
▁Alternative 1403
▁vehicles 1403
▁Ausland 1402
▁absence 1402
▁beschäftigt 1402
weit 1401
▁Konsequenzen 1401
▁Mein 1401
one 1400
▁interested 1400
▁letzter 1400
▁militärischen 1400
▁momentan 1400
▁nachdrücklich 1400
▁Copenhagen 1399
sstaatlichkeit 1398
▁Haushalte 1398
▁Sa 1398
▁bewältigen 1398
▁Teile 1397
▁ange 1397
▁entsprechen 1397
▁phase 1397
▁proposing 1397
▁Arbeitsplatz 1396
▁Person 1395
▁Schwerpunkt 1395
▁paper 1395
▁radical 1395
über 1393
▁Besuch 1393
▁einerseits 1393
▁treated 1393
ari 1392
▁Kontrollen 1391
▁Widerspruch 1390
▁resulting 1390
▁verteidigen 1390
▁Bo 1389
▁Here 1389
▁ongoing 1389
präsident 1388
▁emergency 1388
ised 1387
▁Nein 1387
▁Second 1387
▁turned 1387
▁tätig 1387
▁Ansichten 1386
▁mögliche 1386
▁offers 1386
▁save 1386
▁Bemerkung 1385
▁Katastrophen 1385
▁Thus 1385
▁extra 1385
▁spricht 1385
ip 1384
▁Brexit 1384
hi 1383
▁künftige 1383
▁Firmen 1382
▁Thirdly 1382
dienst 1381
▁comply 1381
ll 1380
▁Einrichtungen 1380
▁belief 1380
isiert 1379
▁wiederholen 1379
▁Austria 1378
▁Wissenschaftler 1378
▁happens 1378
▁nunmehr 1378
▁strength 1378
zusammenarbeiten 1377
▁allzu 1377
▁claims 1377
▁concluded 1377
▁Congress 1376
▁quantitative 1376
▁restructuring 1376
▁Vereinbarungen 1375
▁Zielen 1375
▁danach 1375
▁floor 1375
▁rail 1375
▁veröffentlicht 1375
▁Reduzierung 1374
▁barriers 1374
▁Männern 1373
▁Renten 1373
▁demonstrate 1372
▁diplomatic 1372
▁Budgets 1371
▁Van 1371
▁gone 1371
▁placed 1370
▁vorgeschlagene 1370
sträger 1369
▁Sollte 1369
▁Signal 1367
▁endorse 1367
▁kept 1367
▁vieler 1367
▁Se 1366
▁depend 1366
sstrategie 1365
▁bezieht 1365
scale 1364
▁Generation 1364
▁Palestinians 1363
▁Trotzdem 1363
▁gewählt 1363
▁richten 1363
▁auszu 1362
▁went 1362
▁acht 1361
▁beträchtliche 1361
▁Dutch 1360
▁Over 1360
▁parliament 1360
gehen 1359
▁Mehr 1358
▁freedoms 1358
▁purposes 1358
▁Front 1357
▁Unterschied 1357
▁ferner 1357
▁eingereicht 1356
▁zentrale 1356
▁zukünftige 1356
▁effectiveness 1355
▁erinnert 1355
▁guaranteed 1355
▁herrscht 1355
▁letztendlich 1355
stehen 1354
▁Blair 1354
▁Kommunikation 1354
▁Kurs 1354
▁sieben 1354
ifi 1353
▁adapt 1353
▁Abschaffung 1352
▁Energien 1352
▁Kandidaten 1352
▁Zwei 1352
▁room 1351
for 1350
▁Senkung 1350
▁committees 1350
▁front 1350
▁voraus 1350
▁Überlegungen 1350
eh 1349
▁below 1349
▁funktionieren 1349
▁bemühen 1347
▁informiert 1347
▁prospects 1347
▁break 1346
▁inequality 1346
▁obligation 1346
▁double 1345
durchschnittlich 1344
▁Verlust 1344
▁ca 1344
▁exists 1344
▁finanziert 1344
▁sozialer 1344
▁threats 1344
▁Abend 1343
▁betreffenden 1343
▁described 1343
▁jener 1343
▁launched 1342
▁vorgenommen 1342
▁Gerechtigkeit 1341
▁Kollegin 1341
▁m 1341
▁numerous 1341
▁Ko 1340
▁anbelangt 1340
▁maximum 1340
kon 1339
sweise 1339
▁Dienst 1339
▁Tiere 1339
▁U 1339
▁Mitte 1337
▁examples 1337
▁irgendeine 1337
▁processes 1337
▁tourism 1337
schen 1336
▁Entwicklungs 1336
▁Vice 1336
▁legitimacy 1336
▁Grenze 1335
▁Sarkozy 1335
▁trans 1335
▁patent 1334
▁respected 1334
▁determined 1333
▁primarily 1332
▁proved 1332
▁anwesend 1331
▁einzusetzen 1331
▁strict 1331
▁historical 1330
▁Ca 1329
▁Fa 1329
▁Leistungen 1329
▁strategischen 1329
▁changing 1328
▁detail 1328
▁eight 1328
▁skills 1328
▁Rest 1327
▁Studien 1327
▁heutige 1327
▁tasks 1327
izing 1326
▁Marktes 1326
▁operate 1326
ign 1325
▁Februar 1325
▁Schwellenländer 1325
▁müssten 1325
▁published 1325
▁worst 1325
▁Paket 1324
▁verursacht 1324
nis 1323
ok 1323
uch 1323
▁Rückgang 1323
▁existence 1323
▁Antworten 1322
ob 1321
▁Mandat 1321
▁digital 1321
▁harmonisation 1321
▁arabischen 1320
▁latter 1320
▁running 1320
har 1319
▁Mittelmeer 1319
▁Report 1319
▁solange 1318
▁speziell 1318
gesellschaft 1317
▁buy 1316
▁offered 1316
▁pure 1316
▁verleihen 1316
▁widely 1316
sicht 1315
▁Mittelpunkt 1315
▁noted 1315
▁green 1314
▁keeping 1314
▁trotzdem 1314
▁Zoll 1313
▁entry 1313
▁hundreds 1313
last 1311
▁Bulgaria 1311
▁mo 1311
▁gerichtet 1310
▁middle 1310
▁durchzuführen 1308
▁programs 1308
▁schneller 1308
▁Noch 1307
▁allows 1307
▁ausgerichtet 1307
▁grundsätzlich 1307
▁February 1306
▁cooperate 1306
ted 1305
▁Bild 1305
▁gefährdet 1305
▁senken 1305
▁Both 1304
▁Experten 1304
▁protected 1304
▁strategische 1304
▁Debatten 1303
▁Forschungs 1303
▁Palästinenser 1303
▁Socialist 1303
▁languages 1303
▁welchen 1303
fa 1302
▁passed 1302
▁poorest 1302
▁preventing 1302
▁Würde 1301
▁langfristig 1301
▁weltweite 1301
▁Methode 1300
▁Agriculture 1299
▁Serbia 1299
▁ernsthaft 1299
▁Hindernisse 1298
▁NGOs 1298
▁awareness 1298
▁tobacco 1298
▁Assembly 1297
▁Sudan 1296
▁destruction 1296
▁inclusion 1296
▁Demokraten 1295
▁ACP 1294
▁Women 1294
▁geschlossen 1294
▁prepare 1294
Staaten 1293
ich 1293
▁Verbreitung 1293
▁biggest 1293
▁einheitlichen 1293
▁studies 1293
▁types 1293
▁vorhanden 1293
rück 1292
va 1292
▁Fundamental 1292
▁Methoden 1292
▁beteiligen 1292
▁vorzulegen 1292
▁Drittel 1291
▁Tibet 1291
▁dritten 1291
▁verstanden 1291
▁Czech 1290
frage 1289
sausschusses 1289
▁Volksgesundheit 1289
▁bislang 1289
▁stands 1289
▁pass 1288
▁patients 1288
barkeit 1287
▁Strom 1287
▁Unser 1287
▁extended 1287
▁politisches 1287
▁focused 1286
▁Nor 1285
▁functioning 1285
▁grow 1285
▁sofort 1285
ible 1284
н 1284
▁Beschlüsse 1284
▁Punkten 1283
▁compliance 1282
▁absurd 1281
▁hit 1281
▁resolved 1281
setzung 1280
▁zahlen 1280
▁überzeugen 1280
time 1279
▁Austausch 1279
▁Ausweitung 1279
▁Umfeld 1279
▁determine 1279
▁Abhängigkeit 1278
▁Respekt 1278
▁Strukturen 1278
market 1277
oc 1277
▁advance 1277
▁humanitäre 1277
▁komme 1277
▁parallel 1277
▁delighted 1276
▁finanzieren 1276
▁maintaining 1276
▁revision 1276
▁Aktion 1275
▁leads 1275
▁legt 1275
▁reicht 1275
▁verändert 1275
▁Übrigen 1275
▁Konvent 1274
▁justified 1273
▁numbers 1273
▁saw 1273
sausschuss 1272
▁holding 1272
▁unterstreichen 1272
ard 1271
ct 1271
▁Souveränität 1271
▁historic 1271
▁requirement 1271
ably 1270
ff 1270
▁Armee 1270
▁Defizit 1270
▁Regel 1270
▁proposes 1270
▁steigen 1270
▁Its 1269
▁Laufe 1269
▁got 1269
▁beziehen 1268
▁Intervention 1267
▁amongst 1267
▁ma 1266
▁zusätzlichen 1266
▁Vietnam 1265
▁angesehen 1265
▁garantiert 1265
▁lag 1265
▁rechtlichen 1265
▁w 1265
▁playing 1264
▁Ägypten 1264
SV 1263
а 1263
▁erleben 1263
▁scheme 1263
▁Freizügigkeit 1262
▁contracts 1262
▁größer 1262
▁obstacles 1261
▁reduzieren 1261
staaten 1260
▁Di 1260
▁lernen 1260
▁options 1260
▁passiert 1260
▁Auditors 1259
▁Beispiele 1259
▁geehrte 1259
▁illegalen 1259
▁Finanzielle 1258
▁Forum 1258
lin 1257
▁Deswegen 1257
▁Herzen 1257
▁arguments 1257
▁trend 1257
▁White 1256
smöglichkeiten 1255
▁eingehalten 1255
▁opinions 1255
▁solches 1255
ect 1254
sehen 1254
▁Konsum 1254
▁confirm 1254
▁disasters 1254
▁guter 1254
▁implications 1254
▁intellectual 1254
▁apart 1253
▁sonst 1253
▁wollten 1253
▁Action 1252
▁gewissen 1252
▁links 1252
▁sogenannte 1252
▁dient 1251
▁Angaben 1250
▁Eisenbahn 1250
▁achten 1250
▁angeblich 1250
▁echten 1250
▁entstanden 1250
▁überwinden 1250
verfahren 1249
▁dignity 1249
▁erscheinen 1249
▁eventually 1249
▁gutes 1249
▁spanischen 1249
▁understood 1249
▁Ob 1247
▁Todesstrafe 1247
▁Umgang 1247
▁Währungsunion 1247
▁Zypern 1247
▁tool 1247
ufgrund 1246
▁Mu 1246
▁figure 1246
▁reflects 1246
▁übrigens 1246
old 1245
schaftliche 1245
▁ausge 1245
▁driving 1245
▁territorial 1245
les 1244
▁ziemlich 1243
▁tools 1242
srecht 1241
▁Allgemeinen 1241
▁Insbesondere 1241
▁besorgt 1241
▁deutsche 1241
▁teile 1241
▁contain 1240
▁langsam 1240
▁supposed 1240
▁won 1240
▁zählen 1240
General 1239
▁policymakers 1239
▁stocks 1239
▁customs 1238
▁Schuld 1237
▁corporate 1237
▁dependent 1237
▁rational 1237
▁verwenden 1237
▁Urteil 1236
▁alte 1236
▁decisive 1236
▁einbezogen 1236
▁learning 1236
▁somewhat 1236
▁abstimmen 1235
▁appreciate 1235
programm 1234
▁Wesentlichen 1234
▁breite 1234
▁reserves 1234
▁Kopenhagen 1233
▁inadequate 1233
▁letter 1233
▁payment 1233
▁teilen 1233
▁Israelis 1232
▁Vision 1232
▁innere 1232
▁interessiert 1232
▁organizations 1232
abkommen 1231
▁Japanese 1231
▁agency 1231
▁gestärkt 1231
▁lay 1231
▁offenen 1231
▁written 1231
acht 1230
▁Or 1230
▁Umweltschutz 1230
▁function 1230
ni 1229
▁Praktiken 1229
▁housing 1228
▁Grenz 1227
bel 1226
▁Ziffer 1226
▁condition 1226
▁losses 1226
▁operating 1226
▁überein 1226
istischen 1225
▁Bereitstellung 1225
▁Beziehung 1225
▁electronic 1225
▁voran 1225
▁trifft 1224
▁prospect 1223
Mitgliedstaaten 1222
▁bedroht 1222
▁finding 1222
▁owing 1222
▁schwierige 1222
▁win 1222
▁Öffnung 1222
bare 1221
▁PSE 1221
▁dank 1221
▁destroy 1221
▁net 1221
▁occasion 1221
EU 1220
▁Bewegung 1220
▁Geist 1220
▁betreffend 1220
rechte 1219
ub 1219
▁Gu 1219
▁Kriminalität 1219
▁spoke 1219
▁Framework 1218
▁Netze 1218
▁Post 1218
▁zugrunde 1217
fragen 1216
▁depends 1216
▁genannte 1216
▁welcher 1216
▁widespread 1216
▁OECD 1215
▁argue 1215
▁cancer 1215
▁hervorgehoben 1215
▁meant 1215
▁oral 1215
▁Bedürfnisse 1214
▁Labour 1214
▁Treaties 1214
▁Wettbewerbs 1214
▁abuse 1213
▁budgets 1213
▁einzuführen 1213
▁felt 1213
▁voluntary 1213
macht 1212
▁declared 1212
▁geltenden 1212
▁mid 1212
▁allocated 1211
▁profits 1211
▁schools 1211
politische 1210
son 1210
▁Binnenmarktes 1210
▁Weltbank 1209
▁students 1209
▁wage 1209
▁umfasst 1208
ations 1207
of 1207
wide 1207
▁Commissioners 1207
▁Tod 1207
▁evening 1207
▁facts 1207
▁definiert 1206
▁erwiesen 1206
▁verringert 1206
▁Ratifizierung 1205
▁approve 1205
▁armen 1205
▁bildet 1205
▁wirksame 1205
CO 1204
werk 1204
▁Georgia 1204
▁derart 1204
▁personally 1204
▁wirkliche 1204
▁Faktor 1203
▁benötigt 1203
▁brief 1203
▁forthcoming 1203
▁occasions 1203
wesen 1202
▁Groß 1202
▁Terror 1202
▁Without 1202
▁condemn 1202
▁planned 1202
▁Gemeinsame 1201
▁Zusammenbruch 1201
▁believes 1201
# 1200
т 1200
▁Steuerzahler 1200
▁Zinsen 1200
▁asset 1200
▁bereitgestellt 1200
▁era 1200
▁konzentriert 1200
▁southern 1200
uf 1199
▁iranische 1199
▁mal 1199
▁Ursachen 1198
▁insist 1198
▁smaller 1198
▁Act 1197
▁Versprechen 1197
▁Patten 1196
▁city 1196
▁contained 1196
▁Akteure 1195
▁Erzeugnisse 1195
▁Geldpolitik 1195
▁Terroristen 1195
▁daily 1195
▁feed 1195
▁mündliche 1195
▁opposite 1195
▁Once 1194
▁Taliban 1194
▁battle 1194
▁entitled 1194
▁gegenwärtige 1194
▁heavy 1194
▁represented 1194
▁Großteil 1193
▁folgenden 1193
▁italienischen 1193
▁ähnliche 1193
▁Mitarbeiter 1192
▁Presse 1192
▁Rückkehr 1192
▁Strasbourg 1192
▁bezug 1192
▁einge 1192
▁secret 1192
▁Aktionsplan 1191
▁schlägt 1191
line 1190
mann 1190
zug 1190
▁Sektors 1190
▁Ungleichheit 1190
▁beschränken 1190
▁klaren 1190
mat 1189
▁Arbeiten 1189
▁ländliche 1189
▁yes 1189
▁Mexico 1188
▁mittleren 1188
kontrolle 1187
▁examine 1187
▁Zinssätze 1186
▁beschäftigen 1186
▁deeply 1186
▁erleichtern 1186
▁höchst 1186
▁issued 1186
▁Mir 1185
▁Parlamente 1185
▁griechischen 1185
▁violations 1185
hl 1184
▁Investitions 1184
▁bestimmter 1184
▁festzulegen 1184
▁wirtschaftlich 1184
▁bedeutende 1183
▁drawing 1183
▁whilst 1183
▁Anlass 1182
▁niedriger 1182
▁statistics 1182
▁wachsende 1182
▁Je 1181
▁drive 1181
▁involves 1181
▁possibly 1181
▁Haushaltsplan 1180
▁assure 1180
▁oben 1180
▁selten 1180
related 1179
▁te 1179
gleich 1178
▁proceed 1178
▁Ben 1177
▁Straßburg 1177
▁konkret 1177
ju 1176
rum 1176
▁assist 1176
▁ausgezeichneten 1176
▁substance 1176
▁materials 1175
▁Arbeiter 1174
▁considering 1174
▁offenbar 1174
▁united 1174
ability 1173
▁ideal 1173
▁zurückzuführen 1173
sur 1172
▁Just 1172
▁electoral 1172
▁Erzeuger 1171
▁assume 1171
▁severe 1171
▁vorgesehenen 1171
cha 1170
istische 1170
▁Depression 1170
▁Lohn 1170
▁sustainability 1170
verkehr 1169
▁coalition 1169
▁derzeitige 1169
▁impression 1169
▁Alliance 1168
▁Ost 1168
▁stehenden 1168
▁urgently 1168
▁Constitutional 1167
▁Pläne 1167
▁addressing 1167
▁dynamic 1167
▁sought 1167
▁suggests 1167
▁Georgien 1166
▁friends 1166
▁geprüft 1166
▁hängt 1166
legen 1165
▁Hu 1165
▁Emissionen 1164
▁Lastly 1164
▁identify 1164
▁Kredite 1163
▁Städte 1163
▁Ungarn 1163
▁hinweg 1163
▁leaving 1163
▁mangelnde 1163
▁promised 1163
▁Burma 1162
▁Lateinamerika 1162
▁Under 1162
▁brings 1162
▁globalization 1162
▁loans 1162
▁jemand 1161
▁la 1161
▁Buch 1160
▁Croatia 1160
▁Umweltfragen 1160
▁firmly 1160
▁Neben 1159
▁Portuguese 1159
▁Vereinfachung 1159
▁erfordern 1159
▁flows 1159
▁gelegt 1159
▁versichern 1159
bild 1158
spräsident 1158
▁Journalisten 1158
▁exclusion 1158
▁farming 1158
▁vorliegende 1158
▁zone 1158
▁broader 1157
▁clean 1157
▁expansion 1157
▁geprägt 1157
▁Argument 1156
▁Macron 1156
▁anschließen 1156
▁negativen 1156
▁anzu 1155
▁erklärte 1155
▁extension 1155
▁protest 1155
▁television 1155
▁Uhr 1154
Regierung 1153
▁kulturelle 1153
▁ursprünglichen 1153
ktion 1151
svorschlag 1151
▁Gemeinschaften 1151
▁strukturelle 1151
▁wait 1151
sfreiheit 1150
▁Baltic 1150
▁Gang 1150
▁Sprachen 1150
▁Untersuchungen 1150
▁offene 1150
▁unabhängige 1150
vis 1149
▁Durchsetzung 1149
▁Food 1149
▁center 1149
▁eingegangen 1149
▁langen 1149
▁realise 1149
tur 1148
▁Her 1148
▁assess 1148
▁effektive 1148
▁undoubtedly 1148
art 1147
ek 1147
▁suggested 1147
sel 1146
▁equipment 1146
▁modernen 1146
▁realistic 1146
tag 1145
▁Co 1145
▁bound 1145
▁Einkommens 1144
▁England 1144
▁Geschlechter 1144
▁Ru 1144
▁dankbar 1144
▁someone 1144
▁suffered 1144
üg 1143
▁Kontakt 1143
▁fields 1143
▁informieren 1143
▁preparing 1143
▁profit 1143
▁remarks 1143
cy 1142
▁restore 1142
ick 1141
▁Rechten 1141
▁appropriations 1141
▁association 1141
▁bestimmen 1141
▁port 1141
▁fine 1140
▁replace 1139
halten 1138
▁Dis 1138
▁Investment 1138
▁Mexiko 1138
▁Patent 1138
▁Perspektive 1138
▁Produktions 1138
▁Zusammenhalt 1138
▁aggressive 1138
▁art 1138
▁Du 1137
▁experienced 1137
▁glad 1137
▁Zustand 1136
▁army 1136
▁penalty 1136
▁zunehmende 1136
ron 1135
▁Außenminister 1135
▁Their 1135
▁hoffentlich 1135
▁ordinary 1135
▁plants 1135
▁precise 1135
▁untergraben 1135
▁Pen 1134
▁effektiv 1133
▁einzu 1133
▁u 1133
▁Hussein 1132
▁Petitions 1132
▁engage 1132
▁operational 1132
▁uncertainty 1132
▁wages 1132
▁Iranian 1131
▁Organe 1131
▁afford 1131
▁ausgezeichnete 1131
▁bestätigen 1131
▁Krieges 1130
▁candidates 1130
▁deaths 1130
▁promise 1130
▁unverzüglich 1130
▁Modernisierung 1129
▁strengthened 1128
▁valuable 1128
äl 1127
▁Malta 1127
▁garantieren 1127
▁raising 1127
tal 1126
wo 1126
ät 1126
▁Berichten 1126
▁Mitgliedschaft 1126
▁acknowledge 1126
▁umsetzen 1126
port 1125
▁coordinated 1125
▁defense 1125
▁operators 1125
▁prime 1125
▁Ombudsman 1124
si 1123
▁Unsicherheit 1123
▁bonds 1123
▁illegale 1123
▁summer 1123
▁visa 1123
▁enjoy 1122
▁version 1122
hält 1121
▁Beseitigung 1121
▁Protocol 1121
▁combined 1121
▁mark 1121
▁Ar 1120
▁Luxembourg 1120
▁Märkten 1120
▁Volkes 1120
▁constantly 1120
▁jetzigen 1120
▁mistake 1120
▁vorher 1120
det 1119
sk 1119
▁hopes 1119
▁zukünftigen 1119
▁zulassen 1119
Bericht 1118
Umstrukturierung 1118
▁She 1118
▁courage 1118
hol 1117
▁victory 1117
lau 1116
▁previously 1116
Z 1115
lang 1115
ssysteme 1115
▁Lebanon 1115
▁regular 1115
ssen 1114
▁Teilnahme 1113
▁fehlende 1113
▁host 1113
▁welcomed 1113
our 1112
á 1112
▁Industrieländer 1112
▁einheitliche 1112
▁restrict 1112
▁l 1111
▁reflected 1111
▁weight 1111
▁Gelder 1110
▁define 1110
länder 1109
sion 1109
▁Erst 1109
▁Similarly 1109
▁Ta 1109
▁attempts 1109
▁enhance 1109
▁knapp 1109
▁spezielle 1109
▁users 1109
kla 1108
pon 1108
▁Growth 1108
▁populations 1108
▁Jeder 1107
▁Versammlung 1107
▁Wieder 1107
▁expensive 1107
▁release 1107
▁vollständige 1107
▁His 1106
▁Mitentscheidung 1106
▁islamische 1106
▁prior 1106
▁ruling 1106
▁Konjunktur 1105
▁Sommer 1105
punkt 1104
▁cars 1104
▁confirmed 1104
▁türkischen 1104
cher 1103
▁Gründung 1103
▁Mechanismen 1103
▁code 1102
▁schlechte 1102
▁sum 1102
▁Argumente 1101
▁Reise 1101
▁anzunehmen 1101
▁ports 1101
elle 1100
▁Element 1100
▁direkte 1100
mb 1099
▁Betracht 1099
▁contact 1099
ges 1098
raum 1098
ären 1098
▁Allianz 1098
▁Bauern 1098
▁Einwanderer 1098
▁aufnehmen 1098
▁exception 1098
▁clause 1097
▁coherent 1097
▁oppose 1097
▁species 1097
President 1096
▁Verteilung 1096
▁bit 1096
▁soft 1096
▁unzureichend 1096
▁Schicksal 1095
▁Tausende 1095
▁promises 1095
▁surely 1095
▁tragic 1095
ischer 1094
▁historischen 1094
▁players 1094
TON 1093
beauftragten 1093
ntergovernmental 1093
▁Are 1093
▁applying 1093
▁gelingt 1093
▁Donald 1092
▁Gewicht 1092
▁recognize 1092
hy 1091
ide 1091
▁details 1091
▁erlaubt 1091
▁nevertheless 1091
▁passengers 1091
▁proportion 1091
▁unbe 1090
sätze 1089
▁Freude 1089
▁Kuba 1089
▁beinhaltet 1089
▁Solana 1088
▁entscheidenden 1088
▁erwähnen 1088
▁geboten 1088
▁geregelt 1088
aff 1087
tre 1087
▁Nachhaltigkeit 1087
▁Redner 1087
▁San 1087
▁careful 1087
▁fulfil 1087
▁shadow 1087
▁spoken 1087
▁tend 1087
▁Management 1086
▁beings 1086
▁erhält 1086
▁ill 1086
▁eingeleitet 1085
▁mobile 1085
▁bestand 1084
▁höchsten 1084
▁erweisen 1083
▁undermine 1083
▁unlikely 1083
▁warming 1083
sfonds 1081
▁Christian 1081
▁Süden 1081
▁import 1081
▁institutionelle 1081
bt 1080
dass 1080
▁Bürokratie 1080
▁verständlich 1080
▁Arbeitnehmern 1079
▁Beteiligten 1079
▁Bulgarien 1079
▁Kontext 1079
▁denjenigen 1079
▁follows 1079
▁labelling 1079
▁quotas 1079
▁vorbereitet 1079
▁whereas 1079
ellen 1078
skosten 1078
▁etc 1078
▁höchste 1078
▁killed 1078
▁percentage 1078
anz 1077
mittel 1077
▁Andererseits 1077
▁einzelne 1077
▁wachsenden 1077
▁Spannungen 1076
lie 1075
▁Schulen 1075
▁Vorrang 1075
▁conducted 1075
▁parlamentarisch 1075
▁significance 1075
▁Fähigkeiten 1073
▁Klimawandels 1073
▁sorgfältig 1073
▁terrorists 1073
▁armed 1072
ev 1071
▁Positionen 1071
▁bedauerlich 1071
▁befasst 1071
plan 1070
▁Wird 1070
▁angewandt 1070
▁begrenzt 1070
▁behavior 1070
▁derartigen 1070
Entschlossenheit 1069
nehmen 1069
▁Dialogs 1069
▁Libanon 1069
▁Northern 1069
▁Steigerung 1069
▁beenden 1069
kraft 1068
▁traditionellen 1068
▁undertaken 1068
▁wahren 1068
▁zweitens 1068
▁befürworten 1067
▁remaining 1067
▁Veränderung 1066
▁please 1066
▁reagiert 1066
▁requested 1066
ite 1065
ku 1065
▁Andere 1065
▁advice 1065
▁essentially 1065
▁v 1065
▁determination 1064
▁perfectly 1064
▁unique 1064
▁zuständig 1064
Wirtschaftskrise 1063
ili 1063
od 1063
▁Grad 1063
▁saving 1063
▁story 1063
▁Gegenstand 1062
▁Nachdem 1062
▁Tabak 1062
▁rechtliche 1062
▁wine 1062
teils 1061
▁convergence 1061
▁moderate 1061
▁spreche 1061
ition 1060
▁Nachbarschaft 1060
▁durchführen 1060
▁mis 1060
▁proceedings 1060
▁Seine 1059
▁greenhouse 1059
▁healthy 1059
Energieeffizienz 1058
▁Massen 1058
▁timetable 1058
▁Fang 1057
▁Vorgehensweise 1057
▁models 1057
▁waiting 1057
▁Alter 1056
▁Finanzmärkte 1056
▁Ne 1056
▁beinahe 1056
▁bezahlen 1056
▁game 1056
▁humanitären 1056
▁producing 1056
▁überprüfen 1056
DA 1055
▁Minderheit 1055
▁Privat 1055
▁duties 1055
▁shape 1055
problem 1054
sche 1054
▁Generationen 1054
▁Venezuela 1054
▁actively 1054
▁difficulty 1054
▁einstimmig 1054
▁genügend 1054
▁vorschlagen 1054
sbehörden 1053
▁Dr 1053
▁End 1053
▁Stoffe 1053
▁ausgeschlossen 1053
▁don 1053
▁formuliert 1053
▁Herstellung 1052
▁ernsthafte 1052
ordnung 1051
▁Größe 1051
▁Laut 1051
▁blame 1051
▁fewer 1051
▁recall 1051
ga 1050
qua 1050
treu 1050
▁Consumer 1050
▁estimated 1050
▁twenty 1050
▁urgency 1050
▁willingness 1050
▁Dadurch 1049
▁Investition 1049
▁bezahlt 1049
▁genuinely 1049
▁prisoners 1049
▁Klein 1048
▁Kopf 1048
▁answers 1048
▁constitute 1048
▁introducing 1048
▁maintained 1048
▁Darum 1047
▁Weltkrieg 1047
▁imagine 1047
berg 1046
krise 1046
▁successfully 1046
EC 1045
wirtschaftliche 1045
▁Auftrag 1045
▁Gewährleistung 1045
▁religion 1045
arbeiten 1044
▁Institute 1044
▁reaction 1044
▁wahr 1044
preis 1043
▁Jahrzehnt 1043
▁verändern 1043
du 1042
ker 1042
state 1042
▁Hinweis 1042
▁class 1042
▁kontrollieren 1042
▁tief 1042
­ 1041
▁Schiffe 1041
▁complicated 1041
▁dargelegt 1041
▁eingebracht 1041
▁relates 1041
cing 1040
tat 1040
▁courts 1040
▁frage 1040
▁verdienen 1040
▁gestiegen 1039
▁openness 1039
▁paying 1039
ete 1038
sy 1038
с 1038
▁deals 1038
▁heading 1038
▁sugar 1038
▁troops 1038
▁Menschenrechts 1037
▁einzelstaatlich 1037
▁mögen 1037
▁usually 1037
▁Atomwaffen 1036
▁Kim 1036
▁meaning 1036
▁Auto 1035
▁OLAF 1035
▁contributed 1035
▁stake 1035
zer 1034
▁Existenz 1034
red 1033
▁Beiträge 1033
▁Communist 1033
▁lessons 1033
▁remove 1032
emissionen 1031
▁Welthandels 1031
▁fruit 1031
Dollar 1030
▁Jahrzehnte 1030
▁Zwar 1030
▁ablehnen 1030
▁meat 1030
▁schrittweise 1030
▁seeing 1030
▁Papier 1029
▁kleiner 1029
▁Jo 1028
▁blind 1028
▁multinational 1028
▁Hungary 1027
▁Planung 1027
▁briefly 1027
▁nahezu 1027
▁überlassen 1027
▁Zentralbanken 1026
▁afrikanischen 1026
▁exploitation 1026
▁hergestellt 1026
▁ungefähr 1026
setzen 1025
äh 1025
▁Zunahme 1025
▁behindert 1025
▁trillion 1025
▁verboten 1025
▁youth 1025
▁Subventionen 1024
▁fishermen 1024
▁Beobachter 1023
▁falling 1023
▁Freihandel 1022
▁ausgegeben 1022
▁demanding 1022
▁reported 1022
▁wann 1022
▁Arbeitgeber 1021
▁Gewinne 1021
▁Serbien 1021
▁regelmäßig 1021
▁anerkennen 1020
▁auffordern 1020
▁behauptet 1020
▁berufliche 1020
▁conciliation 1020
▁weg 1020
▁Helsinki 1019
▁umfassend 1019
▁welches 1019
sentwurf 1018
▁Arbeitskräfte 1018
▁Tradition 1018
▁stance 1018
sofern 1017
tätigkeit 1017
▁Gen 1017
▁Gipfeltreffen 1017
▁legally 1017
▁waters 1017
▁öffentlicher 1017
▁überaus 1017
▁ansprechen 1016
▁befürwortet 1016
▁Ökonomen 1016
▁Cuba 1015
▁Mission 1015
▁federal 1015
▁identified 1015
cre 1014
ew 1014
▁Dringlichkeit 1014
▁Erhaltung 1014
▁abroad 1014
▁reaching 1014
▁seeks 1014
reich 1013
schlag 1013
▁Internal 1013
▁Nordkorea 1013
▁justify 1013
▁kon 1013
▁tragedy 1013
ana 1012
▁Sieg 1012
▁beabsichtigt 1012
▁erfolgreiche 1012
▁ärmsten 1012
▁+ 1011
▁Brok 1011
▁Funktion 1011
▁Güter 1011
▁Wahrscheinlich 1011
▁wünsche 1011
▁Hersteller 1010
▁Mechanismus 1010
▁Nachrichten 1010
▁Volkspartei 1010
▁anschließend 1010
▁einfache 1010
▁facilities 1010
▁launch 1010
▁necessarily 1010
oni 1009
▁Asyl 1009
▁Fremdenverkehr 1009
▁economically 1009
▁economists 1009
▁governing 1009
ey 1008
lose 1008
▁Zweiten 1008
▁ersetzen 1008
▁hervorragende 1008
▁unabhängigen 1008
▁arbeitet 1007
▁negotiation 1007
▁surplus 1007
ost 1006
ple 1006
sverletzungen 1006
▁Auge 1006
▁sets 1006
▁clarify 1005
▁physical 1005
▁Dass 1004
▁Grünen 1004
▁Phänomen 1004
▁Tisch 1004
▁faith 1004
▁qualified 1004
▁unterbreitet 1004
▁Revision 1003
▁generations 1003
▁zero 1003
▁Fisheries 1002
▁Liberal 1002
▁Representative 1002
▁allies 1002
▁charge 1002
▁geringe 1002
satz 1001
ue 1001
▁Anbetracht 1001
▁Hungarian 1001
▁Kroatien 1001
▁Licht 1001
▁erarbeitet 1001
▁migrants 1001
▁vorgelegten 1001
staat 1000
▁Bio 1000
▁festgelegten 1000
▁investigation 1000
▁schwieriger 1000
▁soeben 1000
▁spezifischen 1000
▁festzustellen 999
▁getragen 999
▁stelle 999
▁Authority 998
▁Mitgliedsländer 998
▁differ 998
▁schlagen 998
voller 997
▁Common 997
▁Stunden 997
▁Su 997
▁globaler 997
▁Chile 996
▁Rule 996
▁codecision 996
▁debating 996
▁laufen 996
▁oftmals 996
▁Beschränkungen 995
▁Truppen 995
▁intends 995
▁none 995
▁opened 995
▁sexuelle 995
▁stellte 995
▁Erreich 994
▁israelischen 994
▁ko 994
▁teilnehmen 994
J 993
rang 993
▁Garantie 993
▁Geschäft 993
▁Pe 993
▁background 993
▁divided 993
▁greatly 993
▁verurteilen 993
hm 992
par 992
▁Having 992
▁aktive 992
▁halbe 992
▁listen 992
▁secondly 992
▁steigern 992
ehr 991
▁highlighted 991
▁historische 991
▁track 991
▁retain 990
▁zerstört 990
x 989
selben 988
▁Dynamik 988
▁credible 988
▁ratification 988
▁revenue 988
▁Finland 987
▁Israels 987
▁session 987
ielzahl 986
tan 986
▁CAP 986
▁Gegen 986
▁Innovationen 986
▁regarded 986
▁Ad 985
▁Errichtung 985
▁enforcement 985
▁erheblichen 985
▁journalists 985
▁pillar 985
▁Cooperation 984
▁Ho 984
▁Hohe 984
▁austerity 984
▁cl 984
▁läuft 984
▁prison 984
▁turning 984
▁acting 983
▁pensions 983
▁picture 983
rei 982
▁Versorgung 982
▁regimes 982
▁Legitimität 981
▁angebracht 981
▁fördert 981
▁verantwortungs 981
TA 980
▁Dauer 980
▁alter 980
▁reconstruction 980
▁st 980
▁taxpayers 980
▁verweisen 980
▁Austrian 979
▁Home 979
▁Zeitplan 979
▁ausreichende 979
▁besitzt 979
▁durchzusetzen 979
▁explanation 979
▁gefasst 979
▁team 979
▁Stärke 978
▁Vertretern 978
▁aufzubauen 978
▁concentrate 978
▁gewähren 978
Gipfel 977
og 977
tisch 977
▁generell 977
▁resistance 977
▁Koalition 976
▁Prozesses 976
▁Referendum 976
▁Weil 976
▁advantages 976
▁coal 976
▁gebeten 976
ika 975
▁Polish 975
▁submit 975
▁Ausarbeitung 974
▁Flug 974
▁centre 974
▁commit 974
▁europäisches 974
gruppen 973
▁gestatten 973
COM 972
OND 972
van 972
▁Behörde 972
▁Zuge 972
▁manufacturing 972
▁supervision 972
▁Besteuerung 971
▁Scheitern 971
▁gains 971
▁insufficient 971
▁persönlichen 971
by 970
dienstleistungen 970
entwicklung 970
we 970
▁Abfall 970
▁causing 970
▁extensive 970
▁flow 970
▁movements 970
▁phenomenon 970
Kohäsionspolitik 969
▁Armen 969
▁Heads 969
▁Quoten 969
▁accidents 969
▁book 969
▁eye 969
▁verstärkte 969
dy 968
hancengleichheit 968
▁Gegner 968
▁Like 968
▁check 968
▁sozial 968
▁stimulus 968
▁Küsten 967
▁creates 967
▁occurred 967
fla 966
▁Schäden 966
▁froh 966
▁minutes 966
▁uniform 966
▁Beachtung 965
▁Einnahmen 965
▁Jean 965
▁contract 965
▁medicines 965
▁search 965
▁Amtszeit 964
▁Titel 964
▁Zwischen 964
▁außen 964
▁eindeutige 964
▁Berg 963
▁Netz 963
▁ausgehen 963
▁irakische 963
▁Abbau 962
▁David 962
▁Does 962
▁Liberalen 962
▁Meeres 962
▁Tier 962
▁drängen 962
▁repeatedly 962
▁settlement 962
▁south 962
lli 961
▁Tragödie 961
▁admit 961
▁betreiben 961
▁considers 961
▁dispute 961
▁ergibt 961
▁neighbor 961
▁vorn 961
ept 960
wi 960
▁Association 960
▁disposal 960
economic 959
▁Eltern 959
▁Kohle 959
▁demokratischer 959
▁output 959
▁spring 959
▁untersucht 959
▁wenden 959
fin 958
institutional 958
ural 958
▁Libya 958
▁charges 958
▁encouraged 958
▁könne 958
▁scientists 958
▁sufficiently 958
▁vermutlich 958
▁violent 958
▁zusätzlich 958
ult 957
▁Beamten 957
▁Kapitel 957
▁achievement 957
▁design 957
▁fuels 957
BRI 956
▁Erfüllung 956
▁Suche 956
▁compete 956
▁jedenfalls 956
▁sobald 956
▁ähnlich 956
[ 955
defizit 955
ions 955
▁Democratic 955
▁Protection 955
▁hingegen 955
▁prefer 955
▁reliable 955
hu 954
lit 954
▁blood 954
▁brutal 954
▁erlassen 954
▁persönliche 954
▁schemes 954
free 953
gemeinschaft 953
mission 953
▁keineswegs 953
▁vernünftige 953
programme 952
▁Fischler 952
▁besitzen 952
▁erfreut 952
▁gewonnen 952
▁verabschieden 952
▁! 951
▁Employment 951
▁auswirken 951
▁carrying 951
▁eyes 951
▁gefährlich 951
▁trial 951
▁Berlusconi 950
▁Libyen 950
▁Studenten 950
▁Two 950
▁Zucker 950
▁affects 950
▁dollars 950
▁eingeschränkt 950
▁lokale 950
▁Überleben 950
schreitenden 949
sverhandlungen 949
▁Berufs 949
▁Partnership 949
▁behaviour 949
▁resource 949
investitionen 948
▁Free 948
▁Yes 948
▁einst 948
▁enabling 948
▁nützlich 948
▁succeeded 948
lei 947
▁Ausgrenzung 947
▁Finnland 947
▁Offenheit 947
▁Verwirklichung 947
▁vorstellen 947
▁Meanwhile 946
▁fire 946
weise 945
▁Ha 945
▁choices 945
▁natürlichen 945
▁obliged 945
▁wars 945
hin 944
▁Bosnia 944
▁Ma 944
▁Mängel 944
▁Sowjetunion 944
▁protocol 944
▁beseitigen 943
▁reduziert 943
▁Sicherung 942
▁Where 942
▁failing 942
▁gemeinsames 942
▁gradually 942
▁speziellen 942
▁underlying 942
▁stay 941
finanzierung 940
▁Robert 940
▁apparent 940
▁completed 940
ina 939
äre 939
▁Control 939
▁Richter 939
▁educational 939
▁se 939
▁stolz 939
▁stärksten 939
verbot 938
▁Häfen 938
▁Weiteren 938
▁moreover 938
▁surprise 938
hand 937
svorschläge 937
voll 937
▁Luxemburg 937
▁extrem 937
▁intensive 937
▁treat 937
▁Iraqi 936
▁bereitet 936
▁schweren 936
krieg 935
svertrag 935
▁Genehmigung 935
▁Glück 935
▁couple 935
▁gerechtfertigt 935
▁progressive 935
ale 934
▁Anders 934
▁Begründung 934
▁langem 934
▁seemed 934
▁beeinflussen 933
▁effiziente 933
▁gering 933
▁whereby 933
▁zugute 933
▁Ergebnissen 932
▁Regierungs 932
▁anderswo 932
▁angewendet 932
▁faster 932
▁island 932
▁red 932
▁sell 932
▁showing 932
struktur 931
▁Bar 931
▁civilian 931
▁schwere 931
▁Belgian 930
▁Demokratien 930
▁Herkunft 930
▁automatisch 930
▁representation 930
▁Milosevic 929
▁Unternehmer 929
▁Verheugen 929
▁grant 929
▁opt 929
▁robust 929
▁verletzt 929
systems 928
▁Atom 928
▁Dänemark 928
▁Konsultation 928
▁constant 928
▁planet 928
▁praktische 928
▁retten 928
bank 927
bildung 927
▁honour 927
▁occur 927
▁tests 927
ht 926
reichen 926
▁Insel 926
▁Zahlungen 926
▁ausüben 926
▁interpretation 926
▁weist 926
▁CAM 925
▁GAP 925
▁Tages 925
▁Wall 925
▁fears 925
▁importantly 925
▁refugee 925
DGE 924
▁Taten 924
▁Vorsitzenden 924
▁expense 924
▁internen 924
▁spät 924
fang 923
▁Einschätzung 923
▁amending 923
▁geringer 923
▁irischen 923
handel 922
ki 922
level 922
р 922
▁considerably 922
▁rechtzeitig 922
▁rely 922
chi 921
net 921
▁Bitte 921
▁Denmark 921
▁aufzu 921
▁considerations 921
fach 920
gang 920
sebene 920
uk 920
▁competent 920
▁Feststellung 919
▁Geschäfts 919
▁Nachdruck 919
▁Niederlanden 919
▁Safety 919
▁everywhere 919
▁ships 919
▁unity 919
zt 918
▁Arabia 918
▁Erfolge 918
▁Kluft 918
▁Verabschiedung 918
▁count 918
▁remained 918
▁verschärft 918
ausschuss 917
side 917
▁Mädchen 917
▁Palästina 917
bin 916
fu 916
▁Internationale 916
▁allocation 916
▁communications 916
▁kaufen 916
▁mitteilen 916
▁theory 916
▁Kann 915
▁aside 915
▁negotiate 915
▁quo 915
Länder 914
▁begann 914
▁consequence 914
▁indicated 914
▁Bas 913
▁Belgien 913
▁Finanzmittel 913
▁Putins 913
▁Stockholm 913
▁hinzu 913
▁kamen 913
▁moved 913
▁supplies 913
haft 912
▁emerged 912
▁erteilt 912
▁sport 912
▁transitional 912
▁Betrag 911
▁Millennium 911
▁Situationen 911
▁bedanken 911
▁gegenseitige 911
▁unions 911
geht 910
▁Ausgleich 910
▁Belgium 910
▁chosen 910
▁deswegen 910
▁ethical 910
▁niederländische 910
▁possibilities 910
▁satisfactory 910
▁zuerst 910
geben 909
▁davor 909
▁regardless 909
▁sichere 909
In 908
leben 908
▁Genau 908
▁NRO 908
▁VAT 908
▁entered 908
▁equivalent 908
ziel 907
▁Verbindungen 907
▁micro 907
▁solely 907
bra 906
teil 906
treffen 906
▁Zerstörung 906
▁schlechter 906
▁vorsieht 906
▁Beide 905
▁Indian 905
▁Löhne 905
▁Verletzung 905
▁deutliche 905
▁einfacher 905
▁eliminate 905
▁Regimes 904
▁feeling 904
▁looks 904
▁targeted 904
▁zentralen 904
▁referring 903
▁Garantien 902
▁accident 902
▁erstens 902
▁reinforce 902
▁requests 902
▁verankert 902
anlagen 901
▁External 901
▁cutting 901
▁northern 901
▁plötzlich 901
▁sichergestellt 901
▁solid 901
systeme 900
▁Formulierung 900
▁Pre 900
▁aufge 900
▁deserves 900
▁erkannt 900
▁productive 900
▁schlimmer 900
▁Übernahme 900
smodell 899
▁Meer 899
▁Norden 899
▁Paul 899
▁fresh 899
▁Kong 898
▁Termin 898
▁Zentrum 898
▁Zielsetzungen 898
druck 897
tik 897
▁Argentina 897
▁Aufsicht 897
▁Erbe 897
▁Hilfs 897
▁exploit 897
▁intervene 897
▁vessels 897
hö 896
pan 896
▁Bewältigung 896
▁Grünbuch 896
▁Körper 896
▁Pi 896
▁Rechnungshof 896
▁Schatten 896
▁affecting 896
▁freuen 896
▁lenken 896
▁proof 896
▁removed 896
▁universities 896
▁viable 896
▁Betrug 895
▁Dublin 895
▁boom 895
▁incomes 895
▁investiert 895
▁lie 895
▁satisfied 895
▁Gerade 894
▁Tampere 894
▁engaged 894
▁ersetzt 894
▁house 894
▁infolge 894
▁spezifische 894
▁Palestine 893
▁Verfolgung 893
▁Well 893
▁eingerichtet 893
▁preserve 893
Ver 892
ünde 892
▁Consequently 892
▁Kongress 892
▁diverse 892
▁dramatic 892
▁erhoben 892
▁hilfreich 892
▁Vorredner 891
▁immense 891
▁occupation 891
SA 890
ile 890
▁Hunger 890
▁gleichermaßen 890
▁kinds 890
▁verstehe 890
Programm 889
haltung 889
istic 889
▁EIB 889
▁Ga 889
▁eintreten 889
▁fort 889
▁hearing 889
FI 888
management 888
▁ad 888
▁direkten 888
▁faces 888
▁unterscheiden 888
fonds 887
▁Aussage 887
▁falsche 887
▁konsequent 887
▁reserve 887
pri 886
▁Fleisch 886
▁Verbrauchern 886
▁Vo 886
▁Währungs 886
▁bureaucracy 886
▁gesetzliche 886
▁leichter 886
▁Darfur 885
▁Verbrauch 885
▁Wechselkurs 885
▁ended 885
▁geeignete 885
▁pace 885
▁proud 885
▁Aktien 884
▁Trans 884
▁antworten 884
▁bewerten 884
▁niedrig 884
sprogramme 883
▁Alternativen 883
▁bekräftigt 883
▁endgültige 883
▁favor 883
gas 882
▁Aufhebung 882
▁Marokko 882
▁University 882
▁fühlen 882
▁preparation 882
stelle 881
▁arrest 881
▁erörtert 881
▁fortsetzen 881
▁harmful 881
▁wind 881
▁worrying 881
▁zugänglich 881
cu 880
session 880
▁Menschheit 880
▁Ni 880
▁Verwaltungs 880
▁di 880
▁fourth 880
▁learned 880
▁murder 880
▁negotiated 880
▁vorliegen 880
if 879
q 879
▁angemessenen 879
▁chairman 879
▁gescheitert 879
dem 878
▁Erwägung 878
▁Mensch 878
▁demographic 878
▁fr 878
▁lieber 878
▁topic 878
▁wählen 878
sis 877
tum 877
▁Programmen 877
▁Sub 877
▁Subject 877
▁democracies 877
▁households 877
▁macroeconomic 877
▁Ministerrat 876
▁untersuchen 876
▁verbindliche 876
▁Äußerungen 876
org 875
▁Kriegs 875
▁gefallen 875
row 874
▁English 874
▁Erarbeitung 874
▁Hong 874
▁Mehrwertsteuer 874
▁Wirksamkeit 874
▁economics 874
▁kritisiert 874
▁offiziellen 874
ship 873
▁Any 873
▁Dafür 873
▁Greens 873
▁Haiti 873
▁Migranten 873
▁argued 873
▁fassen 873
▁hinzufügen 873
▁speeches 873
▁umfangreiche 873
▁vertritt 873
gabe 872
press 872
▁roughly 872
bre 871
ped 871
ski 871
▁Com 871
▁Milch 871
▁Morocco 871
▁Verfahrens 871
▁außergewöhnlich 871
▁aviation 871
▁gemeinsamer 871
▁ignore 871
▁instability 870
▁shares 870
▁umgehen 870
▁Menschenrechten 869
▁Million 869
▁Per 869
wechsel 868
▁Flüchtlings 868
▁angekündigt 868
▁arise 868
▁generate 868
▁geographical 868
rie 867
▁ausgelöst 867
▁gefährliche 867
▁quarter 867
▁replaced 867
▁terror 867
sniveau 866
▁Defizite 866
▁abschließend 866
▁accompanied 866
▁debated 866
▁friedliche 866
▁signs 866
▁sprach 866
▁sustained 866
▁vorrangig 866
losen 865
val 865
▁Computer 865
▁facto 865
▁foremost 865
KOM 864
av 864
▁Partnern 864
▁Visa 864
▁alternatives 864
▁stützen 864
▁Anlagen 863
▁Verfasser 863
▁employers 863
▁gained 863
▁nonetheless 863
ort 862
schrei 862
tritt 862
▁Anfragen 862
▁Glauben 862
▁Kanada 862
▁Tätigkeiten 862
▁hart 862
▁resulted 862
▁schnelle 862
▁Minuten 861
▁begun 861
▁Klarheit 860
▁Korean 860
▁Südafrika 860
▁angenommenen 860
▁anzuwenden 860
▁cr 860
▁expand 860
▁unerlässlich 860
▁Office 859
▁Verluste 859
▁derjenigen 859
▁einführen 859
▁wesentlicher 859
▁Canada 858
▁Konvergenz 858
▁auswärtige 858
▁begangen 858
▁stattfindet 858
▁Kurz 857
▁Organ 857
▁eastern 857
▁ehrlich 857
▁genauer 857
arten 856
▁Süd 856
▁Verkauf 856
▁Verlauf 856
▁threatened 856
möglich 855
▁Ganz 855
▁Werten 855
▁beantworten 855
▁black 855
▁extending 855
▁keinem 855
ay 854
sam 854
▁ALE 854
▁Stattdessen 854
▁extraordinary 854
▁familiar 854
▁fand 854
▁fit 854
▁potentially 854
▁race 854
technologie 853
▁Ausbeutung 853
▁Energiequellen 853
▁Third 853
▁beraten 853
▁gelingen 853
▁kurzfristig 853
spflicht 852
▁Follow 852
▁Funktionieren 852
▁Gewinn 852
▁behalten 852
▁moderne 852
▁offering 852
▁regionaler 852
▁showed 852
▁standing 852
ries 851
— 851
▁Betrifft 851
▁Kulturen 851
▁effizienter 851
▁rechtfertigen 851
▁schwedischen 851
▁Mrd 850
▁Nation 850
▁Other 850
▁Weißbuch 850
▁amended 850
▁beobachten 850
▁umso 850
▁Assoziierung 849
▁Mittelmeerraum 849
▁actors 849
▁approaches 849
▁mittlere 849
▁organization 849
▁Dingen 848
▁Mon 848
▁aufbauen 848
▁grundlegender 848
▁periods 848
▁rasche 848
▁unnecessary 848
▁wirklichen 848
uß 847
▁Anhörung 847
▁Kennzeichnung 847
▁certainty 847
▁Atlantic 846
▁Dokumente 846
▁ratio 846
▁Car 845
▁Städten 845
▁intentions 845
▁jeweil 845
▁transactions 845
▁usual 845
▁virtually 845
▁Arzneimittel 844
▁Bilanz 844
▁Nonetheless 844
▁abgegeben 844
▁bisherigen 844
▁unprecedented 844
position 843
smitglieder 843
transatlantische 843
в 843
▁advertising 843
▁divide 843
▁informal 843
▁lesson 843
gra 842
sgruppen 842
▁Anleihen 842
▁Martin 842
▁tough 842
▁vermitteln 842
▁überrascht 842
Mitgliedsstaaten 841
schluss 841
▁Bestimmung 841
▁Falls 841
▁Friedensprozess 841
▁comparison 841
▁existiert 841
▁woman 841
isse 840
▁Freunde 840
▁deserve 840
Fischereipolitik 839
cur 839
long 839
ps 839
▁Augenblick 839
▁Finanzminister 839
▁Gestaltung 839
▁Straße 839
▁warning 839
▁zählt 839
▁Yugoslavia 838
▁bureaucratic 838
▁interne 838
▁losing 838
▁ursprünglich 838
System 837
pol 837
▁Billionen 837
▁beschleunigen 837
▁constitutes 837
▁gearbeitet 837
▁gegenseitigen 837
▁größerer 837
▁jährlichen 837
▁neighbours 837
▁ambition 836
▁erlauben 836
▁ohnehin 836
▁Ju 835
▁Lehren 835
▁auftreten 835
▁ausländischen 835
▁Ashton 834
▁Wein 834
▁fairly 834
▁abgesehen 833
▁estimates 833
▁inside 833
dra 832
governmental 832
▁Hongkong 832
▁Regionalpolitik 832
▁Rettung 832
▁Unterdrückung 832
▁doubts 832
▁ökologischen 832
▁Beurteilung 831
▁Morgen 831
▁heritage 831
ping 830
▁Krebs 830
▁Stabilitäts 830
▁klarer 830
▁thanking 830
▁trouble 830
CS 829
falls 829
leistungen 829
tische 829
▁Wahlkampf 829
▁Wahrung 829
▁intelligence 829
▁italienische 829
▁neutral 829
▁religiösen 829
lat 828
zweck 828
▁Arbeitsgruppe 828
▁Danish 828
▁Großen 828
▁besonderer 828
▁combination 828
▁marked 828
▁sterben 828
kauf 827
▁centres 827
▁chain 827
▁überwiegend 827
▁Anreiz 826
▁Lu 826
▁Zugleich 826
▁mental 826
▁niedrigen 826
▁ordnungsgemäß 826
▁respektieren 826
▁treaties 826
▁verzeichnen 826
führung 825
lan 825
▁Malaria 825
▁Wichtig 825
▁bewirken 825
▁manchen 825
▁neun 825
▁offenkundig 825
▁unilateral 825
▁weisen 825
Richtlinie 824
grenzen 824
ruf 824
zahl 824
▁Aufstieg 824
▁Betriebe 824
▁Hoch 824
▁demokratisch 824
▁ecological 824
▁strike 824
▁unanimously 824
eck 823
gl 823
king 823
▁Beschäftigungs 823
▁Marktwirtschaft 823
▁Rechenschaft 823
▁financed 823
▁neighbouring 823
▁repeated 823
förderung 822
räume 822
▁Kunden 822
▁forum 822
reform 821
▁Beratungen 821
▁convention 821
▁indicators 821
▁modest 821
▁regulate 821
bringen 820
schreitende 820
sector 820
▁Bosnien 820
▁Te 820
▁afternoon 820
▁sichtbar 820
▁zwingen 820
ble 819
ement 819
▁lasting 819
ckt 818
netze 818
sbericht 818
▁Civil 818
▁Verts 818
▁funktionierende 818
▁hierfür 818
▁observers 818
ham 817
werten 817
▁Instabilität 817
▁Socialists 817
▁anwenden 817
▁droht 817
▁environmentally 817
▁joined 817
▁österreichische 817
▁Fisch 816
▁Michel 816
▁Missbrauch 816
▁bio 816
funktion 815
▁Aussichten 815
▁Prävention 815
▁allmählich 815
▁bezeichnen 815
▁excluded 815
▁festlegen 815
▁image 815
▁incentive 815
▁milk 815
▁tatsächlichen 815
▁Montenegro 814
▁begegnen 814
▁fortgesetzt 814
Ko 813
gibt 813
▁Argentinien 813
▁Aussicht 813
▁Kompetenz 813
▁Laeken 813
▁c 813
▁discipline 813
▁gefährden 813
▁gehe 813
▁inevitable 813
▁notably 813
▁react 813
▁subjects 813
pt 812
▁Madrid 812
▁Organization 812
▁Trend 812
▁adjustment 812
▁article 812
▁dead 812
▁intelligent 812
▁stressed 812
iederherstellung 811
▁Monti 811
▁erteilen 811
▁griechische 811
▁night 811
gar 810
▁Importe 810
▁Stalin 810
▁correctly 810
▁eventuell 810
▁fate 810
▁liefern 810
▁parents 810
▁sake 810
▁überwachen 810
ong 809
sprogramm 809
ves 809
▁Universitäten 809
▁Währungsfonds 809
▁angewiesen 809
▁beibehalten 809
▁beruhen 809
▁concentration 809
▁erfolgreichen 809
▁manufacturers 809
▁pursued 809
▁refers 809
▁zweiter 809
▁compulsory 808
▁enge 808
▁guaranteeing 808
▁minimal 808
▁stattgefunden 808
ified 807
▁gelangt 807
▁unemployed 807
mut 806
▁Erde 806
▁Problematik 806
▁entsteht 806
▁explained 806
▁prevented 806
▁Bewusstsein 805
▁br 805
▁eingeräumt 805
▁everybody 805
▁ratified 805
▁Südkorea 804
▁tradition 804
▁zwangsläufig 804
▁Abgeordneter 803
▁dasselbe 803
▁narrow 803
Christian 802
ett 802
▁Agenturen 802
ny 801
▁Anzeichen 801
▁birth 801
▁humanity 801
▁systematisch 801
▁teilt 801
Demokratisierung 800
oren 800
tlich 800
tor 800
▁Motor 800
▁auseinander 800
▁bottom 800
▁citizenship 800
▁dieselben 800
▁equity 800
▁managing 800
dis 799
▁Tri 799
▁Wichtigkeit 799
▁respects 799
▁surprised 799
▁willkommen 799
▁zugestimmt 799
sprozesses 798
wie 798
▁implies 798
▁jemals 798
▁niedrige 798
▁wirtschafts 798
▁öffnen 798
▁Erinnerung 797
▁Stabilitätspakt 797
▁begründet 797
▁buildings 797
▁cash 797
▁ignoriert 797
▁konstruktive 797
▁na 797
▁reiterate 797
country 796
ice 796
nahme 796
▁ASEAN 796
▁Before 796
▁Nähe 796
▁Verhandlung 796
▁bedeutsam 796
▁beschließen 796
▁Handlung 795
▁Rassismus 795
▁bedauere 795
▁bedeutenden 795
▁fixed 795
▁imperative 795
▁pursuing 795
kel 794
smittel 794
▁Blut 794
▁enorm 794
▁gestattet 794
▁ideological 794
▁inakzeptabel 794
▁refused 794
sbeziehungen 793
▁Acht 793
▁Citizens 793
▁Indonesia 793
▁beginnt 793
▁computer 793
fallen 792
steht 792
▁Option 792
▁Soldaten 792
▁Tempo 792
erstattung 791
▁Ausführung 791
▁Ausgang 791
▁Every 791
▁Jugoslawien 791
▁Muslims 791
▁Schule 791
▁distinction 791
▁driven 791
▁elderly 791
▁israelische 791
weitaus 790
▁Kar 790
▁Vorlage 790
▁beträgt 790
▁externen 790
▁indicate 790
▁object 790
▁tritt 790
sprinzip 789
▁Konzentration 789
▁abzielt 789
▁applications 789
▁foundations 789
▁verursachen 789
lichkeiten 788
stru 788
▁Bolkestein 788
▁Clearly 788
▁einzugehen 788
▁kontrolliert 788
▁normalerweise 788
▁perfect 788
▁ständigen 788
hal 787
oli 787
▁Beitrittsländer 787
▁Tourismus 787
▁clarity 787
▁homes 787
▁nine 787
▁outstanding 787
ras 786
▁Denken 786
▁Schul 786
▁betrieben 786
▁frequently 786
▁lending 786
▁zunehmenden 786
pack 785
▁Tonnen 785
▁door 785
▁effektiver 785
▁quote 785
▁shortcomings 785
▁territories 785
del 784
▁Logik 784
▁definitely 784
▁gebilligt 784
▁piece 784
▁terrible 784
▁texts 784
▁verschaffen 784
▁zustande 784
bu 783
stände 783
▁Education 783
▁Rather 783
▁hierbei 783
▁leistet 783
▁north 783
▁violation 783
▁Aspekten 782
▁Ausbau 782
▁Sitz 782
▁Uns 782
▁nationals 782
▁vorgehen 782
▁vorhandenen 782
eten 781
▁Besonder 781
▁Energiepolitik 781
▁Zusammen 781
▁checks 781
▁mostly 781
▁solide 781
act 780
national 780
▁Folter 780
▁bevorstehenden 780
▁cheap 780
▁chemical 780
▁effizient 780
▁eigenes 780
▁offizielle 780
alität 779
zin 779
▁Entschädigung 779
▁Mar 779
▁Zwecke 779
▁erneuerbaren 779
▁finances 779
▁transatlantic 779
▁ALDE 778
▁Heimat 778
▁Lager 778
▁fragile 778
▁korrekt 778
▁resort 778
▁sales 778
▁trends 778
▁wording 778
gesellschaften 777
regelung 777
▁Bi 777
▁sharing 777
▁Galileo 776
▁Kräften 776
▁nachdenken 776
▁zer 776
Politik 775
bekämpfung 775
ient 775
▁Grundlagen 775
▁Mugabe 775
▁Versicherungs 775
▁online 775
▁torture 775
day 774
▁DC 774
▁Gewerkschaften 774
▁accounting 774
▁alt 774
▁surveillance 774
▁symbol 774
kapital 773
sverfahrens 773
unk 773
▁Streit 773
▁Vertretung 773
▁puts 773
▁scenario 773
▁unver 773
▁vorbei 773
sfragen 772
▁Jugendlichen 772
▁Randlage 772
▁Syrian 772
▁außenpolitische 772
▁basiert 772
▁einfachen 772
▁gekennzeichnet 772
▁kosten 772
▁relief 772
▁sagten 772
▁vorzunehmen 772
baren 771
▁Anleger 771
▁Macedonia 771
▁adverse 771
▁collaboration 771
▁vorsichtig 771
ef 770
▁Tunesien 770
▁forest 770
▁incorporated 770
▁vernünftig 770
▁withdrawal 770
▁Climate 769
▁Indonesien 769
▁ratifiziert 769
▁wünschenswert 769
Vertrag 768
einander 768
▁Einzel 768
▁Fakten 768
▁Inkrafttreten 768
▁brachte 768
▁looked 768
▁receiving 768
gebiete 767
lia 767
▁Ausnahmen 767
▁Gebäude 767
▁Rome 767
▁Tra 767
▁Tunisia 767
▁Za 767
▁audit 767
▁beendet 767
▁default 767
▁judgment 767
▁mehrfach 767
▁valid 767
▁warm 767
daten 766
erung 766
strategie 766
▁Finanzen 766
▁beizutragen 766
▁division 766
▁endgültigen 766
▁fell 766
▁marketing 766
▁mittel 766
▁sorgt 766
▁vorhin 766
▁withdraw 766
▁Angriffe 765
▁Volks 765
▁girls 765
▁map 765
▁obtained 765
chten 764
▁alliance 764
▁mittlerweile 764
▁ship 764
▁Übertragung 764
mus 763
put 763
▁Joint 763
▁believed 763
▁undertake 763
HU 762
halt 762
liste 762
mäßig 762
parlamentarische 762
▁Kampagne 762
▁Power 762
▁Simbabwe 762
▁cycle 762
▁neo 762
▁realen 762
▁Belastung 761
▁erheben 761
▁evident 761
▁Autorität 760
▁Chirac 760
▁Ehre 760
▁Ursache 760
▁lebt 760
▁quota 760
▁roads 760
▁stimulate 760
ez 759
ular 759
▁Alles 759
▁Ebenen 759
▁Kompetenzen 759
▁Standpunkte 759
▁Universität 759
▁aircraft 759
▁controlled 759
▁liquidity 759
Emissionen 758
ification 758
▁Schulz 758
▁moralische 758
▁transnational 758
▁verwiesen 758
dauerlicherweise 757
tun 757
▁Zuständigkeiten 757
▁connected 757
▁ermutigen 757
▁geeignet 757
▁laufenden 757
▁soweit 757
▁suitable 757
▁Flüchtlingen 756
▁Left 756
▁Produkten 756
▁Verbündeten 756
▁promoted 756
▁victim 756
▁Erkenntnisse 755
▁Sind 755
▁abzielen 755
▁condemned 755
▁crops 755
▁register 755
▁sorry 755
▁stärkeren 755
▁unterliegen 755
cent 754
initiative 754
ländern 754
werte 754
▁ernste 754
▁ungeachtet 754
▁Fach 753
▁Kremlin 753
▁competences 753
▁conventional 753
▁eröffnet 753
richt 752
right 752
▁jährliche 752
▁strengere 752
▁subsequent 752
▁widmen 752
pre 751
▁Lithuania 751
▁accountability 751
▁belong 751
▁dream 751
▁enhanced 751
▁kurze 751
▁liability 751
▁spite 751
▁verteilt 751
ani 750
dienste 750
income 750
spiel 750
▁Colombia 750
▁Konvention 750
▁Tieren 750
▁bewahren 750
▁exceptional 750
▁granting 750
▁imposing 750
Ma 749
präsidenten 749
▁campaigns 749
▁honest 749
▁imbalances 749
▁spiegelt 749
Präsident 748
ausschusses 748
ausschuß 748
▁Drittstaaten 748
▁Likewise 748
▁Who 748
▁badly 748
▁insofern 748
▁released 748
ied 747
▁Anmerkungen 747
▁afraid 747
▁ambitions 747
▁category 747
▁gebe 747
▁notion 747
▁older 747
rin 746
▁GUE 746
▁Oder 746
▁Rand 746
▁Zimbabwe 746
▁block 746
▁emphasised 746
▁examined 746
▁halt 746
▁hunger 746
▁Anträge 745
▁Schutzes 745
▁Verordnungen 745
▁benutzt 745
▁exposed 745
▁female 745
▁gegangen 745
▁vornehmen 745
▁zutiefst 745
att 744
palästinensische 744
▁Direkt 744
▁Kapazitäten 744
▁Niemand 744
▁alongside 744
▁catch 744
▁disagree 744
▁technologische 744
▁äußerster 744
agentur 743
paket 743
shaushalt 743
srahmen 743
▁Ro 743
▁Service 743
▁erörtern 743
▁gewählten 743
▁ignorieren 743
▁noise 743
▁raw 743
▁revised 743
LT 742
ight 742
stellt 742
▁Frist 742
▁Kreml 742
▁regrettable 742
care 741
nz 741
tel 741
▁Anhänger 741
▁Erika 741
▁Gold 741
▁Jahresbericht 741
▁Parliamentary 741
▁ausgedrückt 741
▁erforderliche 741
▁gehandelt 741
▁mittels 741
▁Legislativ 740
▁Zugangs 740
▁problematisch 740
▁spanische 740
▁Emissions 739
▁Vertrages 739
▁Wissens 739
▁bewaffnete 739
▁destroyed 739
▁remarkable 739
▁sharp 739
▁unverzichtbar 739
▁verschiedener 739
Gesundheitswesen 738
fälle 738
märkte 738
ther 738
▁Arafat 738
▁Gebrauch 738
▁Slovakia 738
▁USD 738
▁logic 738
▁muslimische 738
▁westliche 738
güter 737
▁Heimatland 737
▁Osteuropa 737
▁attractive 737
▁erneuerbare 737
▁ethnischen 737
▁fails 737
ER 736
▁airlines 736
▁du 736
▁einzig 736
▁zugelassen 736
sum 735
ziert 735
▁Teilnehmer 735
▁diplomacy 735
▁farm 735
▁heavily 735
▁hence 735
▁leiten 735
▁müsse 735
▁nahm 735
▁protests 735
▁Chairman 734
▁Konkurrenz 734
▁controversial 734
▁gegenseitig 734
▁survival 734
llen 733
▁Beratung 733
▁drastisch 733
▁freely 733
▁gefragt 733
▁hoped 733
▁notice 733
▁observed 733
▁proven 733
▁surrounding 733
region 732
steuern 732
treten 732
versicherung 732
▁Datenschutz 732
▁Si 732
▁Sozialdemokrat 732
▁applicable 732
▁drop 732
▁gesunde 732
▁herzustellen 732
▁raises 732
▁reale 732
ned 731
wand 731
▁genetic 731
▁heads 731
▁thorough 731
▁vorliegt 731
lum 730
mark 730
▁Abe 730
▁Industry 730
▁Statt 730
▁gestaltet 730
▁miss 730
▁schwach 730
▁sending 730
▁unit 730
die 729
lecommunications 729
tes 729
à 729
▁Chancellor 729
▁Quelle 729
▁drafting 729
▁genetisch 729
▁marine 729
▁organisierte 729
▁presenting 729
▁realistisch 729
▁speaker 729
▁th 729
▁vereinbart 729
▁Arbeitszeit 728
▁Fassung 728
▁complaints 728
▁Grundsätzen 727
▁Thailand 727
▁dictatorship 727
▁executive 727
iff 726
▁grave 726
▁irische 726
▁refuse 726
▁slightly 726
gruppe 725
saustausch 725
▁Genf 725
▁Inseln 725
▁alcohol 725
kommt 724
sminister 724
smitglied 724
▁Geneva 724
▁Law 724
▁Mazedonien 724
▁Raums 724
▁Vi 724
▁abgeben 724
▁mistakes 724
▁verkaufen 724
▁zurzeit 724
SK 723
over 723
▁Beim 723
▁Stück 723
▁Tschetschenien 723
▁beschrieben 723
▁beweisen 723
▁bitter 723
▁breiten 723
▁demonstrates 723
▁qualitativ 723
▁wake 723
faktor 722
forschung 722
set 722
▁Beschäftigten 722
▁Spielraum 722
▁profitiert 722
▁sit 722
▁solch 722
szusammenarbeit 721
▁mu 721
▁populist 721
▁transformation 721
estatten 720
iti 720
jährige 720
ziehen 720
▁Declaration 720
▁Umstände 720
▁Vorstellungen 720
▁gewisser 720
▁rejection 720
▁restricted 720
▁sight 720
▁survive 720
▁tensions 720
Ländern 719
eu 719
schuld 719
▁Absichten 719
▁Hafen 719
▁acquis 719
▁dürften 719
▁ignored 719
▁normalen 719
EM 718
gelegt 718
▁Besitz 718
▁NGL 718
▁Nuklear 718
▁Viertel 718
▁inevitably 718
▁logical 718
▁traditions 718
▁verhandeln 718
arm 717
uff 717
zulegen 717
▁Akt 717
▁Fernseh 717
▁Konflikten 717
▁Pakt 717
▁directed 717
▁match 717
▁pact 717
heim 716
plo 716
▁Fernsehen 716
▁Förder 716
▁Kohäsion 716
▁Nachricht 716
▁Test 716
▁funded 716
▁modified 716
▁vermieden 716
▁REACH 715
▁bewiesen 715
▁dahin 715
▁lokaler 715
▁negativ 715
▁reflection 715
▁soldiers 715
kette 714
lla 714
▁Wille 714
▁false 714
▁famous 714
▁forests 714
quality 713
tieren 713
▁Cold 713
▁Runde 713
▁deutlicher 713
▁enger 713
▁expressing 713
▁finanzieller 713
▁leaves 713
▁pleasure 713
▁supplementary 713
netz 712
test 712
▁Exporte 712
▁Frattini 712
▁Kalten 712
▁Miss 712
▁Null 712
▁Projekten 712
▁Proteste 712
▁Präsenz 712
▁acceptance 712
▁ließ 712
▁richtet 712
▁senior 712
▁socio 712
Gleichbehandlung 711
anhand 711
lt 711
▁Chinesen 711
▁chief 711
▁currencies 711
▁foundation 711
▁rhetoric 711
▁riesige 711
größter 710
· 710
▁Drei 710
▁Kauf 710
▁Leid 710
▁Prozeß 710
▁author 710
▁endeavour 710
▁except 710
▁externe 710
▁viewed 710
Jacques 709
▁Automobil 709
▁Kombination 709
▁capitalism 709
▁dieselbe 709
▁erstellt 709
▁renewed 709
▁unlike 709
▁variety 709
▁übermäßige 709
▁Gra 708
▁Monopol 708
▁Schreiben 708
▁collection 708
▁disputes 708
▁experiencing 708
▁multilateralen 708
▁racism 708
▁transfers 708
Veröffentlichung 707
sinstrument 707
vorschriften 707
▁Medikamente 707
▁Standard 707
▁Versuche 707
▁profound 707
▁revenues 707
▁streng 707
Re 706
zeiten 706
▁Bevor 706
▁Erwärmung 706
▁Privatisierung 706
▁Präsidium 706
▁geblieben 706
▁household 706
▁ändert 706
▁Anlage 705
▁Darin 705
▁Part 705
▁WHO 705
▁consolidation 705
▁delivered 705
▁distance 705
▁fleet 705
▁gradual 705
▁gründlich 705
▁ha 705
▁jointly 705
▁respektiert 705
▁verbreitet 705
Sozialdemokraten 704
kar 704
maß 704
▁Fortsetzung 704
▁beiträgt 704
▁desirable 704
▁regularly 704
▁überprüft 704
udgetary 703
▁Betriebs 703
▁Fehlen 703
▁Har 703
▁biodiversity 703
▁egal 703
▁läßt 703
▁passenger 703
▁preparations 703
▁utmost 703
Ebene 702
alter 702
▁Erwerb 702
▁Reaktionen 702
▁Ruf 702
▁backing 702
▁besagt 702
▁durchsetzen 702
▁rufen 702
bereit 701
▁angeboten 701
▁definieren 701
▁disabled 701
▁machte 701
▁pan 701
▁regulated 701
dge 700
stoff 700
uc 700
▁Meinungen 700
▁Satz 700
▁Verlängerung 700
▁bedauern 700
▁defending 700
▁enttäuscht 700
▁erwähnte 700
▁herum 700
▁responses 700
▁sphere 700
▁zwölf 700
▁plays 699
amerikanischen 698
gebiet 698
ria 698
öl 698
▁Bill 698
▁Consider 698
▁Japans 698
▁Mitbürger 698
▁Solche 698
▁aufgestellt 698
▁cast 698
▁el 698
▁finanziell 698
▁permit 698
▁praktischen 698
▁unfortunate 698
bit 697
etz 697
gesetze 697
▁Gefängnis 697
▁Kohärenz 697
▁appreciation 697
▁constraints 697
▁durchgesetzt 697
▁gefährlichen 697
▁heißen 697
▁versprochen 697
▁Branche 696
▁genießen 696
▁gross 696
▁hundred 696
▁secular 696
▁sicherer 696
▁zeitlich 696
▁Ärzte 696
kultur 695
reaching 695
▁Chechnya 695
▁Deutschlands 695
▁Erdöl 695
▁Ki 695
▁Russians 695
▁Vorfeld 695
▁bearing 695
▁capita 695
▁erinnere 695
▁helps 695
▁natürliche 695
▁processing 695
▁reductions 695
pos 694
▁Rechtsrahmen 694
▁Time 694
▁beef 694
▁confident 694
▁erzeugt 694
▁erzielten 694
▁exclusively 694
▁favourable 694
▁keen 694
▁o 694
▁stattdessen 694
▁Wa 693
▁drivers 693
▁retirement 693
▁tackling 693
Bürger 692
CNS 692
skraft 692
▁Lernen 692
▁Steuerung 692
▁Theorie 692
▁threshold 692
▁weaken 692
schein 691
▁Albanien 691
▁Eines 691
▁Kind 691
▁Spitze 691
▁ergänzen 691
▁zieht 691
Sch 690
will 690
▁Albania 690
▁Frankreichs 690
▁Sicherheitsrat 690
▁Vermögenswerte 690
▁Vordergrund 690
▁erwähnten 690
▁penalties 690
▁train 690
▁verkauft 690
▁ähnlichen 690
use 689
way 689
▁Griechenlands 689
▁Sehr 689
▁abolish 689
▁airports 689
▁angehören 689
▁berichtet 689
▁bold 689
▁donors 689
▁einsetzt 689
▁nobody 689
▁traditionelle 689
▁Konflikts 688
▁TB 688
▁Tourism 688
▁ausgestattet 688
▁uses 688
AS 687
effekt 687
lig 687
▁Abbas 687
▁Ba 687
▁Bri 687
▁Bu 687
▁Bureau 687
▁Malaysia 687
▁albeit 687
▁enabled 687
▁gelassen 687
▁generous 687
▁produziert 687
▁supranational 687
Strukturreformen 686
fern 686
▁Bürgerkrieg 686
▁Einwohner 686
▁amend 686
▁aufrichtig 686
▁beneficial 686
▁consistently 686
▁contributing 686
▁friend 686
▁geringen 686
▁substantially 686
▁ties 686
▁wirksamer 686
artiger 685
▁apparently 685
▁bereiten 685
▁damalige 685
▁gäbe 685
▁verheerende 685
▁wächst 685
punkte 684
▁Beweise 684
▁Slowakei 684
▁anniversary 684
▁geplant 684
▁irre 684
▁recognized 684
▁served 684
▁transform 684
aufrechterhalten 683
brechen 683
tter 683
zugeben 683
▁Aussagen 683
▁Einer 683
▁Lockerung 683
▁Obviously 683
▁Reichtum 683
▁appointment 683
▁hohes 683
risiko 682
▁Luftfahrt 682
▁dauerhafte 682
▁sicheren 682
St 681
ica 681
▁Summe 681
▁Vielmehr 681
▁born 681
▁missing 681
▁schließe 681
let 680
▁Dokumenten 680
▁Tatsachen 680
▁achievements 680
▁fundamentally 680
▁j 680
▁joining 680
▁root 680
▁steigt 680
ade 679
ons 679
▁Lebensstandard 679
▁Rußland 679
▁approximately 679
▁kümmern 679
produkte 678
pul 678
uck 678
ward 678
▁Ernennung 678
▁Year 678
▁dangers 678
▁gegebenenfalls 678
▁gegründet 678
▁hinein 678
▁Eigentum 677
▁ansehen 677
▁deeper 677
▁einhalten 677
▁strenge 677
ausgaben 676
bewegung 676
vier 676
wahl 676
▁Betrieb 676
▁Demokratische 676
▁Gläubiger 676
▁Mehrwert 676
▁Planeten 676
▁cultures 676
▁experiences 676
▁incorporate 676
▁route 676
▁sitzen 676
▁Annäherung 675
▁Kinnock 675
▁Linken 675
▁bilaterale 675
▁delays 675
▁drafted 675
▁foster 675
▁getötet 675
▁präzise 675
nde 674
▁Annan 674
▁Barnier 674
▁Culture 674
▁Until 674
▁erarbeiten 674
▁gewiss 674
▁healthcare 674
▁nehme 674
▁publicly 674
▁erleichtert 673
▁geteilt 673
▁jurisdiction 673
▁lacking 673
▁researchers 673
▁basically 672
▁integrity 672
▁lesen 672
▁umfassen 672
▁zielt 672
▁Überarbeitung 672
▁Stunde 671
▁Vertrauens 671
▁Werbung 671
▁abuses 671
▁einnehmen 671
▁indirekt 671
▁posed 671
Fluggesellschaft 670
itz 670
▁Statistiken 670
▁Streitkräfte 670
▁Werden 670
▁X 670
▁Xi 670
▁emerge 670
▁Ausrichtung 669
▁Kürze 669
▁Liebe 669
▁Spar 669
▁aufgebaut 669
▁bewußt 669
▁medizinische 669
▁ownership 669
▁stem 669
verkehrs 668
▁Kl 668
▁Material 668
▁Opfern 668
▁Palacio 668
▁advocate 668
▁postal 668
ressourcen 667
teilung 667
ya 667
▁Otherwise 667
▁Peace 667
▁Sha 667
▁Verträgen 667
▁beteiligten 667
▁fairen 667
▁participants 667
▁recommend 667
▁relate 667
▁resist 667
▁supporters 667
▁wenigsten 667
▁Dort 666
▁Gerichtshofs 666
▁Ratsvorsitzes 666
▁bekräftigen 666
▁cells 666
▁feature 666
▁grown 666
▁nieder 666
▁rechnen 666
▁star 666
▁suggestions 666
▁undertakings 666
▁yield 666
gebieten 665
▁Einzelnen 665
▁Moldova 665
▁Pfeiler 665
▁Politikern 665
▁Somalia 665
▁Vorwand 665
▁billions 665
▁erläutern 665
▁harte 665
▁nationalism 665
▁organisierten 665
lam 664
licher 664
tell 664
▁Question 664
▁Wachstumspakt 664
▁arising 664
▁coordinate 664
▁deadline 664
▁initially 664
▁interventions 664
▁reservations 664
▁schlimmsten 664
▁thousand 664
tern 663
▁excuse 663
▁organise 663
▁outset 663
▁wirken 663
▁Cameron 662
▁Ideologie 662
▁Ke 662
▁Nichtregierungs 662
▁Unterzeichnung 662
▁Zahlung 662
▁anstreben 662
▁centuries 662
▁coast 662
▁convince 662
▁engagiert 662
▁repressive 662
▁supervisor 662
fahrt 661
pla 661
rop 661
unwahrscheinlich 661
▁Beijing 661
▁Flughäfen 661
▁Indem 661
▁Scotland 661
▁Stabilisierung 661
▁Währungen 661
▁glaubwürdig 661
▁reverse 661
▁warrant 661
hob 660
rd 660
▁Afrikas 660
▁expertise 660
▁festen 660
▁founded 660
▁visible 660
▁welcomes 660
bedingte 659
lassen 659
tergovernmental 659
wachsen 659
▁Afghan 659
▁Ri 659
▁accused 659
▁gr 659
▁investing 659
▁testing 659
▁türkische 659
gestellt 658
oo 658
▁Beschluß 658
▁Mas 658
▁clarification 658
▁passieren 658
▁prompt 658
▁schwerer 658
ants 657
verschmutzung 657
▁Finanzsektor 657
▁Guinea 657
▁Mauer 657
▁abandon 657
▁agrees 657
▁attend 657
▁characteristics 657
▁claimed 657
▁reconciliation 657
aw 656
fass 656
▁Cor 656
▁Flugzeug 656
▁Territorium 656
▁Tür 656
▁avoided 656
▁einander 656
▁empfehlen 656
▁focusing 656
▁gewaltige 656
▁hilft 656
▁justification 656
▁staatlicher 656
▁transit 656
▁worry 656
ali 655
swert 655
wir 655
▁Eis 655
▁Russen 655
▁defining 655
▁necessity 655
▁remote 655
▁twice 655
▁wave 655
disziplin 654
▁Team 654
▁steigende 654
▁talked 654
▁verbieten 654
aries 653
ional 653
scha 653
▁Ehe 653
▁Gesetzes 653
▁Kompromisse 653
▁Sal 653
▁Somit 653
▁cent 653
▁integrate 653
▁organisiert 653
▁pilot 653
▁regeln 653
▁worried 653
sprobleme 652
tive 652
ufrechterhaltung 652
€ 652
▁Zulassung 652
▁accessible 652
▁bar 652
▁beschleunigt 652
▁bewegt 652
▁component 652
▁debts 652
▁returned 652
▁satisfaction 652
▁verschärfen 652
gue 651
▁Erzeugung 651
▁Gut 651
▁Hitler 651
▁Konvents 651
▁Nationalismus 651
▁Thursday 651
▁fl 651
▁klein 651
▁sites 651
▁unnötig 651
▁verpflichten 651
ust 650
▁banned 650
▁declare 650
▁providers 650
▁teuer 650
bericht 649
century 649
institutionen 649
▁Ag 649
▁Haushaltsjahr 649
▁Technik 649
▁akzeptabel 649
▁einzubeziehen 649
▁gesichert 649
▁warmly 649
jahr 648
▁Rahmenbedingung 648
▁WASHIN 648
▁anzupassen 648
▁costly 648
▁dominant 648
▁emotional 648
▁highlights 648
▁japanischen 648
▁übertrieben 648
Ausnahmeregelung 647
kommunistischen 647
tzt 647
wettbewerbsfähig 647
▁Centre 647
▁Optionen 647
▁Services 647
▁Wohl 647
▁accepting 647
▁beeinträchtigt 647
▁disastrous 647
▁permitted 647
▁zukommen 647
mu 646
▁Democracy 646
▁Donnerstag 646
▁III 646
▁Jede 646
▁clearer 646
▁confusion 646
▁dramatisch 646
▁foot 646
▁holds 646
▁hour 646
▁judge 646
▁opponents 646
▁pressing 646
▁sofortige 646
▁wahre 646
▁ökologische 646
gie 645
schau 645
vermögen 645
▁Chef 645
▁Gefangenen 645
▁Immobilien 645
▁Neue 645
▁ausgearbeitet 645
▁basieren 645
▁efficiently 645
▁organisieren 645
fisch 644
interessen 644
vereinbarung 644
▁Aufforderung 644
▁Betroffenen 644
▁Poettering 644
▁cope 644
▁friedlichen 644
▁procurement 644
▁wert 644
▁zügig 644
heben 643
sführung 643
unter 643
▁Fin 643
▁Verhältnisse 643
▁associations 643
▁bewertet 643
▁gesundheitliche 643
▁Ölpreise 643
Verantwortlichen 642
sektors 642
▁Anwesenheit 642
▁Assad 642
▁Eurostat 642
▁prominent 642
▁reporting 642
▁steigenden 642
▁tangible 642
raten 641
▁features 641
▁fertig 641
▁monopoly 641
▁Befürworter 640
▁Moskau 640
▁Zivil 640
▁auszuüben 640
▁gespielt 640
▁surprising 640
▁wild 640
eur 639
л 639
▁Manche 639
▁authorisation 639
▁civilians 639
▁compatible 639
▁falschen 639
▁minds 639
▁potenziell 639
▁verwirklichen 639
▁zumal 639
Christdemokraten 638
Mitglieder 638
fassung 638
▁Angela 638
▁aussehen 638
▁motor 638
▁nachhaltig 638
▁nominal 638
▁observation 638
▁sex 638
▁simplification 638
▁strictly 638
▁wertvolle 638
are 637
frist 637
splan 637
versammlung 637
▁Nutzer 637
▁Quellen 637
▁Rahmenprogramm 637
▁Vorbild 637
▁commodity 637
▁deny 637
▁gewöhnlich 637
▁suggestion 637
▁super 637
▁zerstören 637
intensive 636
▁Ansätze 636
▁Gleichheit 636
▁Haushaltsplans 636
▁Schw 636
▁bill 636
▁einzuhalten 636
▁pharmaceutical 636
▁predict 636
feindliche 635
▁Ausschüsse 635
▁Ban 635
▁Beschwerden 635
▁Diplomatie 635
▁Höchst 635
▁academic 635
▁inclusive 635
▁inwie 635
▁openly 635
▁soil 635
buch 634
sfindung 634
▁Goals 634
▁Kapitalismus 634
▁Moscow 634
▁Professor 634
▁beantwortet 634
▁categories 634
▁covers 634
▁explicitly 634
▁farms 634
▁werte 634
▁zulässig 634
dokument 633
sammenzuarbeiten 633
schreiben 633
srechts 633
züge 633
▁Ausbruch 633
▁Gewähr 633
▁Mark 633
▁autonomy 633
▁conservation 633
▁contacts 633
▁Aktionsprogramm 632
▁Binnenmarkts 632
▁Häuser 632
▁Mengen 632
▁Parlamentarier 632
▁Still 632
▁Werk 632
▁geleitet 632
▁gold 632
ago 631
rank 631
▁Beitritts 631
▁Ernährung 631
▁ending 631
▁entering 631
▁integral 631
▁religiöse 631
▁schlage 631
▁unterbreiten 631
ARIS 630
Kandidatenländer 630
power 630
ram 630
run 630
tiert 630
▁Bananen 630
▁Dafürhalten 630
▁Diktatur 630
▁Google 630
▁Menschenhandel 630
▁Schwäche 630
▁Sowohl 630
▁Within 630
▁beurteilen 630
▁broadly 630
▁dependence 630
▁dumping 630
▁eigentliche 630
▁eingehend 630
▁railway 630
▁schwedische 630
▁starkes 630
▁timely 630
▁university 630
tech 629
▁Einfuhr 629
▁applicant 629
▁führten 629
▁representing 629
▁überlegen 629
anforderungen 628
how 628
ties 628
▁Arm 628
▁Gesprächen 628
▁ausgewogenen 628
▁denied 628
▁eingestellt 628
▁functions 628
▁massiven 628
▁schien 628
▁verhängt 628
not 627
▁Endes 627
▁Film 627
▁Politikbereiche 627
▁Wesen 627
▁command 627
▁plus 627
▁sonstige 627
▁vorgebracht 627
▁Brief 626
▁confront 626
▁tiefer 626
ilt 625
ological 625
▁GVO 625
▁Should 625
▁anhaltende 625
▁chemicals 625
▁dramatically 625
▁friendly 625
▁tonnes 625
IS 624
▁Board 624
▁Führungs 624
▁Herrschaft 624
▁Schätzungen 624
▁integrierten 624
▁items 624
▁potenziellen 624
▁stations 624
▁stick 624
▁technologischen 624
▁visited 624
▁übermitteln 624
▁Gipfels 623
▁enlarged 623
▁faire 623
▁presentation 623
Arabien 622
Naturkatastrophe 622
ix 622
▁Allow 622
▁Auswahl 622
▁Handlungen 622
▁Hoffnungen 622
▁Kommissare 622
▁Kontakte 622
▁Können 622
▁Trumps 622
▁Vladimir 622
▁abolition 622
▁erweitert 622
▁escape 622
▁klären 622
▁sad 622
▁schlechten 622
▁stabile 622
▁subsequently 622
▁sustain 622
tier 621
▁Appell 621
▁Cotonou 621
▁Derzeit 621
▁Minutes 621
▁Vorsitzende 621
▁beinhalten 621
▁bomb 621
▁declarations 621
▁deflation 621
▁fairer 621
▁invite 621
▁patient 621
▁stopped 621
▁überraschend 621
down 620
fahren 620
▁Kernenergie 620
▁Litauen 620
▁Tendenz 620
▁arrive 620
▁backed 620
▁disappointed 620
▁exceptions 620
▁interim 620
▁nachhaltiger 620
▁observe 620
▁quick 620
▁vergleichbar 620
▁verhalten 620
bro 619
zubringen 619
▁Effektivität 619
▁Niederlande 619
▁Reich 619
▁fought 619
▁gehabt 619
▁hierzu 619
▁horizontal 619
▁leverage 619
▁offiziell 619
▁sports 619
▁wirksamen 619
rö 618
zustellen 618
▁EP 618
▁IT 618
▁Parlamenten 618
▁Schwächen 618
▁befürworte 618
▁coastal 618
▁finish 618
▁rigid 618
▁südlichen 618
▁unanimous 618
▁ähnlicher 618
Abkommen 617
ssystems 617
trag 617
▁Bra 617
▁Fahrzeuge 617
▁Peking 617
▁coherence 617
▁damaging 617
▁demanded 617
▁length 617
▁undertaking 617
wissenschaftlich 616
▁conventions 616
▁emission 616
▁error 616
▁freut 616
▁langer 616
▁systematic 616
▁tri 616
ast 615
behörden 615
icht 615
▁Lasten 615
▁Schlag 615
▁elektronischen 615
▁resolving 615
wer 614
▁Ausübung 614
▁Kategorie 614
▁Mitwirkung 614
▁Persönlichkeit 614
▁advances 614
▁creative 614
▁diplomatischen 614
▁internationally 614
▁isolation 614
▁wachsen 614
▁Übereinkunft 614
ET 613
account 613
zugehen 613
▁Among 613
▁Bedrohungen 613
▁Chaos 613
▁Leitung 613
▁Orientierung 613
▁Pflichten 613
▁Sri 613
▁Start 613
▁angeführt 613
▁derselben 613
▁forgotten 613
▁listened 613
▁perceived 613
▁vereinfacht 613
anten 612
fähig 612
mangel 612
▁Begrenzung 612
▁Jahrestag 612
▁Unfall 612
▁erweitern 612
▁gebildet 612
bl 611
▁Political 611
▁Sogar 611
▁Wälder 611
▁berichten 611
▁excess 611
▁exchanges 611
▁gebraucht 611
▁precautionary 611
▁slowly 611
▁umgehend 611
Meinungsäußerung 610
▁Fortunately 610
▁Go 610
▁Protest 610
▁arm 610
▁character 610
▁examination 610
▁minute 610
flo 609
▁Interventionen 609
▁Kommunikations 609
▁Spitzen 609
▁Street 609
▁appeared 609
▁argumentieren 609
▁erkennbar 609
▁geopolitical 609
▁gingen 609
▁socialist 609
US 608
bindung 608
gänge 608
jo 608
legt 608
▁Alkohol 608
▁anbieten 608
▁begreifen 608
▁beitreten 608
▁geschafft 608
▁gewählte 608
▁umgekehrt 608
▁zurückkehren 608
ments 607
rechtzuerhalten 607
▁Beihilfe 607
▁Jordan 607
▁Lanka 607
▁Organen 607
▁Straf 607
▁erstmals 607
▁folglich 607
▁football 607
▁hervorragenden 607
▁location 607
▁underline 607
▁verzichten 607
Rechtssicherheit 606
lea 606
lon 606
sort 606
änge 606
▁Königreichs 606
▁angehen 606
▁employ 606
▁guide 606
▁rescue 606
▁schweigen 606
ermost 605
zahlen 605
▁Bemühen 605
▁Einschränkungen 605
▁Fußball 605
▁Geschwindigkeit 605
▁Santer 605
▁asiatischen 605
▁malaria 605
▁meantime 605
▁painful 605
▁perspectives 605
▁repression 605
▁sah 605
▁smart 605
▁talent 605
▁write 605
▁Auslegung 604
▁Bedürfnissen 604
▁Import 604
▁Jerusalem 604
▁Mikro 604
▁Nobel 604
▁Rechtsetzung 604
▁atmosphere 604
▁ausreichen 604
▁engagement 604
▁fo 604
▁outcomes 604
▁scrutiny 604
▁struck 604
▁suit 604
▁tribute 604
▁yourself 604
▁König 603
▁Verurteilung 603
▁expanding 603
▁gedacht 603
▁threatening 603
▁touch 603
atur 602
regionen 602
spolitiken 602
würdig 602
▁Anschluss 602
▁Bildungs 602
▁CIA 602
▁Far 602
▁Prestige 602
▁Statute 602
▁Verstärkung 602
▁ausgeglichen 602
▁comparable 602
▁conservative 602
▁decent 602
▁lowest 602
▁qualifications 602
▁umstritten 602
▁vernünftigen 602
▁voranzutreiben 602
▁white 602
▁übermittelt 602
amt 601
erei 601
gekommen 601
lauf 601
sstandards 601
▁Aufklärung 601
▁Inneres 601
▁Mubarak 601
▁Tr 601
▁Verletzungen 601
▁brain 601
▁defeat 601
▁glaubt 601
▁neoliberal 601
▁weitreichende 601
▁ältere 601
▁Herz 600
▁Schon 600
▁schenken 600
▁silence 600
▁sold 600
angebot 599
kin 599
▁ausgeführt 599
▁bloße 599
▁heutzutage 599
▁protectionism 599
▁pushing 599
▁section 599
▁täglich 599
lösung 598
rechts 598
▁Ergänzung 598
▁Verstöße 598
führer 597
jährigen 597
konferenz 597
▁Mutter 597
▁Wald 597
▁Zuwanderung 597
▁commission 597
▁energisch 597
▁Übereinkommens 597
▁Arbeitslosen 596
▁Real 596
▁Sozialpolitik 596
▁Standort 596
▁Vizepräsident 596
▁Wind 596
▁allgemeiner 596
▁dargestellt 596
▁frühere 596
▁inhaltlich 596
▁koordinierte 596
▁partnerships 596
▁shortly 596
▁ständige 596
▁tolerance 596
Haushalt 595
tage 595
▁Autos 595
▁Finnish 595
▁Generalsekretär 595
▁Grundfreiheiten 595
▁Zusatz 595
▁bedenken 595
▁preventive 595
▁regulators 595
srate 594
tai 594
▁Fl 594
▁Indikatoren 594
▁bi 594
▁einzuleiten 594
▁principal 594
▁sentence 594
▁unabdingbar 594
▁vehicle 594
cat 593
uri 593
zieren 593
▁Hände 593
▁Much 593
▁Preisen 593
▁Y 593
▁anzuerkennen 593
▁threaten 593
fo 592
gewalt 592
sinn 592
▁Abov 592
▁Koordination 592
▁Schweiz 592
▁Though 592
▁Vorbehalte 592
▁appointed 592
▁authoritarian 592
▁errichten 592
▁geschätzt 592
▁imported 592
▁innocent 592
▁mix 592
▁workforce 592
infrastruktur 591
lässlich 591
rim 591
▁Myanmar 591
▁Vorsitzender 591
▁auferlegt 591
▁consent 591
▁großartige 591
▁interessant 591
▁kritisch 591
▁verstoßen 591
▁Abstimmungen 590
▁Bestrebungen 590
▁Indiens 590
▁Jedoch 590
▁Sichtweise 590
▁abstained 590
▁conviction 590
▁leidet 590
▁roll 590
▁undermining 590
einkommen 589
smechanismus 589
▁Fern 589
▁arrived 589
▁heran 589
▁offices 589
▁precedent 589
▁wise 589
gipfel 588
▁Ali 588
▁Behauptung 588
▁Solang 588
▁begrenzte 588
▁marginal 588
▁pipeline 588
▁Beend 587
▁Ersatz 587
▁IGC 587
▁aufrecht 587
▁bedingt 587
▁caught 587
▁ideology 587
branche 586
kan 586
▁Governance 586
▁Lebensqualität 586
▁Men 586
▁Sahara 586
▁Your 586
▁liberalen 586
▁poorer 586
post 585
swachstums 585
▁Criminal 585
▁Ostsee 585
▁Swoboda 585
▁Traditionen 585
▁Verschuldung 585
▁haushalts 585
▁kill 585
▁konkreter 585
▁konstruktiven 585
▁mother 585
▁verbesserte 585
bri 584
kal 584
mar 584
▁Befürchtungen 584
▁Keine 584
▁herbeizuführen 584
OS 583
ott 583
swachstum 583
▁Freund 583
▁Guantánamo 583
▁Leistungsbilanz 583
▁Netto 583
▁Rückzug 583
▁abhängen 583
▁closure 583
▁compromises 583
▁exclude 583
▁flu 583
▁interessante 583
▁knew 583
▁produzieren 583
eb 582
gleichberechtigt 582
▁Konsumenten 582
▁Nacht 582
▁Nazi 582
▁Sein 582
▁Symbol 582
▁Textil 582
▁Tony 582
▁annually 582
▁paradox 582
▁respective 582
▁returns 582
▁signing 582
▁standen 582
▁ultimate 582
▁veranlasst 582
▁vorschlägt 582
▁watch 582
tar 581
tischen 581
▁Business 581
▁Erdoğan 581
▁Forscher 581
▁Gemeinden 581
▁doctors 581
▁verbinden 581
▁volume 581
mä 580
▁Bisher 580
▁Immunität 580
▁Ratspräsidenten 580
▁Switzerland 580
▁Tschechische 580
▁Wohlergehen 580
▁Zivilisation 580
▁bauen 580
▁bekämpft 580
▁covering 580
▁disappear 580
▁geringere 580
▁günstig 580
▁imply 580
▁stammen 580
arbeiter 579
gesetz 579
▁acknowledged 579
▁acted 579
▁complement 579
▁gelernt 579
▁hielt 579
▁impetus 579
▁pick 579
▁satellite 579
▁statute 579
▁telling 579
▁transparenter 579
▁zwanzig 579
hei 578
märkten 578
▁Angola 578
▁EVP 578
▁Erleichterung 578
▁Fahr 578
▁Geber 578
▁Ursprung 578
▁accordingly 578
▁congratulations 578
▁names 578
▁pressures 578
▁Überdi 578
▁Eigen 577
▁Hilfen 577
▁assessments 577
▁begleitet 577
▁einiges 577
▁geistigen 577
▁gesch 577
▁überwacht 577
▁übrig 577
behörde 576
nce 576
oriented 576
platz 576
▁Entschließungen 576
▁Hinter 576
▁Hunderte 576
▁Netzwerk 576
▁Partnerschaften 576
▁Wäre 576
▁angepasst 576
▁elektronische 576
▁erweiterten 576
▁portugiesischen 576
▁solved 576
gesetzt 575
▁Christ 575
▁Konservativen 575
▁begrenzen 575
▁employed 575
▁enterprise 575
▁zurückzu 575
gal 574
greifen 574
üchte 574
▁Estonia 574
▁Herbst 574
▁Produzenten 574
▁Rahmens 574
▁ausgeübt 574
▁beider 574
▁commend 574
▁geholfen 574
▁gemessen 574
▁genaue 574
▁heftig 574
▁japanische 574
▁perform 574
▁weakness 574
iß 573
▁Keynes 573
▁Protektionismus 573
▁aufgeworfen 573
▁bond 573
▁dauern 573
▁helpful 573
▁hochrangige 573
▁innovations 573
▁meaningful 573
▁stages 573
gut 572
technologien 572
zy 572
▁Konsolidierung 572
▁Lebensmitteln 572
▁attract 572
▁erkennt 572
▁existieren 572
▁harmonised 572
▁schlicht 572
▁steckt 572
▁streets 572
ache 571
▁Administration 571
▁Darlehen 571
▁Effekt 571
▁Kunst 571
▁corrupt 571
▁essence 571
▁genetically 571
▁liegenden 571
▁sowjetische 571
▁statistische 571
▁verhandelt 571
griff 570
lor 570
rad 570
▁Autonomie 570
▁Johannesburg 570
▁Kol 570
▁Kommunismus 570
▁Operation 570
▁Provinz 570
▁Rindfleisch 570
▁Zwangs 570
▁combine 570
▁denselben 570
▁elite 570
▁kurzfristige 570
▁newly 570
▁restrictive 570
▁vorzugehen 570
stein 569
ying 569
▁Bestände 569
▁Umstellung 569
▁Verteidigungs 569
▁consolidate 569
▁nötigen 569
▁revealed 569
▁stringent 569
▁tatsächliche 569
▁tens 569
▁tiefe 569
▁wofür 569
▁worthy 569
path 568
▁Ausgangspunkt 568
▁ELDR 568
▁Einschränkung 568
▁Ersparnisse 568
▁Folgendes 568
▁Hinweise 568
▁Lehre 568
▁Transit 568
▁Vorgänger 568
▁chair 568
▁euros 568
▁fahren 568
▁geplanten 568
▁inhabitants 568
▁rare 568
▁requir 568
▁transeuropäisch 568
▁wrote 568
▁überdenken 568
The 567
class 567
kämpfe 567
qualität 567
▁Außengrenzen 567
▁Defence 567
▁ECHO 567
▁Juden 567
▁Kontinents 567
▁Pack 567
▁Ste 567
▁Stufe 567
▁Verzögerung 567
▁capabilities 567
▁eröffnen 567
▁grundlegend 567
▁intensiv 567
▁nachzudenken 567
▁par 567
▁reinforced 567
▁saubere 567
gy 566
währung 566
▁Kolumbien 566
▁Schottland 566
▁beeinflusst 566
▁creditors 566
▁keinesfalls 566
▁längst 566
▁promising 566
▁treiben 566
▁vertraut 566
▁vollständigen 566
Mediterranean 565
rent 565
▁Egyptian 565
▁Geburt 565
▁Saal 565
▁Zusammensetzung 565
▁accurate 565
▁blieb 565
▁devastating 565
▁erlangen 565
▁genocide 565
▁invested 565
▁notes 565
▁oberste 565
▁optimal 565
▁residence 565
▁sharply 565
EWG 564
verhältnismäßig 564
▁Baroness 564
▁Gebühren 564
▁Händen 564
▁Versorgungs 564
▁camps 564
▁chapter 564
▁containing 564
▁inner 564
▁schön 564
▁secondary 564
▁sole 564
▁western 564
grad 563
ino 563
tz 563
▁Cha 563
▁Costa 563
▁En 563
▁Gemäß 563
▁Infolgedessen 563
▁Obergrenze 563
▁dossier 563
▁onto 563
▁statistical 563
termin 562
▁Allgemeine 562
▁Behinderungen 562
▁Besatzung 562
▁Gleichwohl 562
▁Kompromiß 562
▁Ph 562
▁Sharon 562
▁anzugehen 562
▁criminals 562
▁distributed 562
▁killing 562
▁kritische 562
▁pays 562
▁punishment 562
▁reisen 562
▁satisfy 562
▁stakeholders 562
▁unterstreicht 562
▁Denk 561
▁Hindernis 561
▁Rio 561
▁eingereichten 561
▁generated 561
▁hinzuweisen 561
▁integriert 561
▁vielfach 561
kreis 560
lagen 560
losigkeit 560
roll 560
sagen 560
zeug 560
▁Ernährungs 560
▁Insofern 560
▁Verhinderung 560
▁beglückwünsche 560
▁behindern 560
▁effektiven 560
)] 559
anteil 559
bahn 559
minister 559
sprachen 559
ströme 559
▁Atmosphäre 559
▁Beamte 559
▁Everyone 559
▁Kranken 559
▁Republican 559
▁detention 559
▁verknüpft 559
Krise 558
aktiv 558
europäischen 558
▁Bürgerrechte 558
▁Folglich 558
▁Pflanzen 558
▁champion 558
▁entwickelte 558
▁indication 558
▁potenzielle 558
▁ratify 558
chte 557
lk 557
▁Doppel 557
▁Erdgas 557
▁Gesichtspunkt 557
▁Milliarde 557
▁Viertens 557
▁participating 557
▁problematic 557
▁vergeben 557
gegangen 556
je 556
skräfte 556
▁Day 556
▁Nachmittag 556
▁Rentner 556
▁Single 556
▁blow 556
▁consulted 556
▁eigentlichen 556
▁overwhelming 556
▁whatsoever 556
Rechtsvorschrift 555
bestände 555
gehalten 555
kurs 555
stätigkeit 555
▁Arbeitsweise 555
▁Einmischung 555
▁Lärm 555
▁Merkmale 555
▁Verzögerungen 555
▁borrowing 555
▁ceiling 555
▁ersuchen 555
▁liberalization 555
▁refusal 555
▁unklar 555
▁älteren 555
händler 554
leiten 554
part 554
sabkommens 554
▁Christen 554
▁Finanzsystem 554
▁Sozialisten 554
▁Transfer 554
▁adhere 554
▁easing 554
▁monitored 554
▁serves 554
▁überleben 554
leitung 553
▁Mao 553
▁Statut 553
▁Vitorino 553
▁Would 553
▁card 553
▁organic 553
▁respecting 553
ließ 552
ock 552
verwaltung 552
í 552
▁Ch 552
▁Todesfälle 552
▁`` 552
▁besseres 552
▁congratulating 552
▁dauerhaften 552
▁unten 552
▁versteht 552
▁wiederhole 552
ash 551
ati 551
essen 551
leid 551
tragen 551
▁Hass 551
▁Mord 551
▁Rubrik 551
▁Vereinigung 551
▁Zusagen 551
▁democratically 551
▁steel 551
▁vorzuschlagen 551
Strafgerichtshof 550
Ungleichgewichte 550
lav 550
ox 550
projekte 550
regelungen 550
vin 550
▁Could 550
▁Nachteile 550
▁Wunder 550
▁Ziels 550
▁electorate 550
▁gases 550
▁minor 550
▁wirkt 550
▁Ä 550
PA 549
back 549
frei 549
rig 549
sbürgerschaft 549
streit 549
▁City 549
▁Each 549
▁QE 549
▁Qualitäts 549
▁Reden 549
▁Republikaner 549
▁Youth 549
▁bankers 549
▁devoted 549
▁errichtet 549
▁fashion 549
▁kostet 549
▁mandatory 549
▁mangelt 549
▁perfekt 549
▁pose 549
▁stützt 549
Haushaltsdefizit 548
▁Bundes 548
▁Instrumenten 548
▁Ungleichheiten 548
▁advocates 548
▁embrace 548
▁geeinigt 548
▁geistige 548
▁judges 548
▁komplexe 548
▁lebenslange 548
▁perception 548
▁solar 548
▁tremendous 548
▁vertrauen 548
füll 547
wind 547
▁Hence 547
▁fix 547
▁gewachsen 547
▁invited 547
▁islands 547
▁relationships 547
beihilfen 546
finanz 546
sdienste 546
stück 546
▁Diejenigen 546
▁Integrität 546
▁Unserer 546
▁Vermögens 546
▁Viel 546
▁Wahlkreis 546
▁ausführlich 546
▁ausgeben 546
▁ends 546
▁erstellen 546
▁schätzen 546
▁socially 546
▁sums 546
▁title 546
▁zivile 546
ologie 545
spezifische 545
ucht 545
▁Bord 545
▁Online 545
▁adequately 545
▁diplomatische 545
▁displaced 545
▁epidemic 545
▁glücklich 545
▁nutzt 545
▁radio 545
▁wozu 545
▁communist 544
▁differently 544
▁endorsed 544
▁moves 544
ford 543
möglichkeiten 543
▁Aufschwung 543
▁Times 543
▁Völkermord 543
▁agieren 543
▁broken 543
▁geklärt 543
▁normale 543
▁persuade 543
▁unvermeidlich 543
▁verursachten 543
RA 542
▁Anhang 542
▁Kongo 542
▁aktiven 542
▁beeinträchtigen 542
▁definitive 542
▁pain 542
▁passive 542
▁pragmatic 542
▁sincerely 542
▁unmittelbare 542
▁verfahren 542
▁widerspiegelt 542
berichterstatter 541
dor 541
schutzes 541
▁Allein 541
▁Beruf 541
▁MEDA 541
▁Rechtssystem 541
▁Solidarity 541
▁beantragt 541
▁einzurichten 541
Y 540
ates 540
bestand 540
ecken 540
orientierte 540
ran 540
risiken 540
santräge 540
seite 540
▁Australia 540
▁Bestand 540
▁Bewirtschaftung 540
▁Kritiker 540
▁Sitzungen 540
▁strange 540
▁weaknesses 540
ala 539
can 539
carbon 539
▁Mi 539
▁Redezeit 539
▁Schließung 539
▁Ya 539
▁bekommt 539
▁fürchte 539
▁immunity 539
▁lehnen 539
▁liked 539
▁personnel 539
▁unanimity 539
ath 538
operation 538
richtung 538
▁Beförderung 538
▁Medizin 538
▁Vater 538
▁bigger 538
▁borrow 538
▁buying 538
▁exert 538
▁fehlen 538
▁geldpolitische 538
▁gesenkt 538
▁indicates 538
▁suddenly 538
▁veto 538
regulierung 537
▁Branchen 537
▁Chi 537
▁Gulf 537
▁Insgesamt 537
▁Luftverkehrs 537
▁Version 537
▁Zeitalter 537
▁abgeschafft 537
▁anfällig 537
▁arabische 537
▁envisaged 537
▁ergänzt 537
▁irgendwelche 537
▁meets 537
▁momentum 537
▁pursuit 537
▁sympathy 537
▁ökonomischen 537
rufen 536
п 536
▁Neither 536
▁anhaltenden 536
▁cease 536
▁concessions 536
▁entail 536
▁flexibler 536
▁geschrieben 536
▁initiated 536
▁producer 536
EG 535
ban 535
gebracht 535
iterentwicklung 535
liegen 535
senkung 535
wende 535
▁Befreiung 535
▁Einzelheiten 535
▁Stellungnahmen 535
▁abzulehnen 535
▁adaptation 535
▁assessing 535
▁assumed 535
▁fifteen 535
▁gewünscht 535
▁grüne 535
▁simplify 535
▁ultra 535
▁uncertain 535
pass 534
staatliche 534
▁Abschluß 534
▁Gerichte 534
▁Konzerne 534
▁bestraft 534
▁concentrated 534
▁distinguish 534
▁genehmigt 534
▁limiting 534
▁seat 534
▁Franzosen 533
▁Gelegenheiten 533
▁Traum 533
▁befürchten 533
▁fließen 533
▁gefährlicher 533
▁medicine 533
▁nationalist 533
▁polnischen 533
▁privacy 533
▁straight 533
▁verliehen 533
▁voneinander 533
▁wenigstens 533
AC 532
lle 532
▁Foundation 532
▁Gesicht 532
▁Schlußfolgerung 532
▁Sk 532
▁Special 532
▁Vorsicht 532
▁Wahrnehmung 532
▁breach 532
▁dahingehend 532
▁erzeugen 532
▁expert 532
▁nuklearen 532
▁scheinbar 532
ami 531
pflicht 531
ttel 531
übergreifende 531
▁Birma 531
▁Fünf 531
▁Rechtsstaat 531
▁Skandal 531
▁Sozialpartner 531
▁Ti 531
▁arrangement 531
▁attempting 531
▁bereitzustellen 531
▁channel 531
▁channels 531
▁entrepreneurs 531
▁lend 531
▁recover 531
▁vereinbar 531
▁werfen 531
▁zwingend 531
blut 530
bürger 530
lager 530
▁Air 530
▁Projekts 530
▁closing 530
▁fifth 530
▁kompliziert 530
▁kritisieren 530
▁makroökonomisch 530
▁messen 530
▁platform 530
▁pretext 530
▁präsentiert 530
▁reputation 530
▁responded 530
▁stecken 530
▁undermined 530
isierten 529
organ 529
▁Jugendliche 529
▁Vermeidung 529
▁Wallström 529
▁assured 529
▁aufweisen 529
▁desired 529
▁exclusive 529
▁meint 529
▁schaden 529
▁toxic 529
▁vi 529
fest 528
produkt 528
▁Büro 528
▁Kindes 528
▁Wor 528
▁beachten 528
▁enforce 528
▁input 528
▁koordinieren 528
▁obstacle 528
▁purchase 528
▁registration 528
▁Ökonomie 528
Industriepolitik 527
▁EMU 527
▁God 527
▁Juncker 527
▁Mütter 527
▁Shi 527
▁activists 527
▁ausmachen 527
▁emergenc 527
▁formula 527
▁mine 527
▁persistent 527
▁terroristische 527
▁weitem 527
▁Ängste 527
placing 526
ziele 526
к 526
▁Arbeitsprogramm 526
▁Erkenntnis 526
▁Gegenwärtig 526
▁Ku 526
▁Marine 526
▁Montag 526
▁Sozialmodell 526
▁arrested 526
▁declining 526
▁durchgeführten 526
▁erläutert 526
▁findings 526
▁safeguards 526
▁textile 526
▁vague 526
NA 525
cal 525
laden 525
leistung 525
schulden 525
srunde 525
▁Frei 525
▁Niedergang 525
▁Zivilisten 525
▁announcement 525
▁aufhören 525
▁convey 525
▁uphold 525
▁Einwände 524
▁Enttäuschung 524
▁Ereignis 524
▁Kriege 524
▁Luftraum 524
▁Staatsschulden 524
▁Vermögen 524
▁angemessener 524
▁belgischen 524
▁ermutigt 524
▁film 524
▁humans 524
▁klares 524
▁schwachen 524
▁unterstrichen 524
freiheit 523
rod 523
selbe 523
sphase 523
▁Finance 523
▁Linke 523
▁alike 523
▁einräumen 523
▁erhielt 523
▁fünfzehn 523
▁measured 523
▁ökonomische 523
derherzustellen 522
gan 522
medi 522
ministerium 522
▁Change 522
▁Fundament 522
▁Governments 522
▁Ideal 522
▁Latvia 522
▁consequently 522
▁furthermore 522
▁globally 522
▁gründet 522
▁procedural 522
▁railways 522
▁removal 522
▁sees 522
▁storage 522
▁strikes 522
▁verschwinden 522
banken 521
hren 521
▁Evaluierung 521
▁abandoned 521
▁anywhere 521
▁aufgeführt 521
▁auto 521
▁exit 521
▁gerechte 521
▁junger 521
▁kurzen 521
▁praise 521
▁schließt 521
▁slowdown 521
▁vorübergehend 521
nutzung 520
schaften 520
schneiden 520
wendung 520
▁Besitzstand 520
▁Ereignissen 520
▁Mercosur 520
▁Verhaltenskodex 520
▁abgehalten 520
▁adding 520
▁automatically 520
▁confrontation 520
▁gets 520
▁gründen 520
▁journey 520
▁merit 520
▁vermittelt 520
▁vieles 520
▁workplace 520
artig 519
chle 519
▁Außenhandel 519
▁Cohesion 519
▁Dienststellen 519
▁Mühe 519
▁Red 519
▁Streben 519
▁alarm 519
▁bekanntlich 519
▁borne 519
▁fiel 519
▁legacy 519
▁runs 519
▁schnellen 519
▁shock 519
▁vereinfachen 519
▁verteidigt 519
instrumente 518
rats 518
▁Vorbereitungen 518
▁demografische 518
▁describe 518
▁hinder 518
▁inequalities 518
▁interpret 518
▁investigations 518
▁kurzfristigen 518
▁listening 518
▁vary 518
legung 517
▁Akteuren 517
▁Elite 517
▁Großbritanniens 517
▁Westens 517
▁Zentral 517
▁fault 517
▁komplexen 517
▁liefert 517
▁practically 517
▁stehende 517
▁supplement 517
▁wahrnehmen 517
friendly 516
load 516
zone 516
м 516
▁Lande 516
▁Rom 516
▁Szenario 516
▁Trennung 516
▁Zahlungs 516
▁catastrophe 516
▁corporations 516
▁earthquake 516
▁empfohlen 516
▁gleicher 516
▁stammt 516
▁unannehmbar 516
fähigkeit 515
gezogen 515
sbestimmungen 515
schi 515
verteilung 515
▁Ganzes 515
▁Haushaltsmittel 515
▁Kor 515
▁Muslime 515
▁alarming 515
▁gebunden 515
▁getrennt 515
▁lebenden 515
▁prerequisite 515
▁verweigert 515
▁überarbeitet 515
▁übernimmt 515
law 514
▁Durchschnitt 514
▁economist 514
▁evaluate 514
▁innenpolitische 514
▁inquiry 514
▁marks 514
▁nukleare 514
▁preliminary 514
▁schwache 514
▁selling 514
▁shame 514
▁spürbar 514
orientierten 513
▁Basel 513
▁Dritten 513
▁Erdbeben 513
▁Haftung 513
▁argumentiert 513
▁berechtigt 513
▁beunruhigt 513
▁fires 513
▁ließen 513
▁tape 513
▁versetzt 513
ending 512
rechtlichen 512
▁Abu 512
▁Aufstockung 512
▁Code 512
▁Kein 512
▁Klaren 512
▁Muster 512
▁Objective 512
▁Watson 512
▁cat 512
▁facility 512
▁freilich 512
▁hinnehmen 512
▁kritischen 512
▁stoppen 512
▁survey 512
ira 511
pra 511
sgrundlage 511
▁Decision 511
▁OSZE 511
▁Wladimir 511
▁dual 511
▁entlassen 511
▁philosophy 511
▁ruled 511
▁territorialen 511
▁town 511
▁wahrgenommen 511
generation 510
nom 510
partei 510
vorschlag 510
zahlungen 510
▁Australien 510
▁Fristen 510
▁Lamy 510
▁Lehrer 510
▁Profit 510
▁Schlacht 510
▁dark 510
▁donor 510
▁einbringen 510
▁gesunden 510
▁hot 510
▁isolated 510
▁love 510
▁roots 510
▁securities 510
▁weaker 510
car 509
cer 509
einandersetzung 509
gh 509
ifikation 509
ose 509
pho 509
▁Sachen 509
▁Staatsangehörig 509
▁Staatsanleihen 509
▁abortion 509
▁cooperative 509
▁criterion 509
▁erreichten 509
▁hinausgehen 509
▁incident 509
▁indischen 509
▁strafrechtliche 509
Rat 508
kur 508
smechanismen 508
▁Anbau 508
▁Diesen 508
▁Sustainable 508
▁accountable 508
▁bases 508
▁composition 508
▁expanded 508
▁floods 508
▁moralischen 508
▁operative 508
▁optimistisch 508
▁vorgestellt 508
cho 507
▁Einigkeit 507
▁Friday 507
▁Frontex 507
▁Gleiche 507
▁Gremien 507
▁drittens 507
▁dänischen 507
▁explicit 507
▁master 507
▁publication 507
▁wirft 507
bur 506
owned 506
rücken 506
▁Erneuerung 506
▁Frühjahr 506
▁Gesetzgeber 506
▁SIS 506
▁beseitigt 506
▁billigen 506
▁blockiert 506
▁kleineren 506
▁vergleichen 506
▁widerspiegeln 506
dre 505
euer 505
nehmer 505
▁Bezeichnung 505
▁Ukrainian 505
▁Wählern 505
▁benutzen 505
▁enjoyed 505
▁erfasst 505
▁experiment 505
▁grand 505
▁outlined 505
▁propaganda 505
▁shipping 505
▁tariffs 505
▁twentieth 505
▁unmittelbaren 505
▁versch 505
▁vollen 505
bedingungen 504
fügen 504
führt 504
gegeben 504
▁Lehr 504
▁Lob 504
▁Super 504
▁Whether 504
▁formally 504
▁freight 504
▁infrastructures 504
▁klarstellen 504
▁presents 504
▁split 504
▁zeigte 504
▁Ära 504
Mittelmeer 503
reisen 503
sausgaben 503
▁Big 503
▁Cancún 503
▁Castro 503
▁Griff 503
▁Instanz 503
▁Kohlendioxid 503
▁Sam 503
▁anscheinend 503
▁calm 503
▁eco 503
▁einbeziehen 503
▁fortzusetzen 503
▁handling 503
▁newspaper 503
▁occupied 503
▁wisdom 503
▁ägyptische 503
feld 502
gemäß 502
ini 502
upp 502
▁Holz 502
▁Prize 502
▁Schwer 502
▁Völkern 502
▁dominated 502
▁motions 502
▁namentlich 502
▁systematically 502
▁versetzen 502
▁wenngleich 502
▁willkürlich 502
lock 501
schaftswahlen 501
seinrichtungen 501
▁Bedingung 501
▁Europarat 501
▁Moral 501
▁completion 501
▁governed 501
▁neighbourhood 501
▁rechtlich 501
▁tätigen 501
▁weapon 501
eres 500
lot 500
▁Fe 500
▁Haftbefehl 500
▁Toleranz 500
▁eingebunden 500
▁erwarte 500
▁gesunken 500
▁manifest 500
▁observations 500
▁rating 500
▁signals 500
COS 499
disproportionate 499
folge 499
institut 499
liberal 499
policy 499
sprech 499
wiesen 499
▁Islamische 499
▁Kohlenstoff 499
▁OSCE 499
▁Prozesse 499
▁Stein 499
▁einzigartige 499
▁engagieren 499
▁erschwert 499
▁faktisch 499
▁integrierte 499
▁irgendwann 499
▁originally 499
▁player 499
▁prohibit 499
▁unterscheidet 499
geld 498
kommission 498
landes 498
zuführen 498
▁Abfälle 498
▁Detail 498
▁Erreichen 498
▁Finanzrahmen 498
▁Gewissen 498
▁Göteborg 498
▁Hat 498
▁Posselt 498
▁Tierschutz 498
▁Zeitung 498
▁biologische 498
▁components 498
▁consistency 498
▁customers 498
▁gedenkt 498
▁harder 498
▁integrieren 498
▁multilaterale 498
▁recorded 498
▁strikt 498
▁whenever 498
glücklicherweise 497
gründe 497
sarbeit 497
tät 497
▁Anpassungen 497
▁Bay 497
▁Gremium 497
▁Impulse 497
▁Nachteil 497
▁controlling 497
▁coverage 497
▁earn 497
▁earth 497
▁fatal 497
▁festhalten 497
▁intense 497
▁medizinischen 497
▁organized 497
▁repair 497
▁verglichen 497
▁verwirklicht 497
▁vielfältige 497
anisch 496
rung 496
▁Freedom 496
▁Kyi 496
▁Vergabe 496
▁maintenance 496
▁stood 496
bereitschaft 495
prozess 495
▁Cambodia 495
▁Lin 495
▁Non 495
▁Nuclear 495
▁Peru 495
▁Regarding 495
▁anpassen 495
▁aspirations 495
▁grants 495
▁sale 495
▁verfasst 495
kehr 494
ley 494
setzt 494
spräsidenten 494
▁Kriterium 494
▁Massenver 494
▁Misstrauen 494
▁Zug 494
▁ausgeht 494
▁conscience 494
▁erstaunlich 494
▁memory 494
▁offener 494
▁teilzunehmen 494
▁voices 494
AT 493
IC 493
Meinungsfreiheit 493
Wachstum 493
equi 493
kräfte 493
▁Betreuung 493
▁Fischereisektor 493
▁Gender 493
▁Schluß 493
▁Tests 493
▁ausgewogene 493
▁books 493
▁safer 493
▁switch 493
▁vereinbarten 493
diskriminierung 492
▁Against 492
▁Bangladesh 492
▁Dossier 492
▁Jews 492
▁Pat 492
▁Perspektiven 492
▁Zielsetzung 492
▁adjustments 492
▁bekannten 492
▁ersucht 492
▁failures 492
▁flight 492
▁geltend 492
▁gesorgt 492
▁interference 492
▁seekers 492
▁unsustainable 492
▁vis 492
▁wall 492
basis 491
grund 491
matic 491
vollen 491
▁Congo 491
▁Energieträger 491
▁GMOs 491
▁Gespräch 491
▁Lo 491
▁Treasury 491
▁getreten 491
▁impressive 491
▁nowadays 491
▁systemic 491
▁Übersetzung 491
▁Überwindung 491
hafte 490
laying 490
pec 490
sorgniserregend 490
▁Eliten 490
▁Jan 490
▁Mag 490
▁UEN 490
▁Versagen 490
▁Verschmutzung 490
▁einziges 490
▁evil 490
▁greifen 490
▁qualifizierte 490
▁recommended 490
▁spüren 490
▁suspicion 490
▁transparente 490
▁wherever 490
bgesehen 489
haus 489
leg 489
mengen 489
typ 489
verbände 489
▁Countries 489
▁Mess 489
▁auslösen 489
▁barely 489
▁corresponding 489
▁erfreulich 489
▁ethnische 489
▁gewidmet 489
▁großzügig 489
▁km 489
▁sozusagen 489
▁übersehen 489
gier 488
ó 488
▁Che 488
▁Chemikalien 488
▁Inland 488
▁Nepal 488
▁Propaganda 488
▁Stagnation 488
▁afrikanische 488
▁bemerkenswerte 488
▁errors 488
▁investigate 488
▁owe 488
▁recognises 488
▁successor 488
▁zivilen 488
▁Übergangs 488
ante 487
istisch 487
unt 487
▁Bedauern 487
▁Black 487
▁Schwarz 487
▁begünstigt 487
▁benachteiligt 487
▁bid 487
▁bubble 487
▁evolution 487
▁forecast 487
▁para 487
▁pursuan 487
▁scene 487
▁trigger 487
xi 486
Ö 486
▁Monday 486
▁Please 486
▁Zwischenzeit 486
▁attitudes 486
▁biological 486
▁demonstrations 486
▁depth 486
▁ehrgeizige 486
▁examining 486
▁harsh 486
▁maßgeblich 486
▁shocks 486
▁speculation 486
▁strive 486
▁teachers 486
geschäft 485
sha 485
tätige 485
▁Fatah 485
▁Gedanke 485
▁Mächte 485
▁Spring 485
▁Sunni 485
▁Verweis 485
▁benchmark 485
▁diesmal 485
▁eliminating 485
▁entziehen 485
▁mixed 485
▁residents 485
▁responding 485
▁symbolic 485
Errungenschaften 484
kapazität 484
städte 484
wal 484
win 484
▁Labor 484
▁Säule 484
▁civilisation 484
▁coup 484
▁detaillierte 484
▁fan 484
pping 483
uelle 483
▁Chávez 483
▁Deregulierung 483
▁Euratom 483
▁Eurojust 483
▁Landwirten 483
▁Musharraf 483
▁Schröder 483
▁TV 483
▁Textes 483
▁clauses 483
▁enthusiasm 483
▁indispensable 483
▁infringement 483
▁lists 483
▁positives 483
▁repercussions 483
▁schwächen 483
verbrauch 482
▁Tre 482
▁Wünsche 482
▁Zone 482
▁embargo 482
▁emphasize 482
▁incidents 482
▁serbische 482
▁zunehmen 482
aktivitäten 481
ify 481
zeichen 481
▁Augenmerk 481
▁Bewohner 481
▁Binnen 481
▁Geiste 481
▁Könnte 481
▁League 481
▁Treibhausgas 481
▁Verlagerung 481
▁angefangen 481
▁angehört 481
▁aufgehoben 481
▁digitalen 481
▁flights 481
▁hundert 481
▁jahrelang 481
▁linguistic 481
▁realize 481
▁rid 481
▁tariff 481
▁understandable 481
▁ursprüngliche 481
machen 480
sausschuß 480
status 480
sziele 480
▁Briten 480
▁Deflation 480
▁Erstellung 480
▁Freitag 480
▁Good 480
▁Laden 480
▁Minute 480
▁Nordirland 480
▁Peter 480
▁cap 480
▁gefangen 480
▁judiciary 480
▁passing 480
▁station 480
▁technischer 480
▁transferred 480
▁transportation 480
▁wohlhabende 480
wick 479
Überschwemmungen 479
▁Arabische 479
▁Aufruf 479
▁Force 479
▁Guatemala 479
▁Hypotheken 479
▁Liquidität 479
▁Ten 479
▁anfangen 479
▁geschwächt 479
▁hinnehmbar 479
▁macro 479
▁transmission 479
▁üblichen 479
trittskandidaten 478
tze 478
▁Infrastrukturen 478
▁Verstoß 478
▁burdens 478
▁erneuerbarer 478
▁ernsten 478
▁flood 478
▁gelang 478
▁persecution 478
▁qua 478
▁seats 478
exporte 477
gewicht 477
plic 477
productive 477
style 477
zialversicherung 477
▁Handelsabkommen 477
▁Kraftfahrzeug 477
▁Reagan 477
▁Reserven 477
▁Zusammenhalts 477
▁articles 477
▁delegations 477
▁drought 477
▁gemeint 477
▁guilty 477
▁inspections 477
▁korrigieren 477
▁phrase 477
▁pillars 477
▁professionals 477
Wirtschaft 476
brüche 476
spir 476
standing 476
▁Interpretation 476
▁elites 476
▁ernsthaften 476
▁europaweit 476
▁gratuliere 476
▁größtmögliche 476
▁ihrerseits 476
hersteller 475
than 475
transport 475
▁Ambitionen 475
▁Beträge 475
▁Derartige 475
▁Ecofin 475
▁autumn 475
▁compensate 475
▁complexity 475
▁feasible 475
▁stattfand 475
▁streben 475
▁threatens 475
pfen 474
sie 474
trade 474
д 474
▁Bewegungen 474
▁Jedes 474
▁Kohäsionsfonds 474
▁Sand 474
▁Schiffs 474
▁assembly 474
▁bombing 474
▁enshrined 474
▁liquid 474
▁patents 474
▁securing 474
▁sooner 474
▁ungerecht 474
▁veranlassen 474
welt 473
▁Ansprüche 473
▁Fo 473
▁Fremd 473
▁Hisbollah 473
▁Jarzembowski 473
▁Kurdish 473
▁Natura 473
▁Stahl 473
▁Unrecht 473
▁abzugeben 473
▁aggregate 473
▁engen 473
▁hinreichend 473
▁insecurity 473
▁kostspielig 473
▁recital 473
▁scandal 473
▁zentraler 473
Administration 472
Investitionsbank 472
first 472
freundliche 472
▁Alt 472
▁Ankündigung 472
▁Erscheinung 472
▁Freilassung 472
▁Nordic 472
▁Trends 472
▁Zi 472
▁appalling 472
▁bereitstellen 472
▁cheaper 472
▁ehrgeizigen 472
▁fill 472
▁hide 472
▁logisch 472
▁militärischer 472
▁niedrigere 472
▁offset 472
▁owners 472
▁programming 472
Sicherheitsrates 471
licht 471
setzungen 471
zukommen 471
▁Aufenthalts 471
▁Bekenntnis 471
▁Kreditvergabe 471
▁Multi 471
▁Rechtsprechung 471
▁father 471
▁gaining 471
▁witnessed 471
Kopf 470
hold 470
schul 470
snormen 470
▁empty 470
▁fulfilled 470
▁industriellen 470
▁liberale 470
▁managers 470
▁sincere 470
▁tele 470
pend 469
planung 469
▁Ausschüssen 469
▁Einstimmigkeit 469
▁Jewish 469
▁Medikamenten 469
▁acute 469
▁convincing 469
▁gedrängt 469
▁gestrichen 469
▁mini 469
▁müßte 469
▁physische 469
▁polls 469
▁rarely 469
▁remark 469
▁steil 469
▁strengen 469
▁weather 469
amerikanische 468
ij 468
lag 468
▁Akzeptanz 468
▁Betreiber 468
▁Geschäfte 468
▁Kürzungen 468
▁Schüler 468
▁Through 468
▁availability 468
▁benefited 468
▁optimistic 468
▁sinken 468
▁stricter 468
▁venture 468
zusetzen 467
▁Anschein 467
▁Berater 467
▁Deutschen 467
▁Estland 467
▁Naturally 467
▁Privatsphäre 467
▁Protokolls 467
▁Weiterhin 467
▁bloß 467
▁career 467
▁consultations 467
▁display 467
▁doors 467
▁doppelt 467
▁eingetreten 467
▁finds 467
▁forderte 467
▁guard 467
▁gültig 467
▁indirect 467
▁invasion 467
▁label 467
▁multiple 467
▁nützliche 467
▁poses 467
▁pr 467
▁rechtmäßig 467
▁riesigen 467
▁ruin 467
▁schuldig 467
▁zurückkommen 467
Verschlechterung 466
cept 466
laufen 466
pläne 466
serklärung 466
sformen 466
▁DNA 466
▁Fehl 466
▁Media 466
▁Min 466
▁Three 466
▁appelliere 466
▁aufgezeigt 466
▁befreien 466
▁bewirkt 466
▁deregulation 466
▁komplett 466
▁lacks 466
▁marriage 466
▁removing 466
▁scheduled 466
▁solving 466
▁towns 466
▁typically 466
aktion 465
gesetzgebung 465
isierte 465
kra 465
nanspruchnahme 465
wirkung 465
▁Anklage 465
▁Besser 465
▁Ganzen 465
▁Germans 465
▁Konfrontation 465
▁Rhetorik 465
▁Straftaten 465
▁begrenzten 465
▁eigener 465
▁einzustellen 465
▁pointing 465
▁realities 465
▁schrecklichen 465
▁software 465
smethoden 464
wirken 464
überschuss 464
▁Bühne 464
▁Infektion 464
▁Nachfolger 464
▁Schi 464
▁abzuschließen 464
▁adapted 464
▁correspond 464
▁elect 464
▁endgültig 464
▁ensured 464
▁geachtet 464
▁gerufen 464
▁geschah 464
▁hofft 464
▁häufiger 464
▁kontinuierlich 464
▁konventionelle 464
▁monopolies 464
▁publish 464
▁voranzubringen 464
▁örtlichen 464
Recht 463
bor 463
kredite 463
▁Luftverkehr 463
▁Satelliten 463
▁Ursprungs 463
▁absorb 463
▁acquire 463
▁aufgeben 463
▁internationales 463
▁kollektive 463
▁quasi 463
▁successes 463
▁weakened 463
Prozess 462
tür 462
▁Alexander 462
▁Algeria 462
▁Gott 462
▁Holocaust 462
▁Kapazität 462
▁Unionsbürger 462
▁adjust 462
▁assessed 462
▁bedürfen 462
▁breakthrough 462
▁erreichte 462
▁focuses 462
▁inappropriate 462
▁preferred 462
▁prejudice 462
▁profitable 462
▁proliferation 462
▁rechts 462
▁verschlechtert 462
▁zugesagt 462
sverschuldung 461
tric 461
vert 461
▁Algerien 461
▁IS 461
▁Texte 461
▁Tor 461
▁Wechselkurse 461
▁bat 461
▁brand 461
▁lehnt 461
▁messages 461
▁motiviert 461
▁recycling 461
▁tendency 461
▁virus 461
▁vorangegangenen 461
▁zones 461
gebühren 460
smethode 460
▁Has 460
▁Klausel 460
▁Liberals 460
▁Maßstab 460
▁Mont 460
▁Verarbeitung 460
▁einstellen 460
▁nachkommen 460
blick 459
greif 459
prüfung 459
wege 459
▁Brennstoffe 459
▁Hague 459
▁Leiden 459
▁Moldau 459
▁Palästinensern 459
▁Pri 459
▁Prognosen 459
▁Sierra 459
▁breit 459
▁erfolgte 459
▁fanden 459
▁hindern 459
▁irrespective 459
▁klug 459
▁objections 459
▁stärkt 459
▁surge 459
▁überwältigende 459
▁Erhalt 458
▁Wortlaut 458
▁ansonsten 458
▁answered 458
▁begrüßenswert 458
▁betragen 458
▁koordiniert 458
▁officers 458
▁scheitern 458
▁shareholders 458
▁tonight 458
everal 457
ologisch 457
uring 457
waffen 457
▁Ausgewogenheit 457
▁Italiens 457
▁Kom 457
▁Suu 457
▁digitale 457
▁govern 457
▁harten 457
▁nachteilig 457
▁pattern 457
▁reminded 457
▁sacrifice 457
▁sparen 457
▁virtue 457
ians 456
tändig 456
▁Asylbewerber 456
▁Ethiopia 456
▁Fi 456
▁Geräte 456
▁Liikanen 456
▁Preisstabilität 456
▁Whilst 456
▁accord 456
▁bedaure 456
▁beweist 456
▁consists 456
▁gewahrt 456
▁officially 456
▁simultaneously 456
abschätzung 455
arischen 455
determining 455
ji 455
ola 455
spielen 455
sprache 455
Übereinkommen 455
▁CE 455
▁Große 455
▁Romanian 455
▁geschickt 455
▁kleinere 455
▁modernisation 455
▁psychological 455
▁übereinstimmen 455
Glücklicherweise 454
bb 454
bezogene 454
▁Beibehaltung 454
▁Bündnis 454
▁Federation 454
▁Fest 454
▁Finanzhilfe 454
▁Mitarbeitern 454
▁Olympic 454
▁Unlike 454
▁bürgerliche 454
▁disadvantaged 454
▁geeigneten 454
▁gezahlt 454
▁immerhin 454
▁legislativen 454
▁optimism 454
▁severely 454
▁solle 454
▁suspended 454
bruch 453
▁Catholic 453
▁Democrat 453
▁Feld 453
▁Inhalte 453
▁Plattform 453
▁Zusätzlich 453
▁agents 453
▁deciding 453
▁delicate 453
▁prosperous 453
▁translation 453
▁verwaltet 453
ED 452
Rahmenrichtlinie 452
discrimination 452
fle 452
stext 452
ül 452
ündig 452
▁Dritt 452
▁Föderation 452
▁Pla 452
▁Richard 452
▁Zeitungen 452
▁ansteigen 452
▁aufgegriffen 452
▁ausgedehnt 452
▁ausgehandelt 452
▁capitalist 452
▁male 452
▁selber 452
▁vorzubereiten 452
▁zunichte 452
▁zuständige 452
INI 451
af 451
gene 451
lik 451
stoffe 451
▁Next 451
▁acquired 451
▁pride 451
▁suspend 451
aga 450
bringt 450
▁Gleichberechtig 450
▁King 450
▁Sy 450
▁Umverteilung 450
▁affair 450
▁bekannte 450
▁gewaltigen 450
▁newspapers 450
▁trap 450
suing 449
tank 449
wachstum 449
▁Abschnitt 449
▁Beobachtung 449
▁Facebook 449
▁arises 449
▁attached 449
▁lawyers 449
▁purchases 449
▁ungarischen 449
▁zuverlässige 449
Mitgliedschaft 448
Palästinensische 448
fuel 448
makers 448
seiten 448
▁Asiens 448
▁Geltungsbereich 448
▁Industrial 448
▁Nichts 448
▁Ruhe 448
▁Spaltung 448
▁Stellenwert 448
▁attach 448
▁disregard 448
▁dringende 448
▁einheimische 448
▁einleiten 448
▁jüngere 448
▁komplizierte 448
▁risky 448
▁teilgenommen 448
▁umfassender 448
regen 447
▁Danke 447
▁Führungsrolle 447
▁Unruhen 447
▁addresses 447
▁bloc 447
▁boosting 447
▁chaos 447
▁dioxide 447
▁formulieren 447
▁irresponsible 447
▁jüngst 447
▁posts 447
▁überzeugend 447
Alba 446
ai 446
minded 446
ory 446
protokoll 446
teilen 446
▁Christians 446
▁Klage 446
▁Niederlage 446
▁Verschiebung 446
▁Wiederbelebung 446
▁assumption 446
▁mittelfristig 446
▁triumph 446
▁unweigerlich 446
tzen 445
ux 445
▁José 445
▁Oberste 445
▁accelerate 445
▁amerikanischer 445
▁assurance 445
▁ausgewogen 445
▁contributes 445
▁downturn 445
▁festgehalten 445
▁hopefully 445
▁künstliche 445
▁mountain 445
▁prevail 445
▁shortage 445
▁supposedly 445
büro 444
▁Afrikanische 444
▁Byrne 444
▁Letztere 444
▁Rang 444
▁Small 444
▁Substanzen 444
▁Vormittag 444
▁billiger 444
▁galt 444
▁industrielle 444
▁inspection 444
▁pakistanische 444
▁premature 444
▁radikale 444
▁reine 444
▁topics 444
▁trials 444
▁verschieben 444
▁vorgesehene 444
▁übermäßig 444
beauftragte 443
elekommunikation 443
hebung 443
mächte 443
schritt 443
▁College 443
▁Demonstranten 443
▁Eigentums 443
▁Extremisten 443
▁Schiffen 443
▁Weltmarkt 443
▁annehmbar 443
▁appellieren 443
▁breiter 443
▁reformieren 443
▁striking 443
▁thoroughly 443
): 442
II 442
nach 442
schiffe 442
schlüsse 442
▁Angehörigen 442
▁Bahn 442
▁Barón 442
▁Haben 442
▁aktiver 442
▁anmerken 442
▁contradiction 442
▁critics 442
▁dauerhaft 442
▁del 442
▁distress 442
▁margin 442
▁nachhaltiges 442
▁zugenommen 442
building 441
gegen 441
gemacht 441
▁Abrüstung 441
▁Eindämmung 441
▁Erziehung 441
▁Flughafen 441
▁Gewerkschaft 441
▁Modelle 441
▁affordable 441
▁attain 441
▁chose 441
▁ermutigend 441
▁kennt 441
▁markt 441
▁normally 441
▁struggling 441
▁translate 441
▁ungewöhnlich 441
▁vorsehen 441
bedarf 440
kampagne 440
konstitutionelle 440
ollbeschäftigung 440
schnellstmöglich 440
▁Caucasus 440
▁Feuer 440
▁MEP 440
▁Nicola 440
▁ablehnt 440
▁abzustimmen 440
▁arme 440
▁cautious 440
▁counterparts 440
▁frequent 440
▁isoliert 440
▁score 440
▁stetig 440
friedenstellend 439
ily 439
kompetenz 439
pert 439
▁Kurden 439
▁airport 439
▁delivery 439
▁distort 439
▁exceed 439
▁fat 439
▁interpreted 439
▁missions 439
▁orientation 439
▁prize 439
▁quantity 439
▁routes 439
Projekt 438
ih 438
▁Damals 438
▁Fusion 438
▁befindliche 438
▁concepts 438
▁discovered 438
▁handle 438
▁unified 438
bund 437
fällt 437
kampf 437
poli 437
pot 437
rechnung 437
situation 437
▁Ablauf 437
▁Bereits 437
▁Fahrzeug 437
▁Florenz 437
▁Hollande 437
▁Pflege 437
▁Wohn 437
▁condemnation 437
▁constituency 437
▁ernannt 437
▁herrschen 437
▁pensioners 437
▁rigorous 437
▁scharf 437
▁subjected 437
▁visas 437
▁vorbereiten 437
Ei 436
probleme 436
schiebe 436
sregeln 436
▁Belastungen 436
▁Beste 436
▁Europäern 436
▁Fuß 436
▁Gerichts 436
▁Olympische 436
▁Qua 436
▁Reding 436
▁Singapore 436
▁afghanische 436
▁exportieren 436
▁gelegen 436
▁outline 436
▁paragraphs 436
▁sections 436
▁setzte 436
▁shut 436
▁tackled 436
▁tight 436
▁units 436
▁vierte 436
▁zukünftig 436
chung 435
scher 435
schrift 435
sky 435
srichtlinie 435
▁Corbett 435
▁Kenya 435
▁Stil 435
▁Terroranschläge 435
▁Verfechter 435
▁Zugeständnisse 435
▁ageing 435
▁behave 435
▁belegt 435
▁ermitteln 435
▁feels 435
▁leg 435
▁panel 435
▁produces 435
▁surpluses 435
▁technisch 435
▁tension 435
▁warned 435
Entwicklungsziel 434
bewegungen 434
grenze 434
mütig 434
▁Alters 434
▁Ansatzes 434
▁Eigenkapital 434
▁Harbour 434
▁Islamist 434
▁Roth 434
▁Strafen 434
▁Umweltpolitik 434
▁anführen 434
▁beachtet 434
▁beizubehalten 434
▁consult 434
▁disabilities 434
▁enforced 434
▁formed 434
▁gefällt 434
▁massiv 434
▁möge 434
▁toll 434
▁weigert 434
ierenden 433
regierung 433
wasser 433
yard 433
ände 433
ärt 433
▁Getreide 433
▁Lebensbedingung 433
▁Meinungsv 433
▁Norway 433
▁Vermarktung 433
▁abschließen 433
▁ausgeweitet 433
▁consist 433
▁forth 433
▁getroffenen 433
▁käme 433
▁mortgage 433
▁polnische 433
▁references 433
▁simplified 433
▁smoking 433
▁stagnation 433
▁weibliche 433
ered 432
reformen 432
sergebnisse 432
well 432
▁Details 432
▁Lehne 432
▁Weiter 432
▁Weitere 432
▁abend 432
▁alleged 432
▁aufweist 432
▁besuchen 432
▁enemy 432
▁entails 432
▁gaps 432
▁heat 432
▁militant 432
▁norms 432
▁stellvertretend 432
▁street 432
point 431
west 431
▁Direktor 431
▁Umgebung 431
▁Zölle 431
▁besucht 431
▁characterised 431
▁grundsätzliche 431
▁letztes 431
▁mitgeteilt 431
▁solidarisch 431
▁tested 431
▁unite 431
▁vertiefen 431
▁worker 431
regelmäßigkeiten 430
union 430
▁Charles 430
▁Director 430
▁EEC 430
▁Einleitung 430
▁Erwägungen 430
▁Gast 430
▁Ms 430
▁Reichen 430
▁Rüstungs 430
▁Strafverfolgung 430
▁artificial 430
▁cold 430
▁compare 430
▁fern 430
▁hazardous 430
▁ineffective 430
▁lived 430
▁regiert 430
▁unlängst 430
▁verliert 430
vorhaben 429
▁Ausfuhr 429
▁Fast 429
▁Optimismus 429
▁Port 429
▁Schreyer 429
▁beneficiaries 429
▁detriment 429
▁disappointment 429
▁exposure 429
▁financially 429
▁gewinnt 429
▁rose 429
▁ukrainische 429
▁verhaftet 429
American 428
aki 428
bed 428
int 428
kredit 428
lesen 428
mail 428
ui 428
volle 428
▁Akteur 428
▁Erhebung 428
▁GMO 428
▁IV 428
▁Konsultationen 428
▁Nazis 428
▁Parallel 428
▁Radio 428
▁Raketen 428
▁Rechtfertigung 428
▁Weiterbildung 428
▁biologischen 428
▁collect 428
▁disparities 428
▁gelesen 428
▁halb 428
▁misleading 428
▁multiannual 428
▁protectionist 428
▁remedy 428
▁vereint 428
erhöhung 427
material 427
sprozeß 427
▁Drittländer 427
▁Durchbruch 427
▁Durchschnitts 427
▁Gehör 427
▁Kürzung 427
▁Schiff 427
▁Slowenien 427
▁ausfallen 427
▁bürokratische 427
▁cow 427
▁delivering 427
▁einzelner 427
▁exempt 427
▁inability 427
▁informellen 427
▁massacre 427
▁suicide 427
▁typisch 427
▁tödliche 427
▁versäumt 427
▁vorgeschrieben 427
▁überflüssig 427
▁überwunden 427
▁üblich 427
ama 426
ibility 426
ñ 426
▁Bestätigung 426
▁Fortschritts 426
▁Gegebenheiten 426
▁Kenntnisse 426
▁Kraftstoff 426
▁Mat 426
▁Menschenleben 426
▁Singapur 426
▁Supreme 426
▁Volksabstimmung 426
▁aufgerufen 426
▁continuation 426
▁disarmament 426
▁hospital 426
▁plenty 426
▁poll 426
▁sinkende 426
▁tschechische 426
leitet 425
nichtungswaffen 425
rechtliche 425
rich 425
werfen 425
zentrum 425
▁Abwertung 425
▁Arbeitskräften 425
▁Evans 425
▁Han 425
▁Leone 425
▁Nehmen 425
▁Slovenia 425
▁Wild 425
▁chronic 425
▁devote 425
▁erbracht 425
▁peak 425
▁strain 425
▁wonderful 425
▁zentral 425
AL 424
RC 424
fully 424
sicherung 424
ua 424
▁Auseinander 424
▁Datum 424
▁Grenzwerte 424
▁James 424
▁Streichung 424
▁Telefon 424
▁Visum 424
▁adult 424
▁destination 424
▁gutem 424
▁liberty 424
▁refrain 424
▁selection 424
▁sinnvolle 424
▁Islands 423
▁Pakistani 423
▁Stimmung 423
▁Thessaloniki 423
▁Zins 423
▁attempted 423
▁delayed 423
▁everyday 423
▁geboren 423
▁handelte 423
▁hört 423
▁remit 423
▁substitute 423
▁ungleich 423
▁veröffentlichen 423
▁violate 423
han 422
modell 422
monopol 422
rede 422
schläge 422
sex 422
squote 422
▁Brand 422
▁Kirche 422
▁Rohstoff 422
▁Signale 422
▁Vienna 422
▁Wertpapier 422
▁betrug 422
▁charged 422
▁competitors 422
▁einzuräumen 422
▁extremists 422
▁freier 422
▁geographische 422
▁preference 422
▁resultierende 422
▁roles 422
▁schützt 422
▁teaching 422
▁vorlegt 422
Parlamentswahlen 421
bringung 421
glied 421
pac 421
su 421
▁Belange 421
▁Darauf 421
▁Fischbestände 421
▁Funktionsweise 421
▁Klärung 421
▁Lettland 421
▁Sc 421
▁Spiele 421
▁Unfälle 421
▁Winter 421
▁aftermath 421
▁aufkommen 421
▁belastet 421
▁breast 421
▁foods 421
▁legitim 421
▁rechten 421
▁schwerwiegende 421
Saharan 420
bus 420
technik 420
▁Bruttoinlands 420
▁Delegationen 420
▁Einsparungen 420
▁Fortschritten 420
▁Handelspolitik 420
▁aufeinander 420
▁camp 420
▁criticise 420
▁drängt 420
▁echo 420
▁ermordet 420
▁institute 420
▁seinerzeit 420
▁settle 420
▁stating 420
▁städtischen 420
▁theoretisch 420
▁verlaufen 420
ute 419
▁Abschwung 419
▁Anbieter 419
▁Bernanke 419
▁Fragestunde 419
▁Gemeinsam 419
▁Hauptziel 419
▁Leuten 419
▁Norwegen 419
▁bestanden 419
▁deliberately 419
▁ethische 419
▁fürchten 419
▁vorgetragen 419
▁xenophobia 419
ebene 418
ranging 418
rik 418
szeit 418
▁Ganze 418
▁Gesamtheit 418
▁Umstand 418
▁Val 418
▁guidance 418
▁mobilisieren 418
▁offensive 418
▁turns 418
▁underway 418
▁vorrangige 418
Abstimmung 417
▁Bestreben 417
▁Crespo 417
▁Finanzmärkten 417
▁Handelspartner 417
▁Hauptstadt 417
▁Ihres 417
▁Pol 417
▁bezogen 417
▁dedicated 417
▁einschränken 417
▁engere 417
▁gekürzt 417
▁geöffnet 417
▁höherer 417
▁intensiver 417
▁registered 417
▁separation 417
▁stabilen 417
▁typical 417
▁verdanken 417
▁verlängert 417
▁volatility 417
▁wished 417
bald 416
dri 416
ille 416
marktes 416
meter 416
niveau 416
▁Center 416
▁Isolation 416
▁Kandidat 416
▁Komm 416
▁Rückführung 416
▁Sicherstellung 416
▁Software 416
▁Unless 416
▁Westeuropa 416
▁auszuweiten 416
▁bears 416
▁complied 416
▁erstes 416
▁explanations 416
▁footing 416
▁spreading 416
▁telephone 416
▁unglaublich 416
▁universelle 416
▁verabschiedeten 416
▁vorausgesetzt 416
▁wirkungsvoll 416
angriff 415
klausel 415
spartnerschaft 415
transfer 415
▁Bilder 415
▁Cohn 415
▁Feinde 415
▁Futtermittel 415
▁Gene 415
▁Mitgliedstaates 415
▁Pu 415
▁Ungleichgewicht 415
▁beunruhigend 415
▁birgt 415
▁cyber 415
▁east 415
▁engineering 415
▁exact 415
▁indirectly 415
▁instabil 415
▁petition 415
▁schädlich 415
▁vergangen 415
ausbildung 414
employed 414
missverständlich 414
preisen 414
sorganisation 414
▁Einerseits 414
▁Gesetzen 414
▁Hezbollah 414
▁None 414
▁Par 414
▁Ratspräsidentin 414
▁Rücken 414
▁Spektrum 414
▁Türen 414
▁Vorgaben 414
▁abhängt 414
▁aktuell 414
▁coordinating 414
▁deutlichen 414
▁einseitig 414
▁fühlt 414
▁geschenkt 414
▁livestock 414
▁preparatory 414
▁promotes 414
Vertrags 413
debate 413
gericht 413
▁Beschränkung 413
▁Entstehung 413
▁Rating 413
▁Timor 413
▁begriffen 413
▁caution 413
▁criticisms 413
▁decken 413
▁director 413
▁flexibel 413
▁hervorgerufen 413
▁indische 413
▁obliegt 413
▁osteuropäischen 413
▁portfolio 413
▁profile 413
▁stories 413
▁stoßen 413
▁stresses 413
▁urged 413
▁vaccination 413
▁verbreiten 413
▁vermehrt 413
▁vocational 413
▁weitergehen 413
▁zuzustimmen 413
periode 412
sucht 412
work 412
▁Besetzung 412
▁Dollars 412
▁Jong 412
▁Komplexität 412
▁Nationalstaaten 412
▁Quartal 412
▁altogether 412
▁assert 412
▁courageous 412
▁deutet 412
▁divisions 412
▁ease 412
▁feelings 412
▁forecasts 412
▁imstande 412
▁inhaftiert 412
▁lift 412
▁maybe 412
▁poorly 412
▁punish 412
▁restor 412
▁ring 412
▁subsidy 412
GA 411
drew 411
ieg 411
pin 411
vote 411
▁Aktivität 411
▁Block 411
▁Erzeugnissen 411
▁ausgehend 411
▁bot 411
▁bridge 411
▁challenging 411
▁chances 411
▁exploited 411
▁geehrter 411
▁invitation 411
▁motivated 411
▁pen 411
▁prosecution 411
▁versichert 411
rbeitslosenquote 410
▁Invasion 410
▁Mario 410
▁Ton 410
▁abstain 410
▁analysieren 410
▁formation 410
▁gene 410
▁persist 410
▁schauen 410
▁west 410
▁wünscht 410
Generaldirektion 409
Partei 409
kontrollen 409
ón 409
▁Rechtsakte 409
▁Typ 409
▁Whatever 409
▁bestrebt 409
▁cod 409
▁disruption 409
▁geltende 409
▁gesamt 409
▁indigenous 409
▁irrational 409
▁loan 409
▁purchasing 409
▁regain 409
gefahren 408
▁Abtreibung 408
▁Côte 408
▁Dürre 408
▁Greenspan 408
▁Jobs 408
▁Klimaschutz 408
▁Paragraph 408
▁Rande 408
▁Schweigen 408
▁Summen 408
▁Völkerrecht 408
▁Water 408
▁Wohlstands 408
▁Zusage 408
▁administrations 408
▁excessively 408
▁grew 408
▁handels 408
▁illegally 408
▁los 408
▁salaries 408
▁saved 408
▁starker 408
Initiativbericht 407
big 407
spotenzial 407
▁Andernfalls 407
▁Ausländer 407
▁Eingreifen 407
▁Jordanien 407
▁Kambodscha 407
▁Tibetan 407
▁Unterscheidung 407
▁Versuchung 407
▁bisweilen 407
▁deepening 407
▁demonstration 407
▁diesbezügliche 407
▁facilitating 407
▁lächerlich 407
▁neglect 407
▁outbreak 407
▁postpone 407
▁unangemessen 407
▁Überschuss 407
beschränkungen 406
rischen 406
sdebatte 406
steigen 406
▁Erasmus 406
▁Fourthly 406
▁Sir 406
▁Unglück 406
▁Wiederaufnahme 406
▁aufgegeben 406
▁belegen 406
▁classes 406
▁conceal 406
▁deadlines 406
▁erweist 406
▁flag 406
▁illusion 406
▁quantities 406
▁reicher 406
▁suspect 406
▁verb 406
▁vernachlässigt 406
▁weakening 406
fluss 405
freie 405
szeitraum 405
▁Anschläge 405
▁Geldwäsche 405
▁Kampfes 405
▁Leit 405
▁Republicans 405
▁Vizepräsidentin 405
▁await 405
▁domain 405
▁founding 405
▁gefolgt 405
▁grasp 405
▁loyal 405
▁politician 405
▁positiver 405
▁profession 405
▁rot 405
▁walk 405
▁wholeheartedly 405
klima 404
maschine 404
sgruppe 404
▁Biotechnologie 404
▁Cuban 404
▁Fremdenfeind 404
▁Klasse 404
▁Mandelson 404
▁Massaker 404
▁Monats 404
▁Pressefreiheit 404
▁Staatsanwalt 404
▁Zufall 404
▁abolished 404
▁dramatischen 404
▁exemption 404
▁extremen 404
▁initiate 404
▁meist 404
▁preserving 404
▁risen 404
▁topical 404
▁transposition 404
▁wealthy 404
▁widersprüchlich 404
bleiben 403
cla 403
geräte 403
ifying 403
▁Anmerkung 403
▁Deal 403
▁Höhepunkt 403
▁Komitologie 403
▁Ozean 403
▁Vertiefung 403
▁biofuels 403
▁capture 403
▁cell 403
▁crowd 403
▁encourages 403
▁expenses 403
▁injustice 403
▁integrating 403
▁mainstream 403
▁unternimmt 403
▁verzweifelt 403
mmt 402
vig 402
wunder 402
zuziehen 402
▁Analysen 402
▁Auffassungen 402
▁Diagnose 402
▁Einfluß 402
▁Konzepte 402
▁Küste 402
▁Pension 402
▁Round 402
▁Schande 402
▁Stehende 402
▁Stich 402
▁begins 402
▁bisschen 402
▁blockieren 402
▁echter 402
▁effizienten 402
▁prinzipiell 402
▁raschen 402
▁reconcile 402
▁tiefgreifende 402
▁unclear 402
▁würdigen 402
▁zuversichtlich 402
▁Ökonomien 402
ausstattung 401
fache 401
schaftlicher 401
spläne 401
uten 401
verhalten 401
vorschläge 401
▁Bla 401
▁Einen 401
▁Einreise 401
▁Eu 401
▁Senator 401
▁Verwirrung 401
▁Vorsorgeprinzip 401
▁beispiellose 401
▁chemische 401
▁comitology 401
▁curb 401
▁eat 401
▁partial 401
▁pragmatische 401
▁qualitative 401
▁tragischen 401
▁trug 401
▁unterstützte 401
▁verdeutlicht 401
▁verwandeln 401
▁worauf 401
Beitritt 400
sitzung 400
zz 400
▁Cashman 400
▁Certainly 400
▁Einhalt 400
▁Freedoms 400
▁bemerkenswert 400
▁beruhende 400
▁dear 400
▁desperate 400
▁harmonise 400
▁nachzukommen 400
▁unterhalten 400
▁vierten 400
karte 399
lern 399
seits 399
utz 399
zuhalten 399
▁Eröffnung 399
▁Gouverneur 399
▁Haft 399
▁Hochschul 399
▁Sprach 399
▁Straßenverkehr 399
▁Wandels 399
▁Willens 399
▁Yemen 399
▁abzubauen 399
▁distortions 399
▁illegaler 399
▁located 399
▁mothers 399
▁returning 399
▁schrieb 399
▁täglichen 399
▁withdrawn 399
antwortlichkeit 398
▁Ansehen 398
▁Area 398
▁Dilemma 398
▁Ferrero 398
▁Machthaber 398
▁Renminbi 398
▁Ungerechtigkeit 398
▁Wider 398
▁ally 398
▁anzubieten 398
▁bemerkt 398
▁charter 398
▁circle 398
▁deemed 398
▁democratisation 398
▁erhöhte 398
▁freiwillige 398
▁pull 398
▁reviewed 398
▁schicken 398
▁spectrum 398
▁travelling 398
Bendit 397
Mittel 397
chef 397
depth 397
eitdem 397
uz 397
▁Darau 397
▁Demonstrationen 397
▁Ermittlung 397
▁Kategorien 397
▁Kofi 397
▁Obst 397
▁Pfund 397
▁Southern 397
▁Stillstand 397
▁Thomas 397
▁abzuschaffen 397
▁größeres 397
▁jüdische 397
▁preferences 397
▁sentiment 397
▁sinnlos 397
▁slaughter 397
▁streichen 397
▁techniques 397
▁unterstützten 397
▁veränderte 397
being 396
determination 396
geschoben 396
jahre 396
▁Behauptungen 396
▁Feind 396
▁Haag 396
▁Harvard 396
▁Miß 396
▁Oslo 396
▁Que 396
▁Sturz 396
▁Thanks 396
▁blocked 396
▁cure 396
▁depending 396
▁erworben 396
▁existed 396
▁postponed 396
▁protein 396
▁rent 396
▁tausend 396
▁unterzeichnen 396
bereichen 395
board 395
dauer 395
feuer 395
hang 395
ivity 395
linien 395
mitten 395
stab 395
▁Anhebung 395
▁Inzwischen 395
▁Mitgefühl 395
▁Rahmenbeschluss 395
▁Uran 395
▁affirm 395
▁auszugleichen 395
▁convert 395
▁irregularities 395
▁machten 395
▁missed 395
▁site 395
▁vorantreiben 395
▁vorgelegte 395
Aussprache 394
ata 394
atory 394
katastrophe 394
staatlichen 394
svertreter 394
▁Auflagen 394
▁Pan 394
▁Strafrecht 394
▁alive 394
▁automatic 394
▁bestmögliche 394
▁betrachte 394
▁claiming 394
▁criticised 394
▁identifying 394
▁radioaktive 394
▁reproductive 394
▁silent 394
▁terroristischen 394
▁verschoben 394
Claude 393
erschiedenheiten 393
illa 393
pek 393
reiche 393
▁Aussprachen 393
▁Department 393
▁Eigenmittel 393
▁Flächen 393
▁Konsequenz 393
▁Operationen 393
▁Philosophie 393
▁abhalten 393
▁angenommene 393
▁ausgewählt 393
▁bedeutender 393
▁boundaries 393
▁clarified 393
▁depression 393
▁disadvantage 393
▁festlegt 393
▁intent 393
▁konstruktiv 393
▁polizeiliche 393
▁pool 393
▁portugiesische 393
bezogenen 392
low 392
▁Betrachtung 392
▁Gil 392
▁Mel 392
▁Ros 392
▁andauernde 392
▁aufhalten 392
▁communicate 392
▁hatred 392
▁mutually 392
▁reluctant 392
▁restriktive 392
▁witness 392
Institutionen 391
artikel 391
aspekt 391
itter 391
thirds 391
▁Berufung 391
▁Kreis 391
▁PHARE 391
▁Rinder 391
▁Wurzeln 391
▁belasten 391
▁beträchtlich 391
▁crash 391
▁disappointing 391
▁drinking 391
▁entscheidet 391
▁hoping 391
▁inspired 391
▁knowing 391
▁ordnungsgemäße 391
▁refusing 391
▁retail 391
▁rush 391
▁smooth 391
▁surface 391
▁tat 391
▁throw 391
▁violated 391
erzeugnisse 390
konflikt 390
wort 390
▁Apart 390
▁Ausgabe 390
▁Gute 390
▁Hoheitsgebiet 390
▁Lücke 390
▁Roman 390
▁Unfähigkeit 390
▁Vieh 390
▁Zugriff 390
▁beherrscht 390
▁deterioration 390
▁educated 390
▁eligible 390
▁empire 390
▁ereignet 390
▁festgeschrieben 390
▁handled 390
▁herstellen 390
▁importiert 390
▁pluralism 390
▁ratifizieren 390
▁strategischer 390
▁untereinander 390
dom 389
personal 389
sprogrammen 389
srechte 389
sverhältnisse 389
verg 389
volumen 389
▁Begriffe 389
▁Gi 389
▁Perspective 389
▁Schl 389
▁Sparmaßnahmen 389
▁Votum 389
▁absent 389
▁beurteilt 389
▁confine 389
▁dramatische 389
▁äußerte 389
einnahmen 388
gewinne 388
pped 388
trieb 388
yl 388
▁Besonderheiten 388
▁Bin 388
▁Lama 388
▁Reg 388
▁aufzugeben 388
▁banning 388
▁confronted 388
▁draftsman 388
▁extremism 388
▁gesundheits 388
▁komplizierten 388
▁moratorium 388
▁nationalistisch 388
▁panic 388
▁späten 388
▁unterdrückt 388
▁website 388
▁zitiere 388
▁überschritten 388
AD 387
Haushaltspolitik 387
PP 387
Regime 387
SL 387
interest 387
mas 387
sighted 387
take 387
▁Alltag 387
▁Erträge 387
▁Fontaine 387
▁Gewässern 387
▁Gib 387
▁Mac 387
▁Ober 387
▁Verhütung 387
▁auszuarbeiten 387
▁competing 387
▁database 387
▁decrease 387
▁demonstrating 387
▁herausgestellt 387
▁irrelevant 387
▁planen 387
▁reforming 387
Beschlussfassung 386
Herangehensweise 386
aktionen 386
block 386
freien 386
thema 386
▁Aufstellung 386
▁Gazprom 386
▁Inflationsrate 386
▁McCreevy 386
▁Resultat 386
▁Stiftung 386
▁Ur 386
▁attraktiv 386
▁autonomous 386
▁bemerken 386
▁contradict 386
▁enhancing 386
▁novel 386
▁trip 386
▁verbundene 386
▁widersprechen 386
flu 385
ident 385
private 385
ware 385
▁BER 385
▁Conservative 385
▁Delors 385
▁Eigentumsrechte 385
▁Franco 385
▁Krankenhäuser 385
▁Letzte 385
▁Unabhängig 385
▁classification 385
▁demnächst 385
▁grip 385
▁rape 385
▁zurückgegangen 385
Waldner 384
ild 384
krisen 384
motiv 384
regional 384
tektionistische 384
unverantwortlich 384
▁Antibiotika 384
▁Ausbreitung 384
▁Auswirkung 384
▁Böge 384
▁Flucht 384
▁Golf 384
▁Karl 384
▁Liberties 384
▁Qualifikationen 384
▁Us 384
▁advocated 384
▁anerkennt 384
▁belaufen 384
▁communism 384
▁distinct 384
▁estimate 384
▁hospitals 384
▁prohibition 384
▁rücken 384
▁unschuldige 384
▁veränderten 384
▁zahlreicher 384
abel 383
basierte 383
einkommens 383
erie 383
gab 383
nvorschlag 383
produkten 383
▁Einbindung 383
▁Hans 383
▁Iceland 383
▁Mobilisierung 383
▁Pass 383
▁Rechnungshofs 383
▁Serbian 383
▁Troika 383
▁Tuberkulose 383
▁Unterdessen 383
▁akzeptable 383
▁applaud 383
▁bankruptcy 383
▁einschlägigen 383
▁elf 383
▁enemies 383
▁hervorzuheben 383
▁interfere 383
▁kommerziellen 383
▁kontraproduktiv 383
▁offences 383
▁sick 383
▁sudden 383
▁suppliers 383
▁vaccines 383
▁verbindlich 383
▁Übel 383
Gruppe 382
OR 382
bereiche 382
betrieb 382
era 382
muster 382
phase 382
quelle 382
regeln 382
reserven 382
▁Furcht 382
▁Lange 382
▁Nahost 382
▁Orten 382
▁Pacific 382
▁Weltbevölkerung 382
▁broadcast 382
▁description 382
▁proactive 382
▁schreiben 382
▁swift 382
▁territoriale 382
▁verbesserten 382
▁zuteil 382
Kommission 381
verlust 381
▁Erste 381
▁Euroraum 381
▁Geheim 381
▁Mari 381
▁PRINCE 381
▁Vernunft 381
▁begehen 381
▁crop 381
▁distant 381
▁engine 381
▁gemäßigte 381
▁geringeren 381
▁inspectors 381
▁mess 381
▁objektiv 381
▁renewal 381
▁voraussichtlich 381
▁vorteilhaft 381
CA 380
nahm 380
sinstrumente 380
sorgane 380
wissenschaften 380
š 380
я 380
▁Aktionäre 380
▁Fluggäste 380
▁Rücksicht 380
▁TACIS 380
▁aiming 380
▁befreit 380
▁benachteiligten 380
▁foodstuffs 380
▁incapable 380
▁outlook 380
▁permits 380
▁versprechen 380
▁vertrete 380
Verordnung 379
band 379
ection 379
water 379
▁Heil 379
▁confined 379
▁hochwertige 379
▁positively 379
▁privatisation 379
▁realistische 379
▁restored 379
▁vorläufige 379
erzeuger 378
erzeugung 378
haften 378
ieb 378
reden 378
▁Blockade 378
▁Maschinen 378
▁Rehn 378
▁Up 378
▁Verfügbarkeit 378
▁Welle 378
▁ausschließen 378
▁breaking 378
▁confirms 378
▁intelligente 378
▁kostengünstig 378
▁mines 378
▁patterns 378
▁senden 378
▁sprachliche 378
▁syrischen 378
▁südlich 378
▁uranium 378
Runde 377
ax 377
bilanz 377
glichen 377
leh 377
party 377
zog 377
▁Bali 377
▁Don 377
▁Etappe 377
▁Science 377
▁Thatcher 377
▁attended 377
▁beobachtet 377
▁debattieren 377
▁dilemma 377
▁dominiert 377
▁eindringlich 377
▁erbringen 377
▁frustration 377
▁gerettet 377
▁houses 377
▁passport 377
▁premise 377
▁reactions 377
▁receives 377
▁rejecting 377
▁settled 377
▁settlements 377
▁stieg 377
▁zukommt 377
] 376
sklausel 376
table 376
third 376
wärts 376
zumachen 376
▁Aufwand 376
▁Balance 376
▁Modern 376
▁Rot 376
▁Trichet 376
▁alleine 376
▁authorised 376
▁belonging 376
▁definitions 376
▁downward 376
▁einhergehen 376
▁eliminated 376
▁geleistete 376
▁gestellten 376
▁gestützt 376
▁journalist 376
▁traditionell 376
▁verzeichnet 376
cle 375
lessness 375
team 375
version 375
▁Annex 375
▁Fahrer 375
▁Redebeitrag 375
▁Turn 375
▁Verantwort 375
▁admitted 375
▁aufgreifen 375
▁drohen 375
▁generating 375
▁gestrige 375
▁heikle 375
▁illness 375
▁spot 375
▁spur 375
▁strongest 375
▁tender 375
fahrer 374
linie 374
mitteln 374
parliamentarians 374
sfürsorge 374
sverträge 374
tick 374
östlichen 374
▁Berliner 374
▁Einsicht 374
▁Lobby 374
▁Trinkwasser 374
▁Uganda 374
▁Verdienst 374
▁anstehenden 374
▁beantragen 374
▁beziehe 374
▁continuous 374
▁earmarked 374
▁fulfilling 374
▁gratitude 374
▁ließe 374
▁renminbi 374
▁verschwunden 374
betriebe 373
genommen 373
körper 373
sstrategien 373
▁GM 373
▁Kilometer 373
▁Neues 373
▁Registrierung 373
▁angegangen 373
▁anzukurbeln 373
▁balances 373
▁gemeldet 373
▁nowhere 373
▁opposing 373
▁realised 373
▁regulating 373
▁reunification 373
▁unlautere 373
▁verlängern 373
▁versuchte 373
▁weekend 373
▁überholt 373
energie 372
gehalt 372
strich 372
▁Aufteilung 372
▁Austritt 372
▁Friedman 372
▁Madeira 372
▁Michael 372
▁Rekord 372
▁continuity 372
▁ehe 372
▁eindeutigen 372
▁gewalttätige 372
▁maximal 372
▁sprachen 372
▁store 372
Diversifizierung 371
NE 371
Waffenstillstand 371
azi 371
institutionelle 371
läufe 371
nachfrage 371
nik 371
sbekämpfung 371
strahl 371
▁Begeisterung 371
▁Ghana 371
▁Mandats 371
▁Millenniums 371
▁Mittlere 371
▁Reisen 371
▁Sicher 371
▁Werbe 371
▁Work 371
▁concluding 371
▁erregend 371
▁ethischen 371
▁höchster 371
▁substantive 371
▁teams 371
▁tolerate 371
▁verlässliche 371
bewusstsein 370
gate 370
regime 370
sermächtigungen 370
у 370
▁Davon 370
▁Extrem 370
▁Kernkraftwerke 370
▁Kofinanzierung 370
▁Lehman 370
▁Mad 370
▁Valencia 370
▁besetzt 370
▁elimination 370
▁hostage 370
▁overlook 370
▁produktive 370
▁suspension 370
▁unterworfen 370
▁zugewiesen 370
Plan 369
alisierung 369
sbehörde 369
schieden 369
▁Amerikanern 369
▁Bomben 369
▁Hin 369
▁Lord 369
▁Nielson 369
▁Schaf 369
▁Schwerpunkte 369
▁Senate 369
▁Sicherlich 369
▁TEN 369
▁capacities 369
▁complain 369
▁einseitige 369
▁energies 369
▁envisage 369
▁prosecutor 369
▁wood 369
Mail 368
behandlung 368
flug 368
kriterien 368
lib 368
▁Eingliederung 368
▁Gefolge 368
▁Systemen 368
▁Wechsel 368
▁anstelle 368
▁consolidated 368
▁contest 368
▁erschweren 368
▁execution 368
▁feste 368
▁hieß 368
▁irgendwie 368
▁mortality 368
▁pricing 368
▁somehow 368
Assad 367
geführt 367
isi 367
sregierung 367
zeichnen 367
▁Adam 367
▁Bad 367
▁Dienstes 367
▁Empfänger 367
▁GASP 367
▁Impuls 367
▁Künstler 367
▁anger 367
▁auszubauen 367
▁dorthin 367
▁excellence 367
▁genügt 367
▁juristische 367
▁kreative 367
▁laundering 367
▁leichte 367
▁nationality 367
▁prisons 367
▁reconsider 367
▁transformed 367
▁unknown 367
▁update 367
▁zwingt 367
SP 366
crisis 366
known 366
menge 366
see 366
sein 366
▁Auslieferung 366
▁Gazastreifen 366
▁Gegenzug 366
▁ILO 366
▁Monitoring 366
▁Soft 366
▁annimmt 366
▁entstehende 366
▁hidden 366
▁hom 366
▁praktiziert 366
▁relocation 366
opfer 365
stor 365
vertreter 365
▁Ausrüstung 365
▁Auswärtige 365
▁Passagiere 365
▁Verlierer 365
▁Vollendung 365
▁Voraus 365
▁belongs 365
▁dates 365
▁explains 365
▁gerechten 365
▁individuellen 365
▁limitations 365
▁neigen 365
▁theme 365
▁vereinbaren 365
vertrag 364
▁Beschleunigung 364
▁Jahrzehnts 364
▁Kämpfe 364
▁Lebenserwartung 364
▁Liberia 364
▁Register 364
▁Verdacht 364
▁Weigerung 364
▁analyse 364
▁denkbar 364
▁humane 364
▁papers 364
▁reassure 364
▁thoughts 364
Autonomiebehörde 363
aushaltsdefizite 363
ball 363
führen 363
gegriffen 363
ret 363
santrags 363
stitut 363
▁Arzneimitteln 363
▁Brown 363
▁Cox 363
▁Institut 363
▁Nachweis 363
▁Shia 363
▁Together 363
▁Versöhnung 363
▁Zweifellos 363
▁agreeing 363
▁analyses 363
▁arbitrary 363
▁ausgeprägt 363
▁complementary 363
▁frameworks 363
▁geführten 363
▁herausstellen 363
▁insisted 363
▁mar 363
▁mehrerer 363
▁optim 363
▁plain 363
▁qualifizierter 363
▁tourist 363
▁wanting 363
haushalt 362
liches 362
reißen 362
▁Korrektur 362
▁Oomen 362
▁Zigaretten 362
▁colonial 362
▁departure 362
▁erhielten 362
▁ideologische 362
▁irreführend 362
▁kapitalistische 362
▁radioactive 362
▁verlagert 362
▁zugeben 362
AM 361
europäische 361
misunderstanding 361
sgericht 361
▁Boom 361
▁Botschaften 361
▁Dam 361
▁Immer 361
▁Island 361
▁Life 361
▁Orbán 361
▁Peripherie 361
▁Vorfälle 361
▁Vorgänge 361
▁Weltgesundheits 361
▁assuming 361
▁aufgetreten 361
▁berufen 361
▁cattle 361
▁conjunction 361
▁connections 361
▁disability 361
▁guid 361
▁interessieren 361
▁jeopardise 361
▁korrupte 361
▁listed 361
▁peripheral 361
▁revolutionary 361
▁twelve 361
▁umzu 361
▁vorherigen 361
importe 360
mod 360
skrise 360
ssystemen 360
stift 360
▁Bel 360
▁Bevölkerungen 360
▁Englisch 360
▁Marktzugang 360
▁Pharma 360
▁Sach 360
▁ausgelegt 360
▁banana 360
▁bevorzugt 360
▁comparative 360
▁einmalige 360
▁emphasises 360
▁entfallen 360
▁gesammelt 360
▁gezielte 360
▁inherent 360
▁predicted 360
▁vorherrschende 360
▁whi 360
bestimmungen 359
made 359
mes 359
rel 359
sided 359
steigerung 359
▁Differenzen 359
▁Erwartung 359
▁Leiter 359
▁Quite 359
▁Recent 359
▁Westjordanland 359
▁allocate 359
▁dimensions 359
▁globalisierte 359
▁herausragende 359
▁indications 359
▁kommerzielle 359
▁langwierig 359
▁lauten 359
▁occurs 359
▁personenbezogen 359
▁proves 359
▁stellten 359
▁weise 359
entrepreneurship 358
kenntnis 358
nseits 358
schloss 358
▁Equality 358
▁Gegenden 358
▁LIFE 358
▁Process 358
▁Vorsitzes 358
▁audiovisual 358
▁ausmacht 358
▁doctrine 358
▁gründliche 358
▁hielten 358
▁insight 358
▁legitimen 358
▁medicin 358
▁mild 358
▁reformiert 358
▁secured 358
▁specified 358
drückt 357
east 357
ivität 357
krankheit 357
kunft 357
nnerhalb 357
sstrukturen 357
stan 357
▁Abstand 357
▁Basque 357
▁ECOFIN 357
▁Eigenschaft 357
▁Freunden 357
▁Glas 357
▁Globalisation 357
▁Haushaltslinie 357
▁Notenbanken 357
▁Verschärfung 357
▁Wann 357
▁encouragement 357
▁fairness 357
▁forestry 357
▁individuelle 357
▁overseas 357
▁periphery 357
▁reformed 357
▁schlimm 357
▁tone 357
ID 356
Region 356
assi 356
rische 356
▁Auslands 356
▁Beyond 356
▁Frühling 356
▁Grundzüge 356
▁Liga 356
▁Rebellen 356
▁Vertreterin 356
▁authors 356
▁brave 356
▁defended 356
▁deprived 356
▁dominate 356
▁eingestuft 356
▁eintritt 356
▁interaction 356
▁interview 356
▁konzipiert 356
▁legte 356
▁leid 356
▁reaffirm 356
▁seize 356
Zivilbevölkerung 355
burg 355
polar 355
programms 355
▁Essen 355
▁Währungspolitik 355
▁cornerstone 355
▁deployed 355
▁eingeschlagen 355
▁guided 355
▁ingredients 355
▁innovativen 355
▁irgendwo 355
▁kriminelle 355
▁reinforcing 355
▁steer 355
▁versagt 355
▁verweist 355
▁Überraschung 355
ada 354
apparat 354
stadt 354
▁Bücher 354
▁CFSP 354
▁Drogenhandel 354
▁Fahrplan 354
▁Freihandelszone 354
▁Jemen 354
▁Kennedy 354
▁Manchmal 354
▁Others 354
▁Personenverkehr 354
▁Präzedenzfall 354
▁argues 354
▁bedacht 354
▁cloning 354
▁erklärten 354
▁gebaut 354
▁imbalance 354
▁occurring 354
▁sozialistischen 354
▁vage 354
PR 353
schicht 353
treiben 353
▁Anyone 353
▁Etikettierung 353
▁Gaddafi 353
▁Gates 353
▁Hillary 353
▁blieben 353
▁complaint 353
▁contradictory 353
▁demzufolge 353
▁entdeckt 353
▁frankly 353
▁headed 353
▁mistaken 353
▁rulers 353
▁schlug 353
▁schreckliche 353
▁underpin 353
▁ungarische 353
▁veröffentlichte 353
▁vorankommen 353
fold 352
fro 352
ique 352
konzept 352
lässt 352
read 352
schnitt 352
▁Bankensystem 352
▁Christmas 352
▁Earth 352
▁Elend 352
▁Entfernung 352
▁Krediten 352
▁Mor 352
▁Russische 352
▁Seuche 352
▁Slovak 352
▁Sowjet 352
▁Wochenende 352
▁berührt 352
▁biotechnology 352
▁holiday 352
▁launching 352
▁längere 352
▁serving 352
▁untergräbt 352
▁unzählige 352
▁vice 352
Ruijten 351
gestalt 351
▁Articles 351
▁Auftreten 351
▁Bus 351
▁CEO 351
▁Dalai 351
▁Organismen 351
▁Schweine 351
▁Yu 351
▁alert 351
▁arguing 351
▁ausreicht 351
▁collected 351
▁discover 351
▁narrative 351
▁populism 351
▁steuerliche 351
▁tech 351
▁verstößt 351
▁window 351
genehmigung 350
house 350
park 350
reise 350
shi 350
spartei 350
sprozesse 350
▁Ermordung 350
▁Grundsatzes 350
▁Lomé 350
▁True 350
▁Wednesday 350
▁Wogau 350
▁alternativen 350
▁belgische 350
▁demonstrieren 350
▁deployment 350
▁detrimental 350
▁milit 350
▁multinationals 350
▁neuesten 350
▁presidents 350
▁replacing 350
▁temptation 350
▁unterbrochen 350
▁younger 350
▁äußere 350
Konferenz 349
bewusste 349
sammengearbeitet 349
stin 349
theit 349
▁Again 349
▁Aids 349
▁Erfordernisse 349
▁Job 349
▁Lizenz 349
▁Morillon 349
▁carriers 349
▁catastrophic 349
▁conditional 349
▁entschuldigen 349
▁erweiterte 349
▁fähig 349
▁hypocrisy 349
▁korrigiert 349
▁null 349
▁prevailing 349
▁reichende 349
▁stabilisieren 349
▁tuna 349
▁verabschiedete 349
▁verbleibenden 349
▁vertrieben 349
Programms 348
antwortungsvolle 348
felder 348
grab 348
lic 348
thy 348
▁Churchill 348
▁Entschuldigung 348
▁Glückwunsch 348
▁Substanz 348
▁attacked 348
▁devices 348
▁eingeladen 348
▁expressly 348
▁frühzeitig 348
▁geografischen 348
▁hervorgeht 348
▁hurt 348
▁jenes 348
▁nationales 348
▁restraint 348
▁square 348
▁stabilize 348
▁tiefen 348
▁unification 348
▁unterliegt 348
▁warnen 348
▁widerspricht 348
denken 347
hören 347
ifizierung 347
iving 347
kontroll 347
sbereiche 347
tory 347
zogen 347
änder 347
▁Gefährdung 347
▁Kreditgeber 347
▁Mittwoch 347
▁Relations 347
▁Steuerpolitik 347
▁Stra 347
▁Strafe 347
▁adults 347
▁ausgegangen 347
▁ausgenommen 347
▁begannen 347
▁besserer 347
▁disappeared 347
▁dying 347
▁eingebrachten 347
▁erlangt 347
▁gemein 347
▁hinterher 347
▁kenne 347
▁mining 347
▁rec 347
▁sends 347
▁similarly 347
▁triggered 347
▁undermines 347
▁vigilant 347
▁wholly 347
▁Äthiopien 347
Sicherheitsrat 346
arbeitslosigkeit 346
ette 346
fäll 346
gelassen 346
maßnahme 346
plätze 346
schiff 346
utet 346
° 346
▁Betonung 346
▁Ebola 346
▁Fukushima 346
▁Kernwaffen 346
▁Schulung 346
▁Stock 346
▁arch 346
▁bolster 346
▁erzielte 346
▁globales 346
▁incompatible 346
▁kurzer 346
▁loose 346
▁populistische 346
▁schwächer 346
▁sophisticated 346
▁soziales 346
▁starts 346
▁straightforward 346
▁stürzen 346
▁umwelt 346
▁user 346
▁vorgegeben 346
ithin 345
kam 345
looking 345
Ü 345
▁Ausdehnung 345
▁Disziplin 345
▁Erkrankungen 345
▁Ford 345
▁Lau 345
▁Marken 345
▁Mischung 345
▁Netzwerke 345
▁Rohstoffe 345
▁Rwanda 345
▁Sometimes 345
▁Stadium 345
▁Welthandel 345
▁accepts 345
▁enttäuschend 345
▁exakt 345
▁grass 345
▁gänzlich 345
▁iron 345
▁manipulation 345
▁pity 345
▁sensitivity 345
▁shifting 345
▁stabil 345
▁targeting 345
Pa 344
abgeordneten 344
aging 344
auch 344
suchen 344
tress 344
▁Gültigkeit 344
▁Nordafrika 344
▁Rücktritt 344
▁Working 344
▁derogation 344
▁explosive 344
▁gegenüberstehen 344
▁geheime 344
▁hoc 344
▁holdings 344
▁music 344
▁operates 344
▁recognising 344
▁somewhere 344
Außenbeziehungen 343
Haushaltsordnung 343
koll 343
vat 343
▁Darstellung 343
▁Extremismus 343
▁Norm 343
▁Regen 343
▁Universal 343
▁aggression 343
▁empfunden 343
▁explanatory 343
▁menschlicher 343
▁nineteenth 343
▁pesticides 343
▁präsentieren 343
▁recruit 343
▁speaks 343
▁student 343
▁verweigern 343
▁worthwhile 343
▁yields 343
▁zusätzlicher 343
RE 342
dar 342
hielt 342
lier 342
obachtungsstelle 342
è 342
▁App 342
▁Bos 342
▁Börsen 342
▁Glückwünsche 342
▁Hierzu 342
▁Name 342
▁Network 342
▁Q 342
▁Sen 342
▁collapsed 342
▁dreißig 342
▁eigen 342
▁erschüttert 342
▁gegebenen 342
▁gravierende 342
▁kämpft 342
▁preservation 342
▁replacement 342
▁turmoil 342
▁umfassendere 342
▁umfassendes 342
▁verwandelt 342
Aus 341
fund 341
fällen 341
vet 341
▁Brothers 341
▁Cyber 341
▁Etwa 341
▁Know 341
▁Kra 341
▁Straßenverkehrs 341
▁Transaktionen 341
▁Verhaltens 341
▁Zuverlässigkeit 341
▁approaching 341
▁bail 341
▁benefiting 341
▁bus 341
▁dynamism 341
▁freiwilligen 341
▁gesture 341
▁pretend 341
▁reiche 341
▁seas 341
▁seltsam 341
▁stone 341
▁trat 341
erfolg 340
gelder 340
höhe 340
idi 340
swerte 340
ы 340
▁Argumentation 340
▁Aufwertung 340
▁Aznar 340
▁Beschwerde 340
▁Demonstration 340
▁Gefühle 340
▁Gothenburg 340
▁Medina 340
▁Nahrungsmitteln 340
▁Open 340
▁Posten 340
▁Soweit 340
▁Tak 340
▁Verpackung 340
▁Yesterday 340
▁aufzustellen 340
▁beklagen 340
▁eingegangenen 340
▁eingenommen 340
▁hinterlassen 340
▁historisch 340
▁index 340
▁intra 340
▁kubanische 340
▁outright 340
▁traditionally 340
▁üben 340
Di 339
election 339
element 339
ever 339
lay 339
lust 339
station 339
ways 339
án 339
▁Alzheimer 339
▁Beschlüssen 339
▁Bewerberländer 339
▁Botschafter 339
▁Consensus 339
▁Datenbank 339
▁Gehälter 339
▁Kal 339
▁Los 339
▁Menschlichkeit 339
▁airline 339
▁bezeichnete 339
▁disorder 339
▁freiwillig 339
▁getrieben 339
▁glo 339
▁greift 339
▁konservativen 339
▁neighbour 339
▁vehement 339
▁wahrhaft 339
FC 338
Frank 338
abbau 338
fleisch 338
flüge 338
günstig 338
inflation 338
raub 338
sverlust 338
var 338
▁Ankara 338
▁Burundi 338
▁Directorate 338
▁Gestalt 338
▁Köpfe 338
▁Moratorium 338
▁Ortega 338
▁Positiv 338
▁Wachstumsrate 338
▁Wales 338
▁Wolf 338
▁chronische 338
▁juristischen 338
▁körperliche 338
▁missile 338
▁niemanden 338
▁rationale 338
▁relevance 338
▁suggesting 338
▁traurige 338
▁unstable 338
Protokoll 337
Raum 337
Verhandlungen 337
alismus 337
bal 337
ezüglich 337
konzerne 337
ology 337
▁Beantwortung 337
▁Grundprinzipien 337
▁Klarstellung 337
▁News 337
▁Ostens 337
▁Viktor 337
▁Voll 337
▁Vorsorge 337
▁anticipated 337
▁ausschlaggebend 337
▁awarded 337
▁deplore 337
▁dropped 337
▁erlitten 337
▁erneute 337
▁finnischen 337
▁gek 337
▁intolerable 337
▁judged 337
▁kommunistische 337
▁komplexer 337
▁merkwürdig 337
▁moderner 337
▁nächstes 337
▁prop 337
▁substanzielle 337
▁variable 337
▁verlagern 337
▁worüber 337
▁zitiert 337
HI 336
head 336
▁Formel 336
▁Gegenwart 336
▁Geisel 336
▁Genugtuung 336
▁Haushalten 336
▁Netanyahu 336
▁Schau 336
▁Schwangerschaft 336
▁Sozialfonds 336
▁ancient 336
▁crew 336
▁departments 336
▁dismantling 336
▁file 336
▁identification 336
▁innen 336
▁intellektuelle 336
▁konkurrieren 336
▁nachgewiesen 336
▁simplifying 336
Initiative 335
empt 335
far 335
integration 335
ritten 335
uous 335
▁Albanian 335
▁Auflösung 335
▁Ausweg 335
▁Back 335
▁Bildungssystem 335
▁Church 335
▁Diensten 335
▁Fokus 335
▁Klonen 335
▁Kolonial 335
▁Manager 335
▁Mulder 335
▁Qualifikation 335
▁Tarif 335
▁Vorbeugung 335
▁Zielvorgaben 335
▁Zuerst 335
▁bedrohen 335
▁begleiten 335
▁bombs 335
▁dictator 335
▁driver 335
▁enden 335
▁erachtet 335
▁golden 335
▁impunity 335
▁kollektiven 335
▁kombiniert 335
▁privileged 335
▁trained 335
▁umfangreichen 335
AP 334
nteressengruppen 334
sponsor 334
stätten 334
zeichnet 334
zo 334
▁Aktionsplans 334
▁Arbeitsmärkte 334
▁Bangladesch 334
▁Beschlusses 334
▁Environmental 334
▁Erd 334
▁Fluss 334
▁García 334
▁Geldes 334
▁Luftverschmutz 334
▁Mini 334
▁Neighbourhood 334
▁Park 334
▁Völkerrechts 334
▁align 334
▁andernfalls 334
▁beschäftigungs 334
▁box 334
▁circulation 334
▁foreigners 334
▁intensivieren 334
▁konservative 334
▁unabhängiger 334
▁understands 334
▁upper 334
▁verübt 334
Koordinator 333
SE 333
ansatz 333
frieden 333
orte 333
una 333
zentren 333
▁Azerbaijan 333
▁Erlass 333
▁Finanzinstitute 333
▁Flagge 333
▁Flugzeuge 333
▁Future 333
▁Kaliningrad 333
▁Maghreb 333
▁Pf 333
▁Repression 333
▁Steuersystem 333
▁bekundet 333
▁coordinator 333
▁crossing 333
▁epi 333
▁erschienen 333
▁generelle 333
▁identical 333
▁lifting 333
▁reasonably 333
▁storm 333
▁unbekannt 333
▁unresolved 333
▁unzureichende 333
▁Öko 333
ava 332
▁Angleichung 332
▁Aussetzung 332
▁Emissionshandel 332
▁Gemüse 332
▁Plenarsitzung 332
▁Seeverkehr 332
▁Streitigkeiten 332
▁ausreichenden 332
▁befaßt 332
▁deliberate 332
▁empfehle 332
▁flat 332
▁geplante 332
▁modernise 332
▁myth 332
▁müßten 332
▁privat 332
▁reflecting 332
▁select 332
▁systematische 332
▁tunnel 332
▁vonnöten 332
▁vorangetrieben 332
bricht 331
ches 331
hood 331
makroökonomische 331
start 331
tta 331
worthy 331
▁Atomenergie 331
▁Five 331
▁Gewässer 331
▁Glaubens 331
▁Gutes 331
▁Hätte 331
▁IND 331
▁Populismus 331
▁Schmerz 331
▁Sekretariat 331
▁ballot 331
▁carries 331
▁deploy 331
▁embark 331
▁gespalten 331
▁imperial 331
▁landscape 331
▁meal 331
▁nennt 331
▁participated 331
▁radikalen 331
▁retained 331
▁vaccine 331
▁wettbewerbs 331
▁zuzulassen 331
Energieverbrauch 330
don 330
tausend 330
useinandersetzen 330
▁Arctic 330
▁Concern 330
▁Equal 330
▁Freiwilligen 330
▁Händler 330
▁Klimaänderung 330
▁Kommentare 330
▁Schutzmaßnahmen 330
▁Vorfall 330
▁anspruchsvolle 330
▁bubbles 330
▁demokratisches 330
▁entlang 330
▁fiskalische 330
▁gathering 330
▁harmonisierte 330
▁machine 330
▁merits 330
▁nahmen 330
▁phenomena 330
▁tragische 330
▁unexpected 330
▁zufällig 330
DP 329
bewertung 329
script 329
▁Berechnung 329
▁Conciliation 329
▁Effekte 329
▁Einvernehmen 329
▁Elektro 329
▁Genauso 329
▁González 329
▁Klassen 329
▁Referenz 329
▁Sackgasse 329
▁analysiert 329
▁appreciated 329
▁celebrate 329
▁etablieren 329
▁explizit 329
▁fundamentalist 329
▁ignoring 329
▁noticed 329
▁packaging 329
▁regulieren 329
▁tap 329
▁verdeutlichen 329
▁zuweilen 329
Unternehmen 328
bedürftig 328
fähigen 328
oi 328
seitige 328
word 328
▁Abwesenheit 328
▁ETA 328
▁Flut 328
▁Kreuz 328
▁Lulling 328
▁Sozialistische 328
▁Täter 328
▁Züge 328
▁bekunden 328
▁coins 328
▁conscious 328
▁curtail 328
▁einzuschränken 328
▁erhöhten 328
▁impede 328
▁insult 328
▁records 328
▁redistribution 328
▁reveal 328
▁symbolische 328
▁tag 328
▁timing 328
▁welt 328
▁zweimal 328
geschrieben 327
speicher 327
▁Einfuhren 327
▁Feira 327
▁Finanzsystems 327
▁Gestern 327
▁Hinzu 327
▁Kontinuität 327
▁Militärs 327
▁Steuereinnahmen 327
▁Todes 327
▁WWU 327
▁appropriately 327
▁auszugeben 327
▁bans 327
▁bedenkt 327
▁benötigten 327
▁besetzten 327
▁destructive 327
▁ergänzende 327
▁langjährige 327
▁unwilling 327
▁weiten 327
like 326
llt 326
mechanismen 326
zucht 326
zyklus 326
▁Bomb 326
▁Daran 326
▁Diesbezüglich 326
▁Expansion 326
▁Herman 326
▁Letztlich 326
▁Referenden 326
▁Schattenb 326
▁Wegen 326
▁approving 326
▁beschuldigt 326
▁conferences 326
▁craft 326
▁deuten 326
▁komplizierter 326
▁manufacture 326
▁psychologische 326
▁religiöser 326
▁rooted 326
▁sadly 326
▁strenger 326
▁teure 326
▁verbreitete 326
▁vergrößern 326
▁übergehen 326
erichterstattern 325
käufe 325
lässig 325
sführer 325
slosigkeit 325
voraussetzung 325
zutreten 325
▁Bonino 325
▁Bowis 325
▁Chair 325
▁Experiment 325
▁Gehalt 325
▁Hunderttausende 325
▁Phasen 325
▁SDGs 325
▁Tsunami 325
▁abgedeckt 325
▁bedienen 325
▁beruhigen 325
▁disagreement 325
▁equipped 325
▁governor 325
▁ministerial 325
▁republic 325
▁schätzt 325
▁sozioökonomisch 325
▁verzögert 325
▁wishing 325
agi 324
erzeugnissen 324
ierende 324
regel 324
wich 324
ziehung 324
▁California 324
▁Eigenheim 324
▁Energiesektor 324
▁Erwachsenen 324
▁Gar 324
▁Impfstoffe 324
▁Privatsektor 324
▁Rednern 324
▁Right 324
▁Society 324
▁Steuersenkungen 324
▁Teilung 324
▁Weiß 324
▁Zurückhaltung 324
▁anxiety 324
▁anybody 324
▁copyright 324
▁drain 324
▁establishes 324
▁fines 324
▁finished 324
▁fleets 324
▁gerichtliche 324
▁imperialist 324
▁judgments 324
▁liberties 324
▁licences 324
▁nein 324
▁organisms 324
▁radikal 324
▁republikanische 324
▁ruhig 324
▁überschreiten 324
FP 323
Russia 323
bot 323
cost 323
teile 323
treating 323
uche 323
▁Banker 323
▁Früchte 323
▁Gleich 323
▁Kenia 323
▁Realitäten 323
▁Support 323
▁architecture 323
▁arisen 323
▁beliefs 323
▁giant 323
▁hostile 323
▁komp 323
▁licence 323
▁löst 323
▁mainstreaming 323
▁rebuild 323
▁sahen 323
▁textiles 323
▁verhelfen 323
▁vorne 323
▁wissensbasierte 323
DC 322
belastung 322
duced 322
für 322
parteien 322
sbefugnisse 322
text 322
themen 322
wache 322
▁Accordingly 322
▁Einwanderern 322
▁François 322
▁Gleichgewichts 322
▁Minimum 322
▁Philippines 322
▁Senegal 322
▁Tribunal 322
▁Zweite 322
▁abzuhalten 322
▁broaden 322
▁geliefert 322
▁hochentwickelte 322
▁inefficient 322
▁instances 322
▁jemanden 322
▁mache 322
▁subscribe 322
▁worries 322
▁zweckmäßig 322
Behrendt 321
EF 321
Sachverständigen 321
budget 321
labor 321
meldung 321
ttbewerbsfähiger 321
▁Bürgermeister 321
▁Diktator 321
▁Eingang 321
▁Ersten 321
▁Immerhin 321
▁Mittelschicht 321
▁Profite 321
▁anticipate 321
▁bananas 321
▁bedeutsame 321
▁betreffende 321
▁computers 321
▁declined 321
▁diagnosis 321
▁earnings 321
▁erschreckend 321
▁eventual 321
▁expenditures 321
▁exporters 321
▁factories 321
▁gelegentlich 321
▁polluter 321
▁reibungslose 321
▁richer 321
▁sucht 321
oxid 320
politischer 320
▁Aserbaidschan 320
▁Defense 320
▁EGF 320
▁Geschehnisse 320
▁Gewinner 320
▁Grundwasser 320
▁Plenarsaal 320
▁Prozentsatz 320
▁Straftat 320
▁Surely 320
▁angestrebt 320
▁ausgewogener 320
▁bevorstehende 320
▁bisherige 320
▁damaged 320
▁entity 320
▁ethics 320
▁frontiers 320
▁harassment 320
▁honor 320
▁possess 320
▁premium 320
▁skeptisch 320
▁swiftly 320
▁zurückgezogen 320
berichte 319
ierbar 319
stunde 319
č 319
▁Barrot 319
▁Caribbean 319
▁Ethik 319
▁Krankenhaus 319
▁Lücken 319
▁Malmström 319
▁Spaniens 319
▁bestrafen 319
▁darlegen 319
▁desperately 319
▁hängen 319
▁luck 319
▁predecessor 319
▁racist 319
▁recourse 319
▁reich 319
▁scourge 319
▁semi 319
▁taxpayer 319
▁tends 319
▁tsunami 319
▁verleiht 319
▁verschlimmert 319
▁verzerrt 319
▁zeichnet 319
X 318
austausch 318
figur 318
ohne 318
skriterien 318
standards 318
ungerechtfertigt 318
▁Arbeitsmarktes 318
▁Berichtigungs 318
▁Erfordernissen 318
▁Image 318
▁Manipulation 318
▁Missachtung 318
▁Royal 318
▁Stammzellen 318
▁Tendenzen 318
▁accelerated 318
▁accusations 318
▁annex 318
▁appearance 318
▁autoritäre 318
▁beschlossenen 318
▁betraf 318
▁condemning 318
▁diesjährige 318
▁engaging 318
▁entities 318
▁expresses 318
▁frontier 318
▁hitherto 318
▁lobenswert 318
▁orientieren 318
▁peacekeeping 318
▁präsent 318
▁rascher 318
▁ridiculous 318
▁schedule 318
▁seemingly 318
▁stattfindenden 318
▁unrealistisch 318
▁unverändert 318
▁verkündet 318
▁versteckt 318
Steuer 317
debt 317
geist 317
sverletzung 317
verein 317
▁Behinderung 317
▁Bindung 317
▁Boot 317
▁Bösch 317
▁Communities 317
▁Komponente 317
▁Konkret 317
▁Krim 317
▁Nothing 317
▁Plans 317
▁Sachverhalt 317
▁Schwellenmärkte 317
▁Spielregeln 317
▁Thematik 317
▁Vertrieb 317
▁anyway 317
▁beachtliche 317
▁genießt 317
▁gerät 317
▁hervorragend 317
▁legitime 317
▁likewise 317
▁quarters 317
▁resume 317
▁ungelöst 317
▁unrealistic 317
▁vicious 317
arian 316
etrugsbekämpfung 316
gestaltung 316
gestützte 316
statt 316
statut 316
▁Danach 316
▁Dell 316
▁Funktionen 316
▁Karas 316
▁Karriere 316
▁Microsoft 316
▁Politische 316
▁Potential 316
▁Roten 316
▁Seattle 316
▁Senat 316
▁Vorwürfe 316
▁Widersprüche 316
▁administrativen 316
▁ausführliche 316
▁countless 316
▁formulated 316
▁internally 316
▁march 316
▁objection 316
▁reproduktive 316
▁screening 316
▁sectoral 316
▁skandalös 316
▁technically 316
▁tied 316
▁zivil 316
anstalt 315
bräu 315
handels 315
informationen 315
lob 315
programmen 315
some 315
ttern 315
zieht 315
▁Economy 315
▁Engagements 315
▁Finanzmarkt 315
▁Philippinen 315
▁Siedlungen 315
▁Sur 315
▁Tobin 315
▁abide 315
▁antibiotics 315
▁awaiting 315
▁baltische 315
▁blocking 315
▁constituents 315
▁diversification 315
▁erwerben 315
▁explosion 315
▁geschlossenen 315
▁mad 315
▁maintains 315
▁prostitution 315
▁shot 315
▁structured 315
▁teil 315
▁utterly 315
Frage 314
IP 314
light 314
month 314
strom 314
verordnung 314
wahr 314
▁Ausstieg 314
▁Gaulle 314
▁Mehrzahl 314
▁Möglicherweise 314
▁PNR 314
▁Sitze 314
▁Smith 314
▁Tode 314
▁bewährt 314
▁coincide 314
▁duration 314
▁erzählt 314
▁exceeded 314
▁exemptions 314
▁margins 314
▁missbraucht 314
▁pur 314
▁render 314
▁spiral 314
▁studied 314
▁versprach 314
▁verursachte 314
▁volatile 314
Haushaltsbehörde 313
Plath 313
auto 313
force 313
geber 313
gerecht 313
grade 313
schancen 313
stag 313
vision 313
vorsitzende 313
▁Arch 313
▁Bretton 313
▁Everything 313
▁Grüne 313
▁Inhaftierung 313
▁Maria 313
▁Marshall 313
▁Randzio 313
▁SWIFT 313
▁Seitdem 313
▁Tragweite 313
▁UNHCR 313
▁Verbrennung 313
▁Wiederauf 313
[...]
